<unk>	0
<s>	0
</s>	0
▁t	-0
he	-1
▁a	-2
ou	-3
in	-4
▁w	-5
▁I	-6
re	-7
▁s	-8
▁T	-9
is	-10
om	-11
ha	-12
▁to	-13
▁m	-14
on	-15
▁d	-16
▁b	-17
ve	-18
▁the	-19
▁y	-20
▁c	-21
▁you	-22
▁f	-23
an	-24
ing	-25
▁l	-26
ed	-27
▁Tom	-28
it	-29
or	-30
er	-31
ar	-32
ll	-33
en	-34
▁p	-35
▁ha	-36
▁g	-37
as	-38
▁n	-39
▁h	-40
▁is	-41
es	-42
▁o	-43
hat	-44
▁he	-45
at	-46
ow	-47
▁W	-48
▁in	-49
ot	-50
▁H	-51
ay	-52
et	-53
▁th	-54
▁The	-55
le	-56
▁of	-57
▁be	-58
id	-59
ld	-60
▁an	-61
▁do	-62
▁e	-63
us	-64
im	-65
▁M	-66
ver	-67
ke	-68
▁was	-69
▁me	-70
▁He	-71
ic	-72
oo	-73
▁S	-74
▁on	-75
▁that	-76
▁st	-77
▁li	-78
gh	-79
▁for	-80
▁re	-81
▁have	-82
ant	-83
▁k	-84
▁it	-85
ch	-86
▁Y	-87
▁we	-88
▁You	-89
▁r	-90
al	-91
ary	-92
ght	-93
▁want	-94
st	-95
ad	-96
▁ne	-97
ould	-98
▁D	-99
un	-100
ent	-101
▁my	-102
out	-103
ome	-104
▁go	-105
▁Mary	-106
her	-107
se	-108
▁kn	-109
ith	-110
▁not	-111
ill	-112
▁with	-113
ut	-114
very	-115
▁your	-116
ly	-117
▁She	-118
ri	-119
▁this	-120
▁can	-121
▁It	-122
▁at	-123
▁his	-124
▁are	-125
am	-126
▁We	-127
ter	-128
▁know	-129
ac	-130
▁don	-131
ee	-132
ir	-133
▁as	-134
▁A	-135
all	-136
▁did	-137
ion	-138
▁and	-139
▁like	-140
hing	-141
ook	-142
▁him	-143
one	-144
ur	-145
pp	-146
ain	-147
▁sh	-148
ust	-149
ink	-150
ore	-151
▁ab	-152
ce	-153
op	-154
ea	-155
ight	-156
if	-157
▁C	-158
▁tr	-159
▁wor	-160
up	-161
▁What	-162
ake	-163
▁has	-164
▁j	-165
end	-166
▁her	-167
▁what	-168
ro	-169
▁tim	-170
▁Do	-171
▁al	-172
▁Th	-173
▁any	-174
▁so	-175
ood	-176
▁us	-177
▁sp	-178
▁time	-179
▁te	-180
▁think	-181
han	-182
▁will	-183
▁This	-184
▁very	-185
ho	-186
▁had	-187
▁pl	-188
il	-189
ct	-190
day	-191
ren	-192
▁up	-193
ong	-194
▁They	-195
▁does	-196
ive	-197
▁get	-198
ast	-199
▁see	-200
ul	-201
ge	-202
rom	-203
▁out	-204
ble	-205
▁about	-206
▁all	-207
▁un	-208
ost	-209
▁here	-210
hen	-211
ind	-212
▁didn	-213
▁su	-214
ame	-215
▁sa	-216
and	-217
oun	-218
red	-219
ry	-220
ear	-221
ase	-222
▁ex	-223
▁from	-224
ist	-225
ice	-226
est	-227
▁E	-228
▁My	-229
▁L	-230
▁P	-231
▁need	-232
art	-233
▁too	-234
▁no	-235
▁de	-236
alk	-237
our	-238
hy	-239
▁com	-240
▁man	-241
▁look	-242
der	-243
▁F	-244
here	-245
ally	-246
ap	-247
▁were	-248
▁doesn	-249
▁That	-250
▁going	-251
ays	-252
ish	-253
▁work	-254
ak	-255
ought	-256
▁happ	-257
▁one	-258
ack	-259
ers	-260
ate	-261
▁se	-262
▁by	-263
qu	-264
lp	-265
▁B	-266
ie	-267
ove	-268
▁There	-269
▁good	-270
other	-271
▁car	-272
ess	-273
▁would	-274
ol	-275
▁help	-276
▁there	-277
thing	-278
▁every	-279
lease	-280
▁How	-281
▁should	-282
hi	-283
▁she	-284
dy	-285
ig	-286
▁could	-287
▁con	-288
▁ag	-289
▁been	-290
ave	-291
omet	-292
▁Don	-293
ree	-294
▁am	-295
os	-296
▁than	-297
▁but	-298
▁some	-299
▁cl	-300
lf	-301
▁J	-302
▁v	-303
▁N	-304
res	-305
ck	-306
ort	-307
▁eat	-308
▁ar	-309
ather	-310
ation	-311
▁come	-312
riend	-313
▁more	-314
▁home	-315
▁book	-316
ite	-317
▁int	-318
▁just	-319
ous	-320
row	-321
▁ask	-322
▁somet	-323
▁got	-324
ng	-325
▁ro	-326
eak	-327
fe	-328
um	-329
▁co	-330
ound	-331
▁pro	-332
ep	-333
▁talk	-334
ning	-335
▁never	-336
▁now	-337
▁when	-338
ine	-339
▁mu	-340
▁qu	-341
ass	-342
▁le	-343
▁last	-344
▁tell	-345
▁af	-346
▁much	-347
▁stu	-348
oney	-349
▁Can	-350
▁Why	-351
▁speak	-352
▁off	-353
▁day	-354
▁something	-355
ard	-356
▁pe	-357
▁if	-358
▁wr	-359
▁who	-360
▁live	-361
ob	-362
ool	-363
▁money	-364
▁tw	-365
ople	-366
▁love	-367
▁friend	-368
▁year	-369
▁bo	-370
▁read	-371
itt	-372
▁G	-373
▁or	-374
▁ca	-375
▁bu	-376
▁play	-377
etter	-378
▁br	-379
▁back	-380
▁new	-381
▁sm	-382
ick	-383
▁won	-384
▁wat	-385
▁long	-386
▁dr	-387
▁Is	-388
ried	-389
ouse	-390
th	-391
▁how	-392
▁en	-393
ide	-394
▁say	-395
▁Let	-396
▁fe	-397
▁Please	-398
▁happen	-399
ag	-400
▁Are	-401
▁take	-402
▁lot	-403
▁old	-404
▁people	-405
self	-406
cc	-407
▁mad	-408
hed	-409
▁bus	-410
▁really	-411
▁house	-412
▁went	-413
▁ad	-414
▁said	-415
▁told	-416
▁under	-417
▁O	-418
▁exp	-419
ven	-420
▁must	-421
ang	-422
ther	-423
hild	-424
▁room	-425
em	-426
▁comp	-427
▁thought	-428
▁anything	-429
chool	-430
ving	-431
urn	-432
ough	-433
rench	-434
▁French	-435
▁again	-436
ways	-437
age	-438
▁made	-439
▁ke	-440
pt	-441
▁Who	-442
▁always	-443
ait	-444
ure	-445
▁school	-446
orrow	-447
▁right	-448
▁child	-449
ody	-450
▁pr	-451
▁only	-452
▁isn	-453
▁dog	-454
▁make	-455
ber	-456
ect	-457
ft	-458
ue	-459
▁im	-460
▁When	-461
▁two	-462
▁today	-463
▁thing	-464
ose	-465
▁Where	-466
eel	-467
ace	-468
▁father	-469
▁many	-470
▁call	-471
▁lea	-472
▁our	-473
▁over	-474
▁If	-475
▁bel	-476
▁rem	-477
▁night	-478
▁after	-479
own	-480
▁bl	-481
▁bec	-482
▁fa	-483
▁three	-484
▁wanted	-485
▁feel	-486
▁well	-487
▁still	-488
ra	-489
▁stay	-490
▁wait	-491
▁other	-492
▁har	-493
ity	-494
▁give	-495
fore	-496
▁aw	-497
▁pre	-498
ount	-499
able	-500
▁asked	-501
▁they	-502
ff	-503
▁left	-504
oston	-505
▁Boston	-506
▁tom	-507
▁fl	-508
ts	-509
use	-510
▁before	-511
▁Did	-512
ngl	-513
nd	-514
iss	-515
▁Engl	-516
▁tomorrow	-517
ress	-518
ester	-519
▁job	-520
▁down	-521
▁way	-522
get	-523
▁di	-524
ittle	-525
▁sw	-526
ieve	-527
ty	-528
▁them	-529
ark	-530
▁underst	-531
ell	-532
▁where	-533
ies	-534
▁little	-535
▁dis	-536
▁app	-537
ek	-538
▁saw	-539
ach	-540
▁leave	-541
esterday	-542
leep	-543
▁into	-544
▁part	-545
mer	-546
rive	-547
▁buy	-548
reat	-549
▁plan	-550
xt	-551
blem	-552
▁years	-553
▁problem	-554
irst	-555
▁boy	-556
▁English	-557
wn	-558
iz	-559
▁better	-560
ok	-561
▁chan	-562
▁op	-563
ict	-564
apan	-565
▁week	-566
▁Japan	-567
▁came	-568
ab	-569
▁fin	-570
▁understand	-571
▁seem	-572
▁hand	-573
▁believe	-574
ock	-575
▁gr	-576
▁yesterday	-577
ew	-578
read	-579
▁Have	-580
▁care	-581
ian	-582
▁acc	-583
▁find	-584
▁happy	-585
▁gir	-586
ise	-587
▁gu	-588
▁dif	-589
body	-590
▁Every	-591
▁try	-592
▁mar	-593
▁imp	-594
ich	-595
▁mother	-596
ult	-597
▁wants	-598
▁pa	-599
▁nothing	-600
act	-601
ful	-602
▁couldn	-603
▁cat	-604
▁rain	-605
▁took	-606
▁first	-607
el	-608
▁lear	-609
▁friends	-610
ting	-611
▁sc	-612
▁hard	-613
▁next	-614
▁start	-615
ope	-616
▁meet	-617
ired	-618
▁la	-619
▁put	-620
ence	-621
▁door	-622
▁walk	-623
akes	-624
▁mor	-625
▁dec	-626
te	-627
▁ear	-628
▁soon	-629
rest	-630
▁ten	-631
▁mo	-632
▁morning	-633
▁bought	-634
▁drink	-635
ten	-636
▁stud	-637
▁late	-638
▁study	-639
▁used	-640
▁lik	-641
▁His	-642
▁life	-643
▁pers	-644
▁fam	-645
▁teac	-646
▁everything	-647
ated	-648
▁beg	-649
▁doing	-650
▁sleep	-651
▁please	-652
▁St	-653
▁"	-654
▁watch	-655
ised	-656
▁ever	-657
▁lost	-658
▁pol	-659
▁away	-660
▁children	-661
▁gl	-662
ted	-663
▁bed	-664
▁remem	-665
▁let	-666
▁gave	-667
ire	-668
sw	-669
estion	-670
▁Ch	-671
▁sure	-672
▁str	-673
ident	-674
ily	-675
▁mat	-676
ory	-677
aut	-678
ught	-679
▁their	-680
▁happened	-681
ance	-682
▁brother	-683
▁teacher	-684
ious	-685
▁name	-686
▁learn	-687
▁show	-688
▁open	-689
▁hur	-690
▁turn	-691
hes	-692
ife	-693
▁answ	-694
ment	-695
▁att	-696
▁res	-697
▁hour	-698
▁bad	-699
ign	-700
▁hear	-701
gry	-702
▁question	-703
▁big	-704
▁why	-705
ited	-706
ready	-707
▁beaut	-708
▁already	-709
▁remember	-710
og	-711
▁id	-712
▁enough	-713
▁girl	-714
▁alone	-715
▁person	-716
oss	-717
vor	-718
oy	-719
▁heard	-720
▁adv	-721
▁married	-722
▁sur	-723
ese	-724
▁may	-725
▁young	-726
▁count	-727
▁wrong	-728
ause	-729
▁best	-730
▁busy	-731
iful	-732
ream	-733
▁water	-734
▁po	-735
▁found	-736
hone	-737
▁wasn	-738
hn	-739
▁train	-740
▁beautiful	-741
▁che	-742
▁Jo	-743
▁vis	-744
▁knows	-745
▁often	-746
▁John	-747
▁cle	-748
ister	-749
▁met	-750
▁min	-751
▁hot	-752
▁looking	-753
▁keep	-754
any	-755
▁use	-756
▁list	-757
▁likes	-758
▁cold	-759
▁same	-760
▁done	-761
▁kind	-762
▁letter	-763
▁party	-764
▁student	-765
reak	-766
▁sho	-767
ond	-768
are	-769
▁No	-770
▁able	-771
▁looks	-772
▁without	-773
ered	-774
▁1	-775
ctor	-776
▁mon	-777
ull	-778
▁des	-779
▁Would	-780
▁K	-781
▁food	-782
▁seen	-783
les	-784
ished	-785
▁eas	-786
▁Some	-787
▁sing	-788
▁R	-789
ars	-790
▁hun	-791
▁run	-792
▁things	-793
▁swim	-794
▁mist	-795
▁fo	-796
▁wh	-797
ible	-798
▁knew	-799
▁sn	-800
▁Your	-801
▁because	-802
pped	-803
fic	-804
▁idea	-805
ner	-806
▁stop	-807
erest	-808
ually	-809
gg	-810
ffee	-811
ince	-812
▁tired	-813
uth	-814
▁bro	-815
▁May	-816
▁even	-817
ix	-818
▁pain	-819
▁sister	-820
hile	-821
▁kill	-822
▁answer	-823
▁cont	-824
▁bot	-825
▁cha	-826
▁miss	-827
▁coffee	-828
ans	-829
▁hope	-830
▁favor	-831
▁true	-832
▁break	-833
ork	-834
▁being	-835
ath	-836
▁minut	-837
▁interest	-838
▁own	-839
▁pay	-840
▁around	-841
cle	-842
▁arrive	-843
ank	-844
aking	-845
▁wind	-846
▁books	-847
oke	-848
▁month	-849
igh	-850
▁yet	-851
▁diffic	-852
ail	-853
▁sha	-854
▁police	-855
▁fun	-856
▁while	-857
▁wish	-858
▁compl	-859
▁pass	-860
ert	-861
▁days	-862
▁word	-863
ater	-864
most	-865
unch	-866
▁doctor	-867
▁All	-868
▁sec	-869
▁wom	-870
ia	-871
▁bir	-872
▁died	-873
ci	-874
▁rest	-875
▁listen	-876
pr	-877
▁sk	-878
▁Mon	-879
▁mind	-880
▁these	-881
rents	-882
ied	-883
ud	-884
▁war	-885
▁mov	-886
orm	-887
▁el	-888
▁pret	-889
▁great	-890
▁class	-891
▁sl	-892
▁truth	-893
▁ey	-894
▁seems	-895
▁almost	-896
▁another	-897
▁talking	-898
▁parents	-899
▁ac	-900
▁place	-901
▁world	-902
▁Monday	-903
▁lunch	-904
▁looked	-905
▁unt	-906
meric	-907
▁difficult	-908
ided	-909
inner	-910
▁Americ	-911
▁family	-912
erm	-913
▁cook	-914
▁em	-915
iver	-916
▁getting	-917
▁cr	-918
raid	-919
▁tried	-920
▁afraid	-921
▁matter	-922
uck	-923
▁rep	-924
▁pres	-925
▁early	-926
▁far	-927
▁son	-928
▁pict	-929
gether	-930
▁2	-931
night	-932
▁few	-933
angu	-934
▁forg	-935
▁accident	-936
▁anyone	-937
▁As	-938
▁else	-939
▁together	-940
ip	-941
▁U	-942
side	-943
▁ago	-944
▁In	-945
ens	-946
▁until	-947
ved	-948
no	-949
ged	-950
ret	-951
▁once	-952
▁mine	-953
▁langu	-954
00	-955
eep	-956
anger	-957
▁each	-958
▁wife	-959
▁haven	-960
▁import	-961
▁window	-962
▁TV	-963
▁fr	-964
▁angry	-965
▁inv	-966
▁coming	-967
▁meeting	-968
▁expl	-969
▁country	-970
▁win	-971
▁favorite	-972
usic	-973
ced	-974
▁Does	-975
▁hours	-976
▁himself	-977
▁yourself	-978
ug	-979
▁ch	-980
▁dream	-981
▁sit	-982
▁wonder	-983
▁end	-984
▁surpr	-985
be	-986
led	-987
▁wouldn	-988
▁tea	-989
▁news	-990
ons	-991
▁small	-992
aught	-993
▁dinner	-994
used	-995
▁rec	-996
▁music	-997
▁table	-998
cept	-999
orry	-1000
▁prom	-1001
▁says	-1002
▁drive	-1003
▁might	-1004
▁act	-1005
▁visit	-1006
▁phone	-1007
▁air	-1008
ouble	-1009
."	-1010
▁easy	-1011
▁fire	-1012
▁lives	-1013
ever	-1014
▁hurt	-1015
▁real	-1016
▁playing	-1017
▁tele	-1018
▁expect	-1019
▁On	-1020
feren	-1021
▁wear	-1022
▁five	-1023
▁Japanese	-1024
lt	-1025
▁ate	-1026
▁Tell	-1027
▁reading	-1028
ize	-1029
orn	-1030
▁Her	-1031
▁bab	-1032
▁park	-1033
ild	-1034
work	-1035
ision	-1036
▁Come	-1037
▁waiting	-1038
▁spend	-1039
▁stand	-1040
▁eating	-1041
ub	-1042
▁trying	-1043
▁nice	-1044
▁glass	-1045
▁ent	-1046
▁called	-1047
▁finished	-1048
▁Our	-1049
▁snow	-1050
▁Could	-1051
▁light	-1052
▁decided	-1053
▁minutes	-1054
▁cho	-1055
▁ran	-1056
▁fore	-1057
▁song	-1058
▁such	-1059
▁started	-1060
▁hate	-1061
rist	-1062
▁lar	-1063
oking	-1064
▁most	-1065
▁rel	-1066
ossible	-1067
▁office	-1068
aper	-1069
▁sat	-1070
▁trouble	-1071
cl	-1072
lic	-1073
▁story	-1074
old	-1075
umb	-1076
ient	-1077
▁dri	-1078
▁key	-1079
▁fast	-1080
▁ready	-1081
▁myself	-1082
▁important	-1083
als	-1084
ors	-1085
▁sick	-1086
▁tonight	-1087
ating	-1088
▁felt	-1089
▁needs	-1090
▁danger	-1091
we	-1092
osed	-1093
▁ser	-1094
ition	-1095
▁woman	-1096
▁Christ	-1097
ax	-1098
▁cry	-1099
▁Will	-1100
▁doll	-1101
▁since	-1102
▁station	-1103
▁arrived	-1104
▁students	-1105
oin	-1106
▁ref	-1107
oud	-1108
▁shoes	-1109
ital	-1110
▁eyes	-1111
▁times	-1112
▁someone	-1113
▁mil	-1114
▁Give	-1115
▁per	-1116
▁supp	-1117
▁Go	-1118
ates	-1119
llow	-1120
▁sol	-1121
▁sun	-1122
▁begin	-1123
pl	-1124
▁To	-1125
hank	-1126
▁near	-1127
▁usually	-1128
▁working	-1129
▁cam	-1130
▁red	-1131
▁Canad	-1132
▁shouldn	-1133
▁differen	-1134
30	-1135
more	-1136
▁goes	-1137
▁mean	-1138
▁change	-1139
▁pretty	-1140
▁ret	-1141
▁city	-1142
▁sorry	-1143
▁anymore	-1144
reet	-1145
▁Nob	-1146
▁sto	-1147
▁hair	-1148
▁tall	-1149
ves	-1150
▁having	-1151
▁ap	-1152
▁bet	-1153
ball	-1154
▁law	-1155
▁both	-1156
▁comm	-1157
▁gone	-1158
▁town	-1159
▁clean	-1160
▁write	-1161
▁Nobody	-1162
▁forget	-1163
▁Everyone	-1164
▁homework	-1165
joy	-1166
▁baby	-1167
▁head	-1168
▁dress	-1169
nis	-1170
oup	-1171
▁Be	-1172
▁disc	-1173
▁Thank	-1174
▁broke	-1175
ote	-1176
▁Un	-1177
▁Wh	-1178
▁sound	-1179
mas	-1180
▁six	-1181
▁flow	-1182
▁free	-1183
▁Christmas	-1184
ss	-1185
ely	-1186
med	-1187
iness	-1188
▁tennis	-1189
▁thr	-1190
▁These	-1191
▁hands	-1192
▁those	-1193
▁mistake	-1194
▁picture	-1195
▁present	-1196
ason	-1197
fast	-1198
▁short	-1199
▁forgot	-1200
icy	-1201
upid	-1202
▁cut	-1203
▁ele	-1204
▁conc	-1205
ention	-1206
▁stupid	-1207
unk	-1208
▁reg	-1209
rew	-1210
▁game	-1211
▁grand	-1212
▁movie	-1213
▁afterno	-1214
ral	-1215
▁kiss	-1216
▁afternoon	-1217
▁hat	-1218
ier	-1219
▁bit	-1220
▁sum	-1221
▁sent	-1222
man	-1223
▁Which	-1224
▁breakfast	-1225
fect	-1226
▁Take	-1227
▁aren	-1228
ense	-1229
▁pat	-1230
▁quite	-1231
▁language	-1232
ical	-1233
▁mom	-1234
▁tri	-1235
▁enjoy	-1236
▁trust	-1237
▁high	-1238
br	-1239
ny	-1240
▁men	-1241
▁advice	-1242
▁against	-1243
ger	-1244
ord	-1245
▁kid	-1246
▁move	-1247
▁interesting	-1248
vel	-1249
ross	-1250
▁Get	-1251
umber	-1252
▁Aust	-1253
▁caught	-1254
osp	-1255
ared	-1256
▁rich	-1257
▁cake	-1258
▁lived	-1259
▁box	-1260
▁fell	-1261
ched	-1262
▁Just	-1263
▁dark	-1264
▁comput	-1265
aw	-1266
irt	-1267
irty	-1268
▁whe	-1269
▁wall	-1270
▁began	-1271
▁river	-1272
▁Austral	-1273
ange	-1274
▁full	-1275
▁along	-1276
▁comes	-1277
▁turned	-1278
▁through	-1279
iled	-1280
▁face	-1281
▁longer	-1282
▁studying	-1283
zy	-1284
ash	-1285
not	-1286
olog	-1287
▁then	-1288
▁makes	-1289
▁trave	-1290
ward	-1291
ained	-1292
▁coll	-1293
▁milk	-1294
▁birth	-1295
▁secret	-1296
ces	-1297
imes	-1298
ized	-1299
ject	-1300
less	-1301
ither	-1302
era	-1303
ime	-1304
▁pen	-1305
where	-1306
▁number	-1307
ying	-1308
▁Chin	-1309
▁daught	-1310
▁weather	-1311
ness	-1312
▁hosp	-1313
▁build	-1314
▁feeling	-1315
ile	-1316
▁cons	-1317
▁loves	-1318
▁Australia	-1319
bed	-1320
ions	-1321
room	-1322
▁heal	-1323
▁finish	-1324
▁summer	-1325
ouch	-1326
▁Not	-1327
▁kept	-1328
▁pick	-1329
▁hotel	-1330
▁later	-1331
▁cannot	-1332
▁street	-1333
▁close	-1334
▁large	-1335
▁older	-1336
:30	-1337
▁Sun	-1338
▁guy	-1339
▁clot	-1340
▁follow	-1341
▁watching	-1342
▁Fr	-1343
▁add	-1344
▁fish	-1345
▁resp	-1346
▁accept	-1347
▁hospital	-1348
▁thinking	-1349
air	-1350
port	-1351
▁Sunday	-1352
▁return	-1353
▁America	-1354
▁age	-1355
▁sal	-1356
▁conf	-1357
▁death	-1358
▁killed	-1359
rect	-1360
▁writ	-1361
▁strong	-1362
▁hid	-1363
▁dep	-1364
▁luck	-1365
▁tree	-1366
▁abs	-1367
▁Keep	-1368
▁became	-1369
▁chance	-1370
▁living	-1371
ately	-1372
▁exam	-1373
▁questions	-1374
▁surprised	-1375
▁pie	-1376
▁bicy	-1377
▁Canadian	-1378
app	-1379
ended	-1380
ience	-1381
▁Many	-1382
▁store	-1383
▁camera	-1384
▁hungry	-1385
▁moment	-1386
▁everyone	-1387
uss	-1388
▁born	-1389
▁dead	-1390
▁gets	-1391
▁hasn	-1392
▁dollars	-1393
▁daughter	-1394
▁Everybody	-1395
yo	-1396
itc	-1397
▁order	-1398
▁stopped	-1399
ages	-1400
▁med	-1401
ative	-1402
▁Stop	-1403
▁glad	-1404
▁company	-1405
▁computer	-1406
az	-1407
du	-1408
ison	-1409
▁quick	-1410
▁reason	-1411
▁smoking	-1412
ds	-1413
okyo	-1414
▁ter	-1415
▁inter	-1416
▁bicycle	-1417
▁ill	-1418
▁wine	-1419
▁Tokyo	-1420
▁agree	-1421
▁spent	-1422
▁rather	-1423
▁thinks	-1424
▁bag	-1425
▁black	-1426
▁works	-1427
▁making	-1428
▁careful	-1429
fer	-1430
▁adm	-1431
▁hit	-1432
iction	-1433
ming	-1434
▁die	-1435
▁drunk	-1436
▁expens	-1437
▁birthday	-1438
▁Sp	-1439
▁arm	-1440
▁ass	-1441
▁exc	-1442
▁ins	-1443
dered	-1444
▁bank	-1445
▁char	-1446
▁cost	-1447
▁cup	-1448
io	-1449
yp	-1450
den	-1451
▁2:30	-1452
ountain	-1453
▁taking	-1454
▁building	-1455
ike	-1456
▁white	-1457
▁saying	-1458
hind	-1459
clock	-1460
▁Look	-1461
▁behind	-1462
▁others	-1463
?"	-1464
oub	-1465
▁set	-1466
▁fight	-1467
▁speaks	-1468
▁clothes	-1469
▁lie	-1470
▁become	-1471
▁complet	-1472
▁serious	-1473
mp	-1474
ont	-1475
fort	-1476
▁flo	-1477
▁anim	-1478
▁plane	-1479
▁travel	-1480
▁flowers	-1481
▁inc	-1482
ocked	-1483
▁tick	-1484
▁ob	-1485
▁One	-1486
▁cor	-1487
▁cra	-1488
▁dist	-1489
▁pian	-1490
▁helped	-1491
▁business	-1492
ween	-1493
▁Germ	-1494
▁eaten	-1495
▁wrote	-1496
lfriend	-1497
ring	-1498
▁Put	-1499
▁touch	-1500
▁stayed	-1501
▁changed	-1502
▁mountain	-1503
▁possible	-1504
▁expensive	-1505
▁mess	-1506
▁team	-1507
▁seven	-1508
▁wearing	-1509
▁whether	-1510
▁girlfriend	-1511
aur	-1512
ned	-1513
ump	-1514
phone	-1515
▁beer	-1516
▁exact	-1517
▁worry	-1518
▁between	-1519
▁ph	-1520
▁swe	-1521
▁cap	-1522
▁clim	-1523
▁foot	-1524
▁poin	-1525
▁seat	-1526
aff	-1527
▁Sh	-1528
ably	-1529
▁egg	-1530
▁inf	-1531
▁less	-1532
▁trip	-1533
itting	-1534
▁Somet	-1535
▁bring	-1536
▁heart	-1537
▁takes	-1538
▁thank	-1539
▁es	-1540
▁pop	-1541
▁catch	-1542
▁uncle	-1543
▁outside	-1544
▁different	-1545
▁Af	-1546
cess	-1547
ured	-1548
▁hor	-1549
▁cour	-1550
▁fall	-1551
▁terri	-1552
▁worked	-1553
▁advised	-1554
▁leg	-1555
▁bath	-1556
▁lose	-1557
▁clear	-1558
▁trans	-1559
▁diction	-1560
▁speaking	-1561
ics	-1562
▁dogs	-1563
▁which	-1564
▁whole	-1565
▁famous	-1566
▁needed	-1567
▁strange	-1568
av	-1569
eal	-1570
tle	-1571
▁its	-1572
ccess	-1573
▁base	-1574
▁asleep	-1575
▁herself	-1576
ual	-1577
ures	-1578
▁mem	-1579
▁vac	-1580
uring	-1581
▁four	-1582
aurant	-1583
▁restaurant	-1584
arth	-1585
arden	-1586
▁libr	-1587
▁safe	-1588
ishing	-1589
▁piano	-1590
▁garden	-1591
▁glasses	-1592
▁running	-1593
▁At	-1594
leas	-1595
▁Now	-1596
▁conv	-1597
▁doub	-1598
▁sold	-1599
▁hurry	-1600
▁paper	-1601
▁proud	-1602
▁yours	-1603
▁showed	-1604
▁dangerous	-1605
ib	-1606
aken	-1607
ular	-1608
▁hon	-1609
▁ice	-1610
▁sub	-1611
aster	-1612
▁guit	-1613
▁paid	-1614
▁sell	-1615
▁noise	-1616
▁Someone	-1617
▁patient	-1618
▁quickly	-1619
▁raining	-1620
▁problems	-1621
oth	-1622
ived	-1623
ertain	-1624
▁least	-1625
▁ticket	-1626
▁library	-1627
▁dictionary	-1628
▁typ	-1629
▁2:30.	-1630
▁blame	-1631
▁crazy	-1632
▁loved	-1633
▁disapp	-1634
▁exactly	-1635
▁poor	-1636
▁prob	-1637
▁sign	-1638
vision	-1639
▁allow	-1640
▁novel	-1641
▁prefer	-1642
▁interested	-1643
ps	-1644
iet	-1645
▁apolog	-1646
▁guitar	-1647
▁waited	-1648
ken	-1649
aged	-1650
▁rad	-1651
▁tax	-1652
▁quit	-1653
▁slow	-1654
▁floor	-1655
▁played	-1656
▁weight	-1657
▁anybody	-1658
▁perfect	-1659
▁baseball	-1660
▁mistakes	-1661
▁telephone	-1662
by	-1663
▁19	-1664
oose	-1665
rell	-1666
▁fact	-1667
▁grow	-1668
▁lawy	-1669
▁side	-1670
▁teach	-1671
ins	-1672
ugh	-1673
ush	-1674
▁vo	-1675
▁pri	-1676
▁sad	-1677
▁Maybe	-1678
▁laugh	-1679
▁during	-1680
▁explain	-1681
▁success	-1682
▁complain	-1683
ead	-1684
ric	-1685
▁Pe	-1686
▁ext	-1687
▁fix	-1688
▁front	-1689
▁words	-1690
▁broken	-1691
▁thirty	-1692
▁decision	-1693
cap	-1694
band	-1695
ighb	-1696
land	-1697
ored	-1698
outh	-1699
ract	-1700
▁rul	-1701
vening	-1702
▁known	-1703
▁neighb	-1704
▁foreign	-1705
▁probably	-1706
ully	-1707
▁art	-1708
▁sus	-1709
▁umb	-1710
pping	-1711
▁inst	-1712
overed	-1713
▁opened	-1714
▁seemed	-1715
▁walked	-1716
▁evening	-1717
▁umbrell	-1718
ling	-1719
▁fing	-1720
▁hide	-1721
ations	-1722
▁lucky	-1723
▁movies	-1724
▁concert	-1725
ton	-1726
fully	-1727
▁road	-1728
usband	-1729
▁certain	-1730
▁television	-1731
▁spe	-1732
father	-1733
▁earth	-1734
▁escap	-1735
▁shirt	-1736
▁People	-1737
▁missed	-1738
▁talked	-1739
bit	-1740
erv	-1741
sel	-1742
▁An	-1743
enty	-1744
▁gun	-1745
▁mur	-1746
itten	-1747
▁exper	-1748
▁choice	-1749
▁brought	-1750
▁husband	-1751
▁umbrella	-1752
▁sometimes	-1753
cial	-1754
road	-1755
▁Even	-1756
▁rece	-1757
▁chair	-1758
▁deser	-1759
▁prison	-1760
▁learned	-1761
▁Everything	-1762
▁ve	-1763
▁fly	-1764
▁half	-1765
▁Those	-1766
▁eight	-1767
▁radio	-1768
▁OK	-1769
atur	-1770
reed	-1771
rees	-1772
▁Par	-1773
▁mag	-1774
▁ship	-1775
▁situ	-1776
▁test	-1777
▁lying	-1778
▁driver	-1779
▁health	-1780
▁lawyer	-1781
▁minute	-1782
ames	-1783
reen	-1784
▁fig	-1785
▁enem	-1786
▁elect	-1787
▁treat	-1788
▁United	-1789
▁forward	-1790
▁weekend	-1791
▁attention	-1792
▁ru	-1793
ceed	-1794
ploy	-1795
▁hum	-1796
▁mid	-1797
▁deal	-1798
▁heav	-1799
▁rules	-1800
oc	-1801
ator	-1802
ider	-1803
▁Here	-1804
selves	-1805
▁smell	-1806
▁twice	-1807
▁crying	-1808
▁visited	-1809
▁swimming	-1810
ade	-1811
uit	-1812
▁av	-1813
▁New	-1814
▁det	-1815
veral	-1816
▁crow	-1817
▁desk	-1818
▁feed	-1819
▁meat	-1820
▁Paris	-1821
▁guess	-1822
▁second	-1823
▁invited	-1824
▁several	-1825
▁situation	-1826
▁sim	-1827
itted	-1828
▁boys	-1829
▁fine	-1830
▁opin	-1831
▁prop	-1832
ressed	-1833
▁After	-1834
▁alive	-1835
▁point	-1836
▁seeing	-1837
▁transl	-1838
▁finally	-1839
iv	-1840
ding	-1841
idge	-1842
▁smoke	-1843
▁closed	-1844
▁fishing	-1845
▁leaving	-1846
▁completely	-1847
oto	-1848
▁apple	-1849
▁medic	-1850
▁solve	-1851
▁worried	-1852
▁drinking	-1853
ze	-1854
way	-1855
ower	-1856
▁dance	-1857
▁worth	-1858
▁borrow	-1859
▁animals	-1860
▁driving	-1861
▁vacation	-1862
▁grandfather	-1863
▁ra	-1864
▁Lea	-1865
▁pub	-1866
▁pur	-1867
▁sil	-1868
▁blue	-1869
▁past	-1870
▁send	-1871
▁knife	-1872
▁newsp	-1873
▁quiet	-1874
▁States	-1875
▁discuss	-1876
▁sleeping	-1877
gu	-1878
so	-1879
▁opp	-1880
ondon	-1881
▁ball	-1882
▁deep	-1883
▁kitc	-1884
▁mach	-1885
▁tast	-1886
▁beach	-1887
▁breat	-1888
▁London	-1889
▁abroad	-1890
▁kitchen	-1891
▁younger	-1892
▁everybody	-1893
▁bri	-1894
▁prep	-1895
▁sugg	-1896
▁promise	-1897
▁writing	-1898
▁promised	-1899
cy	-1900
dred	-1901
ined	-1902
▁rid	-1903
▁ris	-1904
ently	-1905
illed	-1906
▁eggs	-1907
▁yell	-1908
▁spoke	-1909
▁women	-1910
▁Thanks	-1911
▁either	-1912
▁honest	-1913
▁inform	-1914
▁Ex	-1915
omed	-1916
ries	-1917
▁col	-1918
▁gen	-1919
▁ind	-1920
▁hold	-1921
▁liked	-1922
▁belong	-1923
▁hiding	-1924
▁passed	-1925
▁singing	-1926
gar	-1927
▁suc	-1928
▁cats	-1929
▁coat	-1930
▁susp	-1931
▁China	-1932
▁doubt	-1933
▁drank	-1934
▁traff	-1935
▁necess	-1936
▁address	-1937
▁airport	-1938
▁sitting	-1939
▁succeed	-1940
▁impossible	-1941
▁5	-1942
cer	-1943
ugg	-1944
ccer	-1945
▁also	-1946
▁kids	-1947
▁taken	-1948
▁waste	-1949
▁worse	-1950
▁winter	-1951
▁opinion	-1952
▁traffic	-1953
▁medicine	-1954
▁shopping	-1955
ple	-1956
airs	-1957
orts	-1958
▁shut	-1959
▁Nothing	-1960
▁happens	-1961
▁hundred	-1962
▁listening	-1963
ial	-1964
ief	-1965
ging	-1966
ists	-1967
▁Was	-1968
▁dro	-1969
▁sky	-1970
▁beha	-1971
▁post	-1972
▁apart	-1973
▁pleas	-1974
▁sense	-1975
▁written	-1976
iling	-1977
▁bird	-1978
▁fool	-1979
▁shot	-1980
▁Today	-1981
▁carry	-1982
▁piece	-1983
▁hardly	-1984
▁months	-1985
▁machine	-1986
ude	-1987
▁cal	-1988
▁cur	-1989
▁def	-1990
▁gif	-1991
ature	-1992
▁Stay	-1993
▁lake	-1994
▁Leave	-1995
▁offer	-1996
▁smart	-1997
▁apples	-1998
▁arrest	-1999
▁expected	-2000
erg	-2001
ets	-2002
▁Try	-2003
▁dan	-2004
▁del	-2005
ument	-2006
▁case	-2007
▁keys	-2008
▁terrible	-2009
ey	-2010
ask	-2011
iday	-2012
urch	-2013
▁hop	-2014
▁join	-2015
▁shop	-2016
friend	-2017
▁girls	-2018
▁horse	-2019
▁message	-2020
▁American	-2021
▁pictures	-2022
mb	-2023
oned	-2024
▁fif	-2025
▁fut	-2026
ility	-2027
▁check	-2028
▁church	-2029
▁contin	-2030
▁correct	-2031
▁languages	-2032
dden	-2033
teen	-2034
▁fat	-2035
▁tie	-2036
▁boss	-2037
ousand	-2038
▁cross	-2039
▁easily	-2040
▁sudden	-2041
▁refused	-2042
▁learning	-2043
▁happening	-2044
iol	-2045
▁10	-2046
olut	-2047
▁pun	-2048
▁eats	-2049
▁weren	-2050
▁France	-2051
▁across	-2052
▁employ	-2053
▁figure	-2054
▁soccer	-2055
▁sounds	-2056
▁carefully	-2057
dle	-2058
unt	-2059
▁ign	-2060
▁mis	-2061
▁ring	-2062
▁temp	-2063
▁wood	-2064
▁veget	-2065
▁inside	-2066
▁walking	-2067
▁boyfriend	-2068
▁disappoin	-2069
bo	-2070
▁V	-2071
cent	-2072
▁fil	-2073
▁Call	-2074
▁bill	-2075
▁suit	-2076
▁appro	-2077
▁bread	-2078
▁cream	-2079
▁fault	-2080
osition	-2081
▁attack	-2082
▁future	-2083
▁Al	-2084
▁sy	-2085
▁Both	-2086
▁imag	-2087
▁star	-2088
▁crowd	-2089
▁enemy	-2090
▁given	-2091
▁smile	-2092
▁voice	-2093
▁remind	-2094
▁though	-2095
▁respect	-2096
▁surprise	-2097
▁Something	-2098
co	-2099
hip	-2100
thy	-2101
▁ev	-2102
▁eye	-2103
▁Wait	-2104
▁York	-2105
▁coup	-2106
▁prot	-2107
▁taxi	-2108
▁colle	-2109
▁plans	-2110
▁Chinese	-2111
une	-2112
fied	-2113
olen	-2114
▁eng	-2115
ughed	-2116
▁clos	-2117
▁slowly	-2118
▁college	-2119
▁cooking	-2120
▁laughed	-2121
▁telling	-2122
▁brothers	-2123
▁somewhere	-2124
ane	-2125
rit	-2126
head	-2127
vers	-2128
▁Eur	-2129
▁Ital	-2130
▁warm	-2131
▁stolen	-2132
▁standing	-2133
▁policeman	-2134
▁difference	-2135
pty	-2136
▁cop	-2137
▁spee	-2138
▁marry	-2139
▁mouth	-2140
▁Europe	-2141
▁failed	-2142
▁leaves	-2143
▁entered	-2144
▁neighbor	-2145
ex	-2146
ilt	-2147
oid	-2148
oof	-2149
come	-2150
lept	-2151
oken	-2152
rite	-2153
▁Ask	-2154
▁bur	-2155
▁unl	-2156
▁grad	-2157
▁ride	-2158
▁viol	-2159
▁price	-2160
▁forgive	-2161
▁necessary	-2162
▁newspaper	-2163
ats	-2164
ants	-2165
▁hol	-2166
▁top	-2167
▁fail	-2168
▁nerv	-2169
▁vill	-2170
▁funny	-2171
▁heavy	-2172
▁moved	-2173
▁produ	-2174
▁regret	-2175
▁nervous	-2176
de	-2177
rem	-2178
▁Tw	-2179
▁ir	-2180
amed	-2181
ises	-2182
▁ren	-2183
apped	-2184
▁cond	-2185
▁guys	-2186
▁jump	-2187
▁requ	-2188
▁till	-2189
ination	-2190
unately	-2191
▁bridge	-2192
▁couple	-2193
▁public	-2194
gr	-2195
▁z	-2196
eth	-2197
▁Ky	-2198
vent	-2199
▁burn	-2200
▁lend	-2201
▁sand	-2202
▁wash	-2203
▁aware	-2204
▁green	-2205
▁means	-2206
▁storm	-2207
▁German	-2208
▁native	-2209
▁report	-2210
▁speech	-2211
▁suggest	-2212
▁For	-2213
▁dem	-2214
ached	-2215
arket	-2216
▁cars	-2217
▁fear	-2218
▁golf	-2219
▁wake	-2220
▁blind	-2221
▁blood	-2222
▁clock	-2223
▁kissed	-2224
▁twenty	-2225
▁univer	-2226
▁wallet	-2227
▁consider	-2228
▁thousand	-2229
ior	-2230
ices	-2231
▁occ	-2232
▁grew	-2233
▁inno	-2234
▁joke	-2235
▁risk	-2236
▁salt	-2237
▁empty	-2238
▁fruit	-2239
▁plays	-2240
▁polit	-2241
▁satis	-2242
▁stood	-2243
▁sugar	-2244
▁except	-2245
▁popular	-2246
▁painting	-2247
▁wonderful	-2248
cil	-2249
ror	-2250
rup	-2251
ume	-2252
medi	-2253
▁drug	-2254
▁gift	-2255
▁surv	-2256
▁ought	-2257
▁share	-2258
▁weeks	-2259
▁bottle	-2260
▁shower	-2261
▁received	-2262
▁supposed	-2263
erc	-2264
ery	-2265
ird	-2266
ened	-2267
tain	-2268
▁bat	-2269
▁owe	-2270
▁hang	-2271
▁land	-2272
▁appre	-2273
▁worst	-2274
▁button	-2275
▁decide	-2276
▁finger	-2277
▁immedi	-2278
▁taught	-2279
▁beginning	-2280
cri	-2281
gen	-2282
rol	-2283
uri	-2284
▁ho	-2285
aces	-2286
aked	-2287
ayed	-2288
vest	-2289
▁bor	-2290
▁lad	-2291
iving	-2292
vious	-2293
▁Aren	-2294
▁stra	-2295
mother	-2296
▁relax	-2297
▁depend	-2298
▁smiled	-2299
▁watched	-2300
▁experience	-2301
ato	-2302
col	-2303
lew	-2304
ots	-2305
rap	-2306
▁ce	-2307
hood	-2308
iced	-2309
▁Has	-2310
▁den	-2311
acket	-2312
▁phot	-2313
▁soup	-2314
▁Satur	-2315
▁Write	-2316
▁sight	-2317
▁trees	-2318
▁attend	-2319
▁appreci	-2320
▁staying	-2321
▁Saturday	-2322
▁feelings	-2323
▁planning	-2324
▁wondered	-2325
▁information	-2326
ees	-2327
uct	-2328
ches	-2329
▁ann	-2330
▁Most	-2331
▁earl	-2332
▁film	-2333
▁prof	-2334
▁Kyoto	-2335
▁built	-2336
▁charge	-2337
▁common	-2338
▁murder	-2339
▁spoken	-2340
▁special	-2341
▁sentence	-2342
iew	-2343
omp	-2344
ued	-2345
acks	-2346
▁bar	-2347
▁pot	-2348
▁sea	-2349
▁Make	-2350
▁fair	-2351
▁save	-2352
vented	-2353
▁appear	-2354
▁drinks	-2355
▁escape	-2356
▁pencil	-2357
▁village	-2358
bs	-2359
000	-2360
aim	-2361
con	-2362
▁Cl	-2363
▁Any	-2364
▁God	-2365
▁aff	-2366
▁los	-2367
▁squ	-2368
▁beat	-2369
▁furn	-2370
▁hist	-2371
▁rese	-2372
▁color	-2373
▁gover	-2374
▁bother	-2375
▁choose	-2376
▁single	-2377
▁absolut	-2378
▁studied	-2379
▁actually	-2380
▁anywhere	-2381
▁apartment	-2382
str	-2383
ache	-2384
ilty	-2385
▁fit	-2386
▁gas	-2387
▁jud	-2388
▁wed	-2389
ables	-2390
useum	-2391
ution	-2392
▁Turn	-2393
▁club	-2394
▁king	-2395
▁line	-2396
▁perm	-2397
▁delic	-2398
▁slept	-2399
▁teeth	-2400
▁guilty	-2401
▁likely	-2402
▁locked	-2403
▁project	-2404
▁condition	-2405
uc	-2406
per	-2407
,000	-2408
ails	-2409
bers	-2410
ians	-2411
▁cit	-2412
▁emb	-2413
ected	-2414
lcome	-2415
▁moon	-2416
▁cards	-2417
▁magaz	-2418
▁power	-2419
▁museum	-2420
▁yellow	-2421
▁enjoyed	-2422
▁apologize	-2423
arm	-2424
atch	-2425
ults	-2426
▁inj	-2427
▁sup	-2428
▁vol	-2429
alent	-2430
eared	-2431
▁With	-2432
▁rang	-2433
▁Child	-2434
▁claim	-2435
▁fence	-2436
▁agreed	-2437
▁cheese	-2438
▁temper	-2439
▁earlier	-2440
▁grandmother	-2441
ef	-2442
ls	-2443
een	-2444
key	-2445
uts	-2446
▁Sm	-2447
okes	-2448
▁rob	-2449
▁ski	-2450
▁val	-2451
▁yen	-2452
arely	-2453
ellig	-2454
▁Show	-2455
▁bear	-2456
▁date	-2457
▁held	-2458
▁pair	-2459
▁pock	-2460
▁enter	-2461
▁persu	-2462
▁threw	-2463
▁wedding	-2464
▁Children	-2465
▁convince	-2466
▁president	-2467
▁immediately	-2468
ges	-2469
▁ma	-2470
▁Isn	-2471
▁Two	-2472
▁ide	-2473
▁Life	-2474
▁body	-2475
▁cous	-2476
▁nine	-2477
▁poem	-2478
▁poss	-2479
▁pull	-2480
▁Whose	-2481
▁ahead	-2482
▁group	-2483
▁peace	-2484
▁rains	-2485
▁asking	-2486
▁breath	-2487
▁govern	-2488
▁player	-2489
▁history	-2490
▁painted	-2491
▁Somebody	-2492
▁intellig	-2493
▁returned	-2494
▁classroom	-2495
▁satisfied	-2496
arr	-2497
ili	-2498
▁20	-2499
▁Am	-2500
cing	-2501
cuse	-2502
oted	-2503
▁Ind	-2504
▁See	-2505
▁cig	-2506
▁dut	-2507
▁low	-2508
▁mot	-2509
ories	-2510
▁Were	-2511
▁hadn	-2512
idence	-2513
▁fired	-2514
▁hates	-2515
▁steal	-2516
▁wears	-2517
▁Excuse	-2518
▁harder	-2519
▁picked	-2520
▁taller	-2521
▁Germany	-2522
▁allowed	-2523
▁listened	-2524
▁position	-2525
▁3	-2526
ppy	-2527
▁lo	-2528
iers	-2529
sity	-2530
time	-2531
▁Sha	-2532
hamed	-2533
iture	-2534
▁type	-2535
▁usual	-2536
▁faster	-2537
▁island	-2538
▁account	-2539
▁ashamed	-2540
▁control	-2541
▁covered	-2542
▁dressed	-2543
▁noticed	-2544
▁suddenly	-2545
amp	-2546
▁ur	-2547
▁equ	-2548
▁gar	-2549
▁lic	-2550
▁Hold	-2551
▁Span	-2552
▁bike	-2553
▁bott	-2554
▁card	-2555
▁draw	-2556
▁form	-2557
▁gold	-2558
▁lied	-2559
▁norm	-2560
▁Bring	-2561
▁invol	-2562
▁paint	-2563
▁pract	-2564
▁Canada	-2565
▁bedroom	-2566
▁forever	-2567
▁respons	-2568
▁furniture	-2569
▁pretended	-2570
▁government	-2571
▁pu	-2572
ager	-2573
gest	-2574
rent	-2575
resh	-2576
rodu	-2577
▁flu	-2578
▁Last	-2579
▁aunt	-2580
▁calm	-2581
▁avoid	-2582
▁keeps	-2583
▁stole	-2584
▁talks	-2585
▁absent	-2586
▁scared	-2587
▁Spanish	-2588
▁courage	-2589
▁missing	-2590
▁protect	-2591
▁subject	-2592
▁believes	-2593
fortunately	-2594
▁vegetables	-2595
omm	-2596
oon	-2597
aded	-2598
reas	-2599
▁arg	-2600
▁bow	-2601
▁cust	-2602
▁dest	-2603
▁loud	-2604
▁pack	-2605
▁Since	-2606
▁alarm	-2607
▁bored	-2608
▁ended	-2609
▁boring	-2610
▁convin	-2611
▁direct	-2612
▁nobody	-2613
▁notice	-2614
▁washing	-2615
▁arrested	-2616
▁realized	-2617
▁somebody	-2618
▁delicious	-2619
▁explained	-2620
▁complaining	-2621
▁disappointed	-2622
sh	-2623
ogn	-2624
▁idi	-2625
▁Read	-2626
▁boat	-2627
▁fond	-2628
▁gent	-2629
▁heat	-2630
▁lead	-2631
▁liar	-2632
▁purp	-2633
▁rice	-2634
▁shar	-2635
▁Never	-2636
▁birds	-2637
▁feels	-2638
▁ideas	-2639
▁suitc	-2640
▁truck	-2641
▁concer	-2642
▁recogn	-2643
fortable	-2644
▁dropped	-2645
▁introdu	-2646
▁realize	-2647
▁support	-2648
▁answered	-2649
▁innocent	-2650
▁straight	-2651
ury	-2652
ains	-2653
ines	-2654
ires	-2655
▁eff	-2656
▁hob	-2657
▁map	-2658
ouses	-2659
ushed	-2660
▁legs	-2661
▁mill	-2662
▁rule	-2663
▁sang	-2664
▁exerc	-2665
▁gener	-2666
▁habit	-2667
▁impro	-2668
▁stuck	-2669
▁cancer	-2670
▁course	-2671
▁extrem	-2672
▁gentle	-2673
▁jacket	-2674
▁sports	-2675
▁belongs	-2676
▁ordered	-2677
▁product	-2678
▁reached	-2679
▁theater	-2680
▁Sometimes	-2681
▁understood	-2682
▁Unfortunately	-2683
eg	-2684
pen	-2685
▁ed	-2686
book	-2687
▁aut	-2688
▁cow	-2689
asket	-2690
board	-2691
ments	-2692
▁cent	-2693
▁cool	-2694
▁duty	-2695
▁mail	-2696
▁neck	-2697
▁rock	-2698
▁scen	-2699
urious	-2700
▁behav	-2701
▁climb	-2702
▁divor	-2703
▁fresh	-2704
▁saved	-2705
▁tears	-2706
anation	-2707
▁dishes	-2708
▁accused	-2709
▁injured	-2710
▁purpose	-2711
▁sisters	-2712
▁windows	-2713
▁headache	-2714
▁convinced	-2715
▁explanation	-2716
▁intelligent	-2717
ded	-2718
ety	-2719
▁Sw	-2720
ings	-2721
▁zoo	-2722
conom	-2723
▁Help	-2724
▁view	-2725
ission	-2726
▁human	-2727
▁judge	-2728
▁press	-2729
▁throw	-2730
▁tight	-2731
▁Friday	-2732
▁basket	-2733
▁caused	-2734
▁chocol	-2735
▁flight	-2736
▁flower	-2737
▁result	-2738
▁license	-2739
▁behavior	-2740
▁believed	-2741
▁midnight	-2742
▁Yesterday	-2743
▁intention	-2744
▁seriously	-2745
▁absolutely	-2746
ik	-2747
hem	-2748
rab	-2749
▁er	-2750
aret	-2751
ides	-2752
▁bom	-2753
fered	-2754
icked	-2755
▁cash	-2756
▁harm	-2757
▁chick	-2758
ational	-2759
▁dreams	-2760
▁econom	-2761
▁entire	-2762
▁houses	-2763
▁middle	-2764
▁simple	-2765
▁singer	-2766
▁England	-2767
▁capital	-2768
▁cigaret	-2769
▁collect	-2770
▁earthqu	-2771
▁million	-2772
▁speaker	-2773
▁soldiers	-2774
▁whatever	-2775
▁certainly	-2776
par	-2777
gers	-2778
ific	-2779
▁opt	-2780
▁shy	-2781
cious	-2782
▁Russ	-2783
▁suic	-2784
▁woke	-2785
ording	-2786
▁admit	-2787
▁awake	-2788
▁crime	-2789
▁dirty	-2790
▁event	-2791
▁exist	-2792
▁fever	-2793
▁prize	-2794
▁stick	-2795
▁compet	-2796
▁custom	-2797
▁nearly	-2798
▁cookies	-2799
▁healthy	-2800
▁profess	-2801
▁accepted	-2802
▁fighting	-2803
▁passport	-2804
▁employees	-2805
▁extremely	-2806
▁appreciate	-2807
:00	-2808
gan	-2809
izz	-2810
set	-2811
▁Ne	-2812
ilar	-2813
▁mir	-2814
▁auth	-2815
▁hung	-2816
▁lock	-2817
▁lone	-2818
▁mood	-2819
▁race	-2820
▁rent	-2821
▁step	-2822
▁toil	-2823
▁among	-2824
▁sandw	-2825
▁bigger	-2826
▁butter	-2827
▁handed	-2828
▁invest	-2829
▁sweater	-2830
▁laughing	-2831
▁themselves	-2832
ns	-2833
rat	-2834
▁Os	-2835
▁So	-2836
empt	-2837
host	-2838
oint	-2839
▁par	-2840
▁Only	-2841
▁amaz	-2842
▁cast	-2843
▁tour	-2844
arrass	-2845
▁Italy	-2846
▁aband	-2847
▁calls	-2848
▁gradu	-2849
▁whose	-2850
▁wound	-2851
ibility	-2852
sidered	-2853
▁Mother	-2854
▁afford	-2855
▁allerg	-2856
▁begins	-2857
▁filled	-2858
▁invite	-2859
▁rained	-2860
▁spring	-2861
▁talent	-2862
▁neither	-2863
▁involved	-2864
▁embarrass	-2865
▁expecting	-2866
▁university	-2867
▁6	-2868
▁8	-2869
aka	-2870
bey	-2871
sit	-2872
ldom	-2873
ones	-2874
▁amb	-2875
▁dev	-2876
▁fed	-2877
▁lay	-2878
▁tow	-2879
atoes	-2880
itive	-2881
▁Didn	-2882
▁prin	-2883
▁sock	-2884
▁suff	-2885
ealous	-2886
▁cheap	-2887
▁meant	-2888
▁Father	-2889
▁descri	-2890
▁engine	-2891
▁lonely	-2892
▁seldom	-2893
▁slight	-2894
▁toilet	-2895
▁unlike	-2896
▁calling	-2897
▁dancing	-2898
▁letters	-2899
▁followed	-2900
▁interrup	-2901
▁magazine	-2902
▁recently	-2903
▁considered	-2904
rop	-2905
▁ju	-2906
ests	-2907
▁ben	-2908
▁deb	-2909
anted	-2910
apers	-2911
usted	-2912
▁diet	-2913
▁farm	-2914
▁lean	-2915
▁obey	-2916
▁pizz	-2917
▁roof	-2918
▁stom	-2919
▁cause	-2920
▁cried	-2921
▁ghost	-2922
▁hobby	-2923
▁idiot	-2924
▁jokes	-2925
▁songs	-2926
▁space	-2927
▁stuff	-2928
▁author	-2929
▁demand	-2930
▁raised	-2931
▁regard	-2932
▁sooner	-2933
▁managed	-2934
▁admitted	-2935
▁countries	-2936
gl	-2937
▁Hey	-2938
▁War	-2939
▁dad	-2940
ining	-2941
unity	-2942
▁adop	-2943
▁area	-2944
▁argu	-2945
▁drop	-2946
▁repe	-2947
▁size	-2948
▁Their	-2949
▁becom	-2950
▁separ	-2951
▁thief	-2952
▁giving	-2953
▁losing	-2954
▁memory	-2955
▁opport	-2956
▁partic	-2957
▁pocket	-2958
▁scream	-2959
▁suspic	-2960
▁attract	-2961
▁climbed	-2962
▁helping	-2963
▁jealous	-2964
▁mention	-2965
▁suicide	-2966
▁willing	-2967
▁solution	-2968
▁unlikely	-2969
▁chocolate	-2970
▁forgotten	-2971
▁ourselves	-2972
sy	-2973
bye	-2974
uge	-2975
cell	-2976
gent	-2977
gram	-2978
phan	-2979
uses	-2980
▁Per	-2981
▁kil	-2982
▁tot	-2983
▁unc	-2984
▁wet	-2985
gress	-2986
itely	-2987
ograp	-2988
▁None	-2989
▁feet	-2990
▁math	-2991
▁noon	-2992
▁skin	-2993
▁vide	-2994
▁vote	-2995
▁Osaka	-2996
▁Speak	-2997
▁brave	-2998
▁animal	-2999
▁bright	-3000
▁denied	-3001
▁forced	-3002
▁normal	-3003
▁stairs	-3004
▁useful	-3005
▁washed	-3006
▁chicken	-3007
▁instead	-3008
▁meaning	-3009
▁stranger	-3010
▁continued	-3011
na	-3012
che	-3013
els	-3014
▁30	-3015
ield	-3016
▁cir	-3017
▁dam	-3018
▁und	-3019
arter	-3020
istic	-3021
▁Open	-3022
▁blew	-3023
▁camp	-3024
▁cell	-3025
▁pity	-3026
▁sear	-3027
▁wore	-3028
▁citiz	-3029
▁fixed	-3030
▁games	-3031
▁juice	-3032
▁shout	-3033
▁sweet	-3034
▁accust	-3035
▁corner	-3036
▁joking	-3037
▁lights	-3038
▁recomm	-3039
▁escaped	-3040
▁obvious	-3041
▁welcome	-3042
▁confused	-3043
▁electric	-3044
▁exercise	-3045
▁prepared	-3046
▁remained	-3047
▁Americans	-3048
▁comfortable	-3049
ma	-3050
▁4	-3051
ngue	-3052
▁doc	-3053
▁nor	-3054
anges	-3055
ashed	-3056
eless	-3057
right	-3058
▁chat	-3059
▁dumb	-3060
▁fort	-3061
▁main	-3062
▁menu	-3063
▁nose	-3064
▁rope	-3065
▁rude	-3066
▁runs	-3067
▁scar	-3068
▁self	-3069
▁School	-3070
▁burned	-3071
▁saving	-3072
▁season	-3073
▁superm	-3074
▁tastes	-3075
▁tongue	-3076
▁appoint	-3077
▁excited	-3078
▁factory	-3079
▁fingers	-3080
▁matters	-3081
▁document	-3082
▁mountains	-3083
▁translate	-3084
▁accustomed	-3085
pe	-3086
cut	-3087
ney	-3088
raz	-3089
ule	-3090
exic	-3091
iest	-3092
over	-3093
▁Acc	-3094
▁ban	-3095
▁loc	-3096
▁oil	-3097
▁wit	-3098
isted	-3099
stand	-3100
▁Good	-3101
▁bark	-3102
▁betr	-3103
▁copy	-3104
▁dise	-3105
▁drow	-3106
▁lady	-3107
▁lots	-3108
▁sour	-3109
▁weap	-3110
icated	-3111
▁Mexic	-3112
▁drugs	-3113
▁kinds	-3114
▁raise	-3115
ulation	-3116
▁barely	-3117
▁intend	-3118
▁jumped	-3119
▁pieces	-3120
▁resemb	-3121
▁attempt	-3122
▁contact	-3123
▁deserve	-3124
▁allergic	-3125
▁bathroom	-3126
▁earthquake	-3127
▁supermarket	-3128
▁temperature	-3129
fa	-3130
▁Mt	-3131
▁na	-3132
haps	-3133
hess	-3134
osal	-3135
ster	-3136
ulty	-3137
▁ant	-3138
▁cab	-3139
▁dry	-3140
▁fac	-3141
▁yes	-3142
astic	-3143
light	-3144
razil	-3145
▁band	-3146
▁crit	-3147
▁dece	-3148
▁emer	-3149
▁lazy	-3150
▁meal	-3151
▁note	-3152
▁pred	-3153
▁priv	-3154
▁weak	-3155
omeday	-3156
▁Sorry	-3157
▁Watch	-3158
▁gives	-3159
▁helps	-3160
▁naive	-3161
▁naked	-3162
▁pizza	-3163
cellent	-3164
▁Brazil	-3165
▁moving	-3166
▁proper	-3167
▁spends	-3168
▁thirst	-3169
▁hearing	-3170
▁pleased	-3171
▁request	-3172
▁studies	-3173
▁football	-3174
▁suitcase	-3175
▁excellent	-3176
▁gentleman	-3177
▁discovered	-3178
ai	-3179
ji	-3180
▁7	-3181
ald	-3182
rel	-3183
ute	-3184
▁ow	-3185
ases	-3186
eral	-3187
lect	-3188
ores	-3189
▁Hur	-3190
▁neg	-3191
ities	-3192
riger	-3193
▁coin	-3194
▁hole	-3195
▁tend	-3196
▁text	-3197
▁trap	-3198
▁wise	-3199
▁chess	-3200
▁cloud	-3201
▁costs	-3202
▁scold	-3203
▁socks	-3204
▁stone	-3205
▁video	-3206
▁salary	-3207
▁sleepy	-3208
▁smells	-3209
▁solved	-3210
▁fifteen	-3211
▁program	-3212
▁trusted	-3213
▁friendly	-3214
▁handsome	-3215
▁refriger	-3216
▁whenever	-3217
▁prevented	-3218
▁suggested	-3219
▁permission	-3220
▁appointment	-3221
eaf	-3222
▁By	-3223
elve	-3224
omen	-3225
ters	-3226
umed	-3227
▁Che	-3228
▁Few	-3229
▁Say	-3230
▁bud	-3231
▁fro	-3232
▁sew	-3233
▁toy	-3234
▁tur	-3235
gency	-3236
icted	-3237
ipped	-3238
iting	-3239
under	-3240
▁Rome	-3241
▁Send	-3242
▁bell	-3243
▁educ	-3244
▁jail	-3245
atural	-3246
▁annoy	-3247
▁cance	-3248
▁defin	-3249
▁energ	-3250
▁grass	-3251
▁named	-3252
▁organ	-3253
▁shall	-3254
▁sharp	-3255
▁skirt	-3256
▁upset	-3257
▁bottom	-3258
▁clever	-3259
▁cousin	-3260
▁lasted	-3261
▁passen	-3262
▁repair	-3263
▁silent	-3264
▁theory	-3265
▁writes	-3266
▁climate	-3267
▁confess	-3268
▁goodbye	-3269
▁holiday	-3270
▁attended	-3271
▁proposal	-3272
▁stealing	-3273
▁traveled	-3274
▁relations	-3275
▁difficulty	-3276
▁examination	-3277
▁responsible	-3278
▁refrigerator	-3279
0.	-3280
ify	-3281
men	-3282
nic	-3283
rib	-3284
uel	-3285
▁Tr	-3286
ners	-3287
stem	-3288
▁lit	-3289
▁nur	-3290
▁pic	-3291
▁unf	-3292
ances	-3293
anged	-3294
iable	-3295
iliar	-3296
iment	-3297
ology	-3298
ugged	-3299
▁appl	-3300
▁bull	-3301
▁cute	-3302
▁ears	-3303
▁hero	-3304
▁qual	-3305
▁worn	-3306
rently	-3307
stairs	-3308
▁acted	-3309
▁drove	-3310
▁dying	-3311
▁hated	-3312
▁hurts	-3313
▁instr	-3314
▁miles	-3315
▁moder	-3316
▁reach	-3317
▁taste	-3318
▁amount	-3319
▁assume	-3320
▁fright	-3321
▁skiing	-3322
▁urgent	-3323
▁answers	-3324
▁clearly	-3325
▁depends	-3326
▁impress	-3327
▁offered	-3328
▁teaches	-3329
▁continue	-3330
▁distance	-3331
▁teachers	-3332
▁teaching	-3333
▁abandoned	-3334
▁emergency	-3335
▁happiness	-3336
▁photograp	-3337
▁eventually	-3338
▁opportunity	-3339
zz	-3340
iqu	-3341
ues	-3342
yed	-3343
inal	-3344
tern	-3345
tery	-3346
▁spl	-3347
cause	-3348
hemat	-3349
idays	-3350
isten	-3351
▁bomb	-3352
▁brow	-3353
▁deaf	-3354
▁huge	-3355
▁rose	-3356
▁Hurry	-3357
▁Jacks	-3358
▁Three	-3359
▁above	-3360
▁airpl	-3361
▁creat	-3362
▁hesit	-3363
▁match	-3364
▁names	-3365
▁shoot	-3366
▁Listen	-3367
▁energy	-3368
▁excuse	-3369
▁flying	-3370
▁ground	-3371
▁object	-3372
▁plenty	-3373
▁remark	-3374
standing	-3375
▁Sundays	-3376
▁crossed	-3377
▁knocked	-3378
▁largest	-3379
▁results	-3380
▁similar	-3381
▁stories	-3382
▁patience	-3383
▁agreement	-3384
▁following	-3385
▁neighbors	-3386
▁population	-3387
▁neighborhood	-3388
aid	-3389
asc	-3390
cha	-3391
hib	-3392
ism	-3393
▁CD	-3394
▁Fu	-3395
entr	-3396
▁Won	-3397
asses	-3398
bling	-3399
orses	-3400
ouder	-3401
vided	-3402
▁From	-3403
▁Kore	-3404
▁arri	-3405
▁desp	-3406
▁elev	-3407
▁hill	-3408
▁lift	-3409
▁none	-3410
▁oper	-3411
▁page	-3412
▁pill	-3413
▁unha	-3414
▁uses	-3415
▁webs	-3416
▁India	-3417
▁Spain	-3418
▁Women	-3419
▁artic	-3420
▁cheek	-3421
▁Should	-3422
▁anyway	-3423
▁buying	-3424
▁depart	-3425
▁detail	-3426
▁distur	-3427
▁easier	-3428
▁prices	-3429
▁remain	-3430
▁subway	-3431
▁system	-3432
▁twelve	-3433
▁carried	-3434
▁changes	-3435
▁convers	-3436
▁ignored	-3437
▁oranges	-3438
▁pretend	-3439
▁thirsty	-3440
▁tickets	-3441
▁Tomorrow	-3442
▁attacked	-3443
▁concentr	-3444
▁stronger	-3445
▁passengers	-3446
3.	-3447
▁Q	-3448
apt	-3449
ony	-3450
▁Ad	-3451
▁Dr	-3452
▁Su	-3453
ased	-3454
coho	-3455
▁Day	-3456
▁Rem	-3457
▁maj	-3458
▁mod	-3459
▁pan	-3460
▁rum	-3461
ering	-3462
igned	-3463
obile	-3464
ulous	-3465
▁bite	-3466
▁cred	-3467
▁disg	-3468
▁inse	-3469
▁iron	-3470
▁pool	-3471
▁resc	-3472
▁sofa	-3473
▁sore	-3474
ically	-3475
▁bench	-3476
▁brush	-3477
▁conce	-3478
▁email	-3479
▁fifty	-3480
▁nurse	-3481
▁occur	-3482
▁photo	-3483
▁round	-3484
▁sport	-3485
▁using	-3486
▁woods	-3487
itation	-3488
▁assist	-3489
▁destro	-3490
▁forest	-3491
▁guests	-3492
▁louder	-3493
▁market	-3494
hematics	-3495
▁Jackson	-3496
▁illness	-3497
▁imagine	-3498
▁kidding	-3499
▁members	-3500
▁natural	-3501
▁smaller	-3502
▁suspect	-3503
▁tallest	-3504
▁airplane	-3505
▁potatoes	-3506
▁survived	-3507
▁committed	-3508
▁perfectly	-3509
No	-3510
gn	-3511
to	-3512
▁9	-3513
ler	-3514
ung	-3515
▁18	-3516
▁Of	-3517
▁Pl	-3518
ctob	-3519
irts	-3520
▁Sit	-3521
▁lim	-3522
▁mel	-3523
▁ste	-3524
▁wis	-3525
ences	-3526
ising	-3527
otion	-3528
using	-3529
▁Comp	-3530
▁Fuji	-3531
▁disl	-3532
▁fain	-3533
▁fill	-3534
▁sale	-3535
▁serv	-3536
ctober	-3537
▁brief	-3538
▁brown	-3539
▁couch	-3540
▁sched	-3541
▁shelf	-3542
▁stars	-3543
▁weird	-3544
▁artist	-3545
▁castle	-3546
▁credit	-3547
▁eleven	-3548
▁record	-3549
▁threat	-3550
▁unable	-3551
▁within	-3552
▁Because	-3553
▁October	-3554
▁Perhaps	-3555
▁Russian	-3556
▁curious	-3557
▁manager	-3558
▁scolded	-3559
▁smiling	-3560
▁betrayed	-3561
▁elevator	-3562
▁familiar	-3563
▁personal	-3564
▁persuade	-3565
▁sandwich	-3566
▁starting	-3567
▁According	-3568
▁complained	-3569
▁definitely	-3570
▁suspicious	-3571
▁understands	-3572
ius	-3573
llo	-3574
egal	-3575
pper	-3576
▁aud	-3577
▁deg	-3578
▁nea	-3579
aired	-3580
asons	-3581
cture	-3582
▁Each	-3583
▁Gree	-3584
▁baff	-3585
▁bald	-3586
▁buck	-3587
ashion	-3588
▁Money	-3589
▁awful	-3590
▁badly	-3591
▁board	-3592
▁field	-3593
▁hopes	-3594
▁offic	-3595
▁advant	-3596
▁exchan	-3597
▁garage	-3598
▁gotten	-3599
▁highly	-3600
▁modern	-3601
▁orange	-3602
▁picnic	-3603
▁pulled	-3604
▁remove	-3605
▁scient	-3606
▁starts	-3607
▁unless	-3608
▁ability	-3609
▁article	-3610
▁nearest	-3611
▁website	-3612
▁borrowed	-3613
▁complete	-3614
▁contract	-3615
▁holidays	-3616
▁musician	-3617
▁repaired	-3618
▁shoulder	-3619
▁graduated	-3620
▁recommend	-3621
▁apologized	-3622
▁embarrassed	-3623
▁possibility	-3624
▁conversation	-3625
acy	-3626
gth	-3627
let	-3628
ows	-3629
aled	-3630
amps	-3631
arch	-3632
cean	-3633
iche	-3634
line	-3635
look	-3636
▁aim	-3637
▁bes	-3638
▁enc	-3639
▁uns	-3640
abbit	-3641
hings	-3642
riage	-3643
▁Cats	-3644
▁exha	-3645
▁lies	-3646
though	-3647
▁Think	-3648
▁avail	-3649
▁cough	-3650
▁greet	-3651
▁motor	-3652
▁third	-3653
▁tough	-3654
▁Things	-3655
▁critic	-3656
▁drives	-3657
▁horses	-3658
▁insult	-3659
▁master	-3660
▁paying	-3661
▁supper	-3662
▁warned	-3663
▁writer	-3664
▁Smoking	-3665
▁assumed	-3666
▁captain	-3667
▁command	-3668
▁curtain	-3669
▁disease	-3670
▁example	-3671
▁express	-3672
▁foolish	-3673
▁funeral	-3674
▁illegal	-3675
▁someday	-3676
▁useless	-3677
▁winning	-3678
▁argument	-3679
▁becoming	-3680
▁childhood	-3681
kn	-3682
ago	-3683
hys	-3684
isy	-3685
lex	-3686
sen	-3687
zed	-3688
▁ef	-3689
▁ug	-3690
form	-3691
king	-3692
▁100	-3693
▁Eat	-3694
▁Mom	-3695
▁tou	-3696
enced	-3697
▁Brit	-3698
▁arms	-3699
▁circ	-3700
▁dent	-3701
▁evil	-3702
▁gate	-3703
▁grap	-3704
▁jobs	-3705
▁nuts	-3706
▁ones	-3707
▁pale	-3708
▁pean	-3709
▁puzz	-3710
▁sens	-3711
▁sons	-3712
ateful	-3713
▁Close	-3714
▁Shall	-3715
▁autom	-3716
▁blank	-3717
▁extra	-3718
▁mater	-3719
▁postp	-3720
▁ridic	-3721
▁walks	-3722
▁Mexico	-3723
▁clouds	-3724
▁commun	-3725
▁ghosts	-3726
▁hoping	-3727
▁larger	-3728
▁mirror	-3729
▁novels	-3730
▁poison	-3731
▁robbed	-3732
▁sleeps	-3733
▁strang	-3734
▁toward	-3735
▁Without	-3736
▁amazing	-3737
▁appears	-3738
▁totally	-3739
▁trapped	-3740
▁unhappy	-3741
▁Although	-3742
▁appeared	-3743
▁deserted	-3744
▁greatest	-3745
▁progress	-3746
▁violence	-3747
▁available	-3748
▁depressed	-3749
▁education	-3750
▁introduce	-3751
▁succeeded	-3752
▁translated	-3753
,"	-3754
awn	-3755
mpt	-3756
zen	-3757
▁Ar	-3758
itch	-3759
roat	-3760
uary	-3761
uted	-3762
▁Har	-3763
▁due	-3764
▁env	-3765
▁imm	-3766
▁tap	-3767
anced	-3768
eding	-3769
umped	-3770
▁cong	-3771
▁goal	-3772
▁incl	-3773
▁laid	-3774
▁pond	-3775
▁stri	-3776
▁term	-3777
▁thin	-3778
▁wild	-3779
▁chose	-3780
▁cruel	-3781
▁honey	-3782
▁mayor	-3783
▁tells	-3784
▁beauty	-3785
▁bucket	-3786
▁buried	-3787
▁center	-3788
▁cooked	-3789
▁effect	-3790
▁fallen	-3791
▁photos	-3792
▁stamps	-3793
▁violin	-3794
▁arguing	-3795
▁claimed	-3796
▁details	-3797
▁fortune	-3798
▁politic	-3799
▁prepare	-3800
▁private	-3801
▁reminds	-3802
▁snowing	-3803
▁stomach	-3804
▁treated	-3805
▁whoever	-3806
▁witness	-3807
▁workers	-3808
▁changing	-3809
▁cleaning	-3810
▁divorced	-3811
▁grateful	-3812
▁invented	-3813
▁marriage	-3814
▁pleasant	-3815
▁wherever	-3816
▁accidents	-3817
▁cigarette	-3818
▁recognize	-3819
▁traveling	-3820
▁disappeared	-3821
▁relationship	-3822
het	-3823
iff	-3824
its	-3825
ium	-3826
ker	-3827
ott	-3828
▁Ap	-3829
▁Fo	-3830
lebr	-3831
rets	-3832
▁Gen	-3833
▁Haw	-3834
▁dig	-3835
▁jog	-3836
▁nod	-3837
cient	-3838
icago	-3839
itude	-3840
▁Fort	-3841
▁acqu	-3842
▁dish	-3843
▁hire	-3844
▁lack	-3845
▁orig	-3846
▁ours	-3847
▁sink	-3848
▁sort	-3849
▁Water	-3850
▁value	-3851
▁wheel	-3852
▁whist	-3853
▁alcoho	-3854
▁celebr	-3855
▁orders	-3856
▁polite	-3857
▁pushed	-3858
▁puzzle	-3859
▁ruined	-3860
▁signed	-3861
▁Chicago	-3862
▁Italian	-3863
▁baffled	-3864
▁citizen	-3865
▁soldier	-3866
▁suppose	-3867
▁distract	-3868
▁misunder	-3869
▁schedule	-3870
▁advantage	-3871
▁exhausted	-3872
▁impressed	-3873
▁basketball	-3874
▁everywhere	-3875
▁experiment	-3876
▁friendship	-3877
▁complicated	-3878
ux	-3879
▁$	-3880
esp	-3881
irm	-3882
ram	-3883
rer	-3884
tes	-3885
uce	-3886
und	-3887
ards	-3888
ents	-3889
ibly	-3890
orld	-3891
▁Dad	-3892
▁Fin	-3893
▁anx	-3894
▁ess	-3895
▁ham	-3896
▁hig	-3897
▁rev	-3898
aring	-3899
chief	-3900
ction	-3901
hered	-3902
orter	-3903
▁Find	-3904
▁army	-3905
▁cand	-3906
▁cult	-3907
▁flew	-3908
▁infl	-3909
▁jour	-3910
▁phys	-3911
▁pron	-3912
▁push	-3913
▁roll	-3914
▁soci	-3915
▁ugly	-3916
▁vase	-3917
▁wins	-3918
▁cares	-3919
▁crash	-3920
▁diary	-3921
▁flood	-3922
▁ident	-3923
▁magic	-3924
▁major	-3925
▁spite	-3926
▁towel	-3927
▁voted	-3928
▁accomp	-3929
▁acting	-3930
▁deeply	-3931
▁effort	-3932
▁encour	-3933
▁expert	-3934
▁ignore	-3935
▁itself	-3936
▁search	-3937
▁stared	-3938
kerchief	-3939
▁capable	-3940
▁cheated	-3941
▁classes	-3942
▁disturb	-3943
▁enemies	-3944
▁failure	-3945
▁kissing	-3946
▁thanked	-3947
▁audience	-3948
▁election	-3949
▁mistaken	-3950
▁punished	-3951
▁visiting	-3952
▁computers	-3953
▁resembles	-3954
▁wondering	-3955
▁disappoint	-3956
▁frightened	-3957
▁invitation	-3958
▁handkerchief	-3959
9.	-3960
iP	-3961
me	-3962
ne	-3963
sc	-3964
chn	-3965
fit	-3966
kay	-3967
law	-3968
pha	-3969
pir	-3970
ron	-3971
uly	-3972
▁Bl	-3973
▁Se	-3974
▁iP	-3975
aced	-3976
alth	-3977
gage	-3978
lace	-3979
orth	-3980
oses	-3981
vard	-3982
▁App	-3983
▁ach	-3984
▁est	-3985
▁fox	-3986
▁sou	-3987
▁wol	-3988
antic	-3989
antly	-3990
bered	-3991
hache	-3992
ieved	-3993
ified	-3994
imate	-3995
izing	-3996
stron	-3997
usion	-3998
velop	-3999
▁June	-4000
▁fasc	-4001
▁flat	-4002
▁loss	-4003
▁numb	-4004
▁okay	-4005
▁peel	-4006
▁pray	-4007
▁soft	-4008
▁tail	-4009
▁tied	-4010
▁vain	-4011
▁vict	-4012
▁warn	-4013
inated	-4014
irteen	-4015
ulated	-4016
verage	-4017
▁First	-4018
▁World	-4019
▁actor	-4020
▁argue	-4021
▁bound	-4022
▁candy	-4023
▁disgu	-4024
▁final	-4025
▁noisy	-4026
▁occas	-4027
▁poems	-4028
▁skill	-4029
▁begged	-4030
▁classm	-4031
▁gained	-4032
▁handle	-4033
▁insane	-4034
▁kicked	-4035
▁outfit	-4036
▁spread	-4037
▁Harvard	-4038
▁dentist	-4039
▁economy	-4040
▁elected	-4041
▁falling	-4042
▁lecture	-4043
▁receive	-4044
▁ringing	-4045
▁communic	-4046
▁exciting	-4047
▁kindness	-4048
▁persuaded	-4049
▁introduced	-4050
▁ridiculous	-4051
▁successful	-4052
▁mathematics	-4053
bb	-4054
gs	-4055
gy	-4056
att	-4057
exp	-4058
har	-4059
nal	-4060
oll	-4061
raw	-4062
val	-4063
▁De	-4064
▁Oh	-4065
erve	-4066
lies	-4067
▁Sud	-4068
▁tig	-4069
inary	-4070
utter	-4071
▁Lear	-4072
▁Time	-4073
▁crim	-4074
▁defe	-4075
▁hers	-4076
▁whis	-4077
lished	-4078
▁Afric	-4079
▁Hawai	-4080
▁equal	-4081
▁prove	-4082
▁relig	-4083
▁sells	-4084
▁tooth	-4085
ference	-4086
looking	-4087
ometers	-4088
▁astron	-4089
▁fought	-4090
▁genius	-4091
▁grapes	-4092
▁incred	-4093
▁invent	-4094
▁member	-4095
▁places	-4096
▁plants	-4097
▁throat	-4098
▁trains	-4099
▁actress	-4100
▁anxious	-4101
▁cleaned	-4102
▁disgust	-4103
▁dreamed	-4104
▁fashion	-4105
▁growing	-4106
▁knowing	-4107
▁predict	-4108
▁reasons	-4109
▁silence	-4110
▁spilled	-4111
▁staring	-4112
▁survive	-4113
▁annoying	-4114
▁deserves	-4115
▁investig	-4116
▁murdered	-4117
▁practice	-4118
▁presents	-4119
▁promises	-4120
▁conscious	-4121
▁forgetful	-4122
▁interrupt	-4123
▁strangers	-4124
▁kilometers	-4125
▁photograph	-4126
▁recognized	-4127
▁remembered	-4128
▁suggestion	-4129
go	-4130
▁Z	-4131
amm	-4132
lig	-4133
mon	-4134
aste	-4135
ingu	-4136
ivil	-4137
▁ble	-4138
▁pil	-4139
▁raw	-4140
▁rub	-4141
▁tor	-4142
▁tun	-4143
▁unp	-4144
▁var	-4145
abbed	-4146
denly	-4147
ledge	-4148
licop	-4149
owing	-4150
▁carp	-4151
▁chem	-4152
▁conn	-4153
▁deer	-4154
▁dess	-4155
▁diam	-4156
▁fork	-4157
▁poet	-4158
▁wave	-4159
▁Check	-4160
▁adopt	-4161
▁anger	-4162
▁appet	-4163
▁banan	-4164
▁earns	-4165
▁glove	-4166
▁hello	-4167
▁horri	-4168
▁oblig	-4169
▁pants	-4170
▁plant	-4171
▁pregn	-4172
▁reply	-4173
▁scene	-4174
▁seats	-4175
▁sings	-4176
▁stren	-4177
▁thick	-4178
▁twins	-4179
▁withd	-4180
▁Hawaii	-4181
▁action	-4182
▁affect	-4183
▁battle	-4184
▁closer	-4185
▁closet	-4186
▁danced	-4187
▁defend	-4188
▁lately	-4189
▁leaned	-4190
▁pepper	-4191
▁refuse	-4192
▁shared	-4193
▁strict	-4194
▁average	-4195
▁congrat	-4196
▁contest	-4197
▁cousins	-4198
▁dessert	-4199
▁divorce	-4200
▁greeted	-4201
▁helicop	-4202
▁hunting	-4203
▁improve	-4204
▁increas	-4205
▁percent	-4206
▁regular	-4207
▁removed	-4208
▁touched	-4209
▁watches	-4210
▁Suddenly	-4211
▁evidence	-4212
▁incident	-4213
▁occurred	-4214
▁concerned	-4215
▁newspapers	-4216
▁particular	-4217
▁profession	-4218
azz	-4219
bel	-4220
cts	-4221
ipe	-4222
okk	-4223
oom	-4224
▁Br	-4225
▁En	-4226
▁bi	-4227
aido	-4228
ique	-4229
mble	-4230
ompl	-4231
uded	-4232
vere	-4233
▁jam	-4234
▁ver	-4235
althy	-4236
ilies	-4237
rease	-4238
▁Hokk	-4239
▁Next	-4240
▁chew	-4241
▁decl	-4242
▁dust	-4243
▁flag	-4244
▁grab	-4245
▁kidn	-4246
▁lion	-4247
▁mark	-4248
▁nons	-4249
▁shed	-4250
▁thor	-4251
ential	-4252
struct	-4253
▁apply	-4254
▁coins	-4255
▁facts	-4256
▁freez	-4257
▁ignor	-4258
▁metho	-4259
▁negot	-4260
▁puppy	-4261
▁reads	-4262
▁reput	-4263
▁salad	-4264
▁spell	-4265
▁sunny	-4266
▁techn	-4267
hibited	-4268
▁admire	-4269
▁doubts	-4270
▁gloves	-4271
▁ladder	-4272
▁parked	-4273
▁punish	-4274
▁rabbit	-4275
▁repeat	-4276
▁reserv	-4277
▁screen	-4278
▁snowed	-4279
expected	-4280
▁British	-4281
▁advance	-4282
▁charged	-4283
▁degrees	-4284
▁delayed	-4285
▁drunken	-4286
▁granted	-4287
▁options	-4288
▁peanuts	-4289
▁service	-4290
▁wounded	-4291
▁Hokkaido	-4292
▁canceled	-4293
▁compared	-4294
▁exchange	-4295
▁nonsense	-4296
▁notebook	-4297
▁politics	-4298
▁pressure	-4299
▁relative	-4300
▁strength	-4301
▁talented	-4302
▁thirteen	-4303
▁thorough	-4304
▁Canadians	-4305
▁destroyed	-4306
▁direction	-4307
▁professor	-4308
▁attractive	-4309
▁cigarettes	-4310
▁conference	-4311
▁discussion	-4312
▁prohibited	-4313
▁reasonable	-4314
▁reputation	-4315
5.	-4316
ph	-4317
xy	-4318
uff	-4319
▁Ab	-4320
▁od	-4321
alse	-4322
icks	-4323
ives	-4324
mail	-4325
yond	-4326
▁201	-4327
▁Spr	-4328
▁adj	-4329
▁dim	-4330
▁err	-4331
▁jew	-4332
▁nap	-4333
▁obs	-4334
▁pig	-4335
▁psy	-4336
▁vit	-4337
aches	-4338
ading	-4339
arrow	-4340
derer	-4341
ption	-4342
unate	-4343
▁Hang	-4344
▁Love	-4345
▁Pres	-4346
▁Tues	-4347
▁Well	-4348
▁ange	-4349
▁crop	-4350
▁debt	-4351
▁ease	-4352
▁fold	-4353
▁jazz	-4354
▁loan	-4355
▁rode	-4356
▁stat	-4357
▁task	-4358
▁visa	-4359
atient	-4360
leased	-4361
velope	-4362
▁Start	-4363
▁ambul	-4364
▁baked	-4365
▁begun	-4366
▁brand	-4367
▁burgl	-4368
▁burst	-4369
▁const	-4370
▁false	-4371
▁influ	-4372
▁model	-4373
▁speed	-4374
▁stops	-4375
▁sushi	-4376
▁tempt	-4377
▁weigh	-4378
arently	-4379
ization	-4380
▁Follow	-4381
▁Spring	-4382
▁access	-4383
▁beyond	-4384
▁charac	-4385
▁desert	-4386
▁drawer	-4387
▁explos	-4388
▁hidden	-4389
▁lesson	-4390
▁papers	-4391
▁planet	-4392
▁resign	-4393
▁served	-4394
▁severe	-4395
▁sewing	-4396
▁wished	-4397
▁wishes	-4398
▁However	-4399
▁Tuesday	-4400
▁Welcome	-4401
▁adopted	-4402
▁baggage	-4403
▁barking	-4404
▁biggest	-4405
▁breathe	-4406
▁concern	-4407
▁diamond	-4408
▁divided	-4409
▁nowhere	-4410
▁planted	-4411
▁pointed	-4412
▁prevent	-4413
▁quietly	-4414
▁respond	-4415
▁science	-4416
▁smarter	-4417
▁weapons	-4418
▁crossing	-4419
▁employee	-4420
▁envelope	-4421
▁fluently	-4422
▁murderer	-4423
▁national	-4424
▁occasion	-4425
▁prisoner	-4426
▁properly	-4427
▁confessed	-4428
▁impatient	-4429
▁preparing	-4430
▁classmates	-4431
▁helicopter	-4432
▁impression	-4433
▁unexpected	-4434
▁electricity	-4435
2.	-4436
lo	-4437
pa	-4438
Yes	-4439
bon	-4440
cul	-4441
iev	-4442
ped	-4443
ril	-4444
yle	-4445
▁50	-4446
▁Gu	-4447
assy	-4448
case	-4449
hoon	-4450
word	-4451
year	-4452
▁Cal	-4453
▁Tha	-4454
▁arr	-4455
▁ast	-4456
▁fre	-4457
▁ink	-4458
▁iss	-4459
▁nin	-4460
▁rom	-4461
▁van	-4462
▁web	-4463
adays	-4464
alled	-4465
ankly	-4466
cycle	-4467
ember	-4468
icing	-4469
ittee	-4470
known	-4471
rance	-4472
▁Once	-4473
▁Shut	-4474
▁Wash	-4475
▁earn	-4476
▁file	-4477
▁owns	-4478
▁reve	-4479
▁shoe	-4480
▁unus	-4481
▁upon	-4482
▁valu	-4483
erally	-4484
ounded	-4485
urance	-4486
▁April	-4487
▁Greek	-4488
▁boots	-4489
▁coinc	-4490
▁disag	-4491
▁freed	-4492
▁grave	-4493
▁hired	-4494
▁memor	-4495
▁optim	-4496
▁roses	-4497
▁rumor	-4498
▁sales	-4499
▁shame	-4500
▁squee	-4501
▁stage	-4502
▁stake	-4503
▁stove	-4504
▁taxes	-4505
▁treas	-4506
glasses	-4507
onsider	-4508
▁Africa	-4509
▁Almost	-4510
▁Choose	-4511
▁Dinner	-4512
▁Intern	-4513
▁Korean	-4514
▁announ	-4515
▁bitter	-4516
▁causes	-4517
▁cities	-4518
▁claims	-4519
▁colors	-4520
▁conven	-4521
▁design	-4522
▁fridge	-4523
▁height	-4524
▁interp	-4525
▁meters	-4526
▁negoti	-4527
▁oldest	-4528
▁priest	-4529
▁rarely	-4530
▁reject	-4531
▁rented	-4532
▁Neither	-4533
▁accompl	-4534
▁alcohol	-4535
▁ceiling	-4536
▁closely	-4537
▁contrib	-4538
▁develop	-4539
▁efforts	-4540
▁engaged	-4541
▁heavily	-4542
▁perform	-4543
▁players	-4544
▁quality	-4545
▁shorter	-4546
▁shouted	-4547
▁stabbed	-4548
▁typhoon	-4549
▁Whatever	-4550
▁arriving	-4551
▁babbling	-4552
▁distingu	-4553
▁dreaming	-4554
▁families	-4555
▁imagined	-4556
▁insisted	-4557
▁instruct	-4558
▁pregnant	-4559
▁register	-4560
▁restless	-4561
▁ambulance	-4562
▁attempted	-4563
▁committee	-4564
▁construct	-4565
▁discussed	-4566
▁exception	-4567
▁explosion	-4568
▁insurance	-4569
▁separated	-4570
▁collecting	-4571
▁importance	-4572
▁motorcycle	-4573
▁concentrate	-4574
▁outstanding	-4575
Do	-4576
ama	-4577
bow	-4578
box	-4579
erk	-4580
igr	-4581
iny	-4582
ole	-4583
sed	-4584
▁11	-4585
▁Fl	-4586
▁Re	-4587
What	-4588
bage	-4589
cast	-4590
hips	-4591
iles	-4592
illy	-4593
ites	-4594
oker	-4595
sper	-4596
▁Act	-4597
▁Dis	-4598
▁Eve	-4599
▁Nar	-4600
▁Sum	-4601
▁spo	-4602
▁tar	-4603
▁tid	-4604
agers	-4605
allow	-4606
aptop	-4607
aries	-4608
cence	-4609
holic	-4610
stery	-4611
▁Fill	-4612
▁More	-4613
▁asks	-4614
▁bare	-4615
▁deny	-4616
▁drew	-4617
▁firm	-4618
▁hall	-4619
▁hoax	-4620
▁knee	-4621
▁mild	-4622
▁quar	-4623
▁rely	-4624
▁spin	-4625
cially	-4626
uggled	-4627
▁bowed	-4628
▁concl	-4629
▁decor	-4630
▁grown	-4631
▁harsh	-4632
▁honor	-4633
▁ocean	-4634
▁plate	-4635
▁punct	-4636
▁screw	-4637
▁sheep	-4638
▁shock	-4639
▁shook	-4640
▁south	-4641
▁swear	-4642
▁sweat	-4643
▁terms	-4644
▁unrel	-4645
▁vitam	-4646
▁banged	-4647
▁chosen	-4648
▁coward	-4649
▁decent	-4650
▁double	-4651
▁fairly	-4652
▁framed	-4653
▁grades	-4654
▁income	-4655
▁laptop	-4656
▁leader	-4657
▁manage	-4658
▁method	-4659
▁nature	-4660
▁policy	-4661
▁silver	-4662
▁target	-4663
▁unfair	-4664
▁weapon	-4665
▁absence	-4666
▁bottles	-4667
▁cheaper	-4668
▁elephan	-4669
▁hanging	-4670
▁listens	-4671
▁mystery	-4672
▁quarter	-4673
▁rescued	-4674
▁scenery	-4675
▁selfish	-4676
▁selling	-4677
▁shocked	-4678
▁society	-4679
▁tourist	-4680
▁wasting	-4681
▁careless	-4682
▁carrying	-4683
▁entrance	-4684
▁horrible	-4685
▁intended	-4686
▁material	-4687
▁particip	-4688
▁presence	-4689
▁suitable	-4690
▁upstairs	-4691
▁conceited	-4692
▁confident	-4693
▁knowledge	-4694
▁political	-4695
▁scientist	-4696
▁sensitive	-4697
▁appearance	-4698
▁personally	-4699
▁sunglasses	-4700
▁Fortunately	-4701
▁imagination	-4702
▁instructions	-4703
do	-4704
od	-4705
ata	-4706
dom	-4707
eds	-4708
ils	-4709
jam	-4710
leg	-4711
nes	-4712
umn	-4713
▁Bu	-4714
atic	-4715
ears	-4716
fers	-4717
fety	-4718
irds	-4719
llen	-4720
osqu	-4721
rupt	-4722
swer	-4723
ucky	-4724
unte	-4725
wise	-4726
▁200	-4727
▁Bel	-4728
▁Lin	-4729
▁Pol	-4730
▁Rep	-4731
▁fog	-4732
▁fur	-4733
▁hyp	-4734
▁mic	-4735
▁pet	-4736
▁rot	-4737
▁wha	-4738
arily	-4739
aving	-4740
bborn	-4741
ulate	-4742
xygen	-4743
▁Cont	-4744
▁Play	-4745
▁asse	-4746
▁comb	-4747
▁cree	-4748
▁cups	-4749
▁fate	-4750
▁goat	-4751
▁iPad	-4752
▁lent	-4753
▁magn	-4754
▁mass	-4755
▁poll	-4756
▁prov	-4757
▁stew	-4758
▁surr	-4759
▁symp	-4760
▁twin	-4761
▁ways	-4762
▁wide	-4763
ottage	-4764
▁South	-4765
▁aside	-4766
▁conse	-4767
▁court	-4768
▁cover	-4769
▁flash	-4770
▁force	-4771
▁gifts	-4772
▁hoped	-4773
▁knock	-4774
▁level	-4775
▁maybe	-4776
▁mosqu	-4777
▁mouse	-4778
▁oppos	-4779
▁rough	-4780
▁scare	-4781
▁shake	-4782
▁stamp	-4783
▁trunk	-4784
▁Answer	-4785
▁Forget	-4786
▁behave	-4787
▁bullet	-4788
▁dating	-4789
▁determ	-4790
▁hugged	-4791
▁orphan	-4792
▁resour	-4793
▁snakes	-4794
▁treaty	-4795
▁Washing	-4796
▁apology	-4797
▁despise	-4798
▁figured	-4799
▁finding	-4800
▁garbage	-4801
▁grabbed	-4802
▁grandpa	-4803
▁jogging	-4804
▁manners	-4805
▁mission	-4806
▁package	-4807
▁pronoun	-4808
▁unusual	-4809
▁vegetar	-4810
▁volunte	-4811
▁Internet	-4812
▁approved	-4813
▁bleeding	-4814
▁demanded	-4815
▁describe	-4816
▁drowning	-4817
▁informed	-4818
▁password	-4819
▁products	-4820
▁released	-4821
▁stubborn	-4822
▁terrific	-4823
▁universe	-4824
▁daughters	-4825
▁disguised	-4826
▁obviously	-4827
▁promotion	-4828
▁sentenced	-4829
▁suffering	-4830
▁blackboard	-4831
▁threatened	-4832
▁unreliable	-4833
uk	-4834
How	-4835
ano	-4836
mar	-4837
nam	-4838
rog	-4839
▁16	-4840
▁Sc	-4841
▁cy	-4842
aise	-4843
ency	-4844
five	-4845
mber	-4846
umst	-4847
writ	-4848
▁Air	-4849
▁And	-4850
▁Hun	-4851
▁Man	-4852
▁Pay	-4853
▁Win	-4854
▁avo	-4855
▁bal	-4856
▁coo	-4857
▁eld	-4858
▁gro	-4859
▁hug	-4860
▁log	-4861
▁lux	-4862
▁pal	-4863
▁pou	-4864
▁tip	-4865
erved	-4866
iform	-4867
overy	-4868
sters	-4869
store	-4870
tured	-4871
urity	-4872
▁Hand	-4873
▁Port	-4874
▁Save	-4875
▁Such	-4876
▁belt	-4877
▁bowl	-4878
▁cage	-4879
▁espe	-4880
▁gain	-4881
▁junk	-4882
▁owes	-4883
▁port	-4884
▁rare	-4885
▁slam	-4886
▁teen	-4887
▁trad	-4888
employ	-4889
issors	-4890
orrect	-4891
unning	-4892
▁Bible	-4893
▁Break	-4894
▁Enjoy	-4895
▁While	-4896
▁budge	-4897
▁cheer	-4898
▁civil	-4899
▁condu	-4900
▁contr	-4901
▁crack	-4902
▁delay	-4903
▁faith	-4904
▁finan	-4905
▁foods	-4906
▁frame	-4907
▁hunch	-4908
▁knees	-4909
▁lacks	-4910
▁lower	-4911
▁meals	-4912
▁mirac	-4913
▁owner	-4914
▁pages	-4915
▁pilot	-4916
▁poker	-4917
▁proof	-4918
▁psych	-4919
▁purse	-4920
▁rooms	-4921
▁state	-4922
▁super	-4923
▁turns	-4924
achache	-4925
olution	-4926
▁Russia	-4927
▁damage	-4928
▁desper	-4929
▁dollar	-4930
▁hammer	-4931
▁humili	-4932
▁intern	-4933
▁lovely	-4934
▁narrow	-4935
▁nation	-4936
▁nearby	-4937
▁nodded	-4938
▁pillow	-4939
▁poured	-4940
▁prince	-4941
▁resist	-4942
▁resort	-4943
▁reward	-4944
▁riding	-4945
▁rights	-4946
▁social	-4947
▁switch	-4948
▁thanks	-4949
▁volume	-4950
▁wealth	-4951
▁Frankly	-4952
▁Whoever	-4953
▁acquain	-4954
▁approve	-4955
▁avoided	-4956
▁boiling	-4957
▁burning	-4958
▁challen	-4959
▁checked	-4960
▁cottage	-4961
▁crowded	-4962
▁devoted	-4963
▁furious	-4964
▁happier	-4965
▁holding	-4966
▁journal	-4967
▁located	-4968
▁medical	-4969
▁opening	-4970
▁opposed	-4971
▁parking	-4972
▁planned	-4973
▁pockets	-4974
▁require	-4975
▁secrets	-4976
▁streets	-4977
▁uniform	-4978
▁Remember	-4979
▁appetite	-4980
▁attitude	-4981
▁breaking	-4982
▁eyesight	-4983
▁interpre	-4984
▁opposite	-4985
▁pleasure	-4986
▁rejected	-4987
▁scissors	-4988
▁screamed	-4989
▁spending	-4990
▁sweating	-4991
▁treasure	-4992
▁Generally	-4993
▁President	-4994
▁authority	-4995
▁innocence	-4996
▁magazines	-4997
▁seventeen	-4998
▁confidence	-4999
▁downstairs	-5000
▁especially	-5001
▁flashlight	-5002
▁remarkable	-5003
▁coincidence	-5004
▁distinguish	-5005
▁reservation	-5006
▁stomachache	-5007
▁professional	-5008
▁understanding	-5009
!"	-5010
FO	-5011
bum	-5012
cip	-5013
ixt	-5014
met	-5015
nel	-5016
oko	-5017
▁Hi	-5018
▁Te	-5019
▁US	-5020
▁hy	-5021
:30.	-5022
aire	-5023
aves	-5024
coln	-5025
eans	-5026
gger	-5027
gypt	-5028
oudy	-5029
▁197	-5030
▁500	-5031
▁Col	-5032
▁Jan	-5033
▁Tur	-5034
▁UFO	-5035
▁foc	-5036
▁lat	-5037
▁led	-5038
▁ner	-5039
▁non	-5040
▁ord	-5041
▁pin	-5042
▁rac	-5043
▁row	-5044
agger	-5045
epend	-5046
iches	-5047
ierce	-5048
jamas	-5049
rices	-5050
tered	-5051
▁Arab	-5052
▁Dogs	-5053
▁Four	-5054
▁Park	-5055
▁Sing	-5056
▁Walk	-5057
▁atom	-5058
▁craw	-5059
▁ends	-5060
▁guns	-5061
▁imit	-5062
▁lawn	-5063
▁lugg	-5064
▁meas	-5065
▁puts	-5066
▁soap	-5067
▁soul	-5068
▁spec	-5069
▁tore	-5070
▁west	-5071
ective	-5072
▁Birds	-5073
▁Drink	-5074
▁Egypt	-5075
▁adult	-5076
▁album	-5077
▁angel	-5078
▁brain	-5079
▁buses	-5080
▁doors	-5081
▁faces	-5082
▁faint	-5083
▁guard	-5084
▁lemon	-5085
▁local	-5086
▁overs	-5087
▁parts	-5088
▁rainy	-5089
▁skate	-5090
▁split	-5091
▁stock	-5092
▁tower	-5093
▁troub	-5094
athered	-5095
▁Before	-5096
▁Portug	-5097
▁Prices	-5098
▁amazed	-5099
▁assure	-5100
▁beside	-5101
▁blamed	-5102
▁career	-5103
▁cloudy	-5104
▁commit	-5105
▁enjoys	-5106
▁latest	-5107
▁loudly	-5108
▁mobile	-5109
▁monkey	-5110
▁rising	-5111
▁safety	-5112
▁seated	-5113
▁smokes	-5114
▁surren	-5115
▁terror	-5116
▁theirs	-5117
▁toothp	-5118
▁warmer	-5119
lication	-5120
▁January	-5121
▁Lincoln	-5122
▁amusing	-5123
▁cheered	-5124
▁complex	-5125
▁consequ	-5126
▁crashed	-5127
▁damaged	-5128
▁defense	-5129
▁drowned	-5130
▁exagger	-5131
▁fainted	-5132
▁further	-5133
▁killing	-5134
▁luggage	-5135
▁mistook	-5136
▁officer	-5137
▁painful	-5138
▁pajamas	-5139
▁pencils	-5140
▁pressed	-5141
▁remains	-5142
▁retired	-5143
▁trigger	-5144
▁typical	-5145
▁unknown	-5146
umstances	-5147
▁approach	-5148
▁deceived	-5149
▁disaster	-5150
▁eighteen	-5151
▁increase	-5152
▁independ	-5153
▁punctual	-5154
▁reminded	-5155
▁repeated	-5156
▁romantic	-5157
▁searched	-5158
▁thrilled	-5159
▁tourists	-5160
▁valuable	-5161
▁according	-5162
▁classical	-5163
▁documents	-5164
▁generally	-5165
▁operation	-5166
▁tradition	-5167
▁Washington	-5168
▁automobile	-5169
▁convenient	-5170
▁encouraged	-5171
▁foreigners	-5172
▁sandwiches	-5173
▁communicate	-5174
▁competition	-5175
▁responsibility	-5176
50	-5177
It	-5178
bly	-5179
ept	-5180
int	-5181
itz	-5182
min	-5183
now	-5184
▁Co	-5185
▁Fe	-5186
▁Or	-5187
corn	-5188
fact	-5189
geon	-5190
iped	-5191
ival	-5192
izes	-5193
lley	-5194
mate	-5195
vant	-5196
yard	-5197
▁199	-5198
▁Ten	-5199
▁Vis	-5200
▁gam	-5201
▁gri	-5202
▁joy	-5203
▁lip	-5204
▁ple	-5205
▁shr	-5206
▁vot	-5207
Where	-5208
ators	-5209
chite	-5210
house	-5211
iring	-5212
lance	-5213
onest	-5214
ropri	-5215
▁Five	-5216
▁Happ	-5217
▁cave	-5218
▁dare	-5219
▁lamp	-5220
▁leak	-5221
▁lips	-5222
▁oven	-5223
▁path	-5224
▁pink	-5225
▁rate	-5226
▁rush	-5227
▁sail	-5228
▁spot	-5229
▁wand	-5230
handed	-5231
thirty	-5232
▁2013.	-5233
▁Earth	-5234
▁Guess	-5235
▁North	-5236
▁Stand	-5237
▁beans	-5238
▁beard	-5239
▁cakes	-5240
▁deleg	-5241
▁dozen	-5242
▁explo	-5243
▁falls	-5244
▁flour	-5245
▁forty	-5246
▁issue	-5247
▁loose	-5248
▁loses	-5249
▁nails	-5250
▁scary	-5251
▁shove	-5252
▁silly	-5253
▁snake	-5254
▁spade	-5255
▁stays	-5256
▁stool	-5257
▁straw	-5258
▁thumb	-5259
▁wheat	-5260
▁wings	-5261
ichever	-5262
ressing	-5263
writing	-5264
▁Summer	-5265
▁active	-5266
▁adults	-5267
▁advise	-5268
▁budget	-5269
▁cancel	-5270
▁chairs	-5271
▁dancer	-5272
▁dislik	-5273
▁fierce	-5274
▁gather	-5275
▁heater	-5276
▁higher	-5277
▁joined	-5278
▁myster	-5279
▁nerves	-5280
▁oxygen	-5281
▁purcha	-5282
▁rotten	-5283
▁settle	-5284
▁source	-5285
▁stands	-5286
▁turkey	-5287
▁volley	-5288
▁admired	-5289
▁archite	-5290
▁closest	-5291
▁consult	-5292
▁content	-5293
▁culture	-5294
▁dislike	-5295
▁haircut	-5296
▁harvest	-5297
▁insects	-5298
▁lottery	-5299
▁mosquit	-5300
▁popcorn	-5301
▁regards	-5302
▁relaxed	-5303
▁showing	-5304
▁whistle	-5305
▁citizens	-5306
▁climbing	-5307
▁criminal	-5308
▁deserved	-5309
▁enjoying	-5310
▁forehead	-5311
▁gathered	-5312
▁helpless	-5313
▁hesitate	-5314
▁improved	-5315
▁insulted	-5316
▁ordinary	-5317
▁powerful	-5318
▁thoughts	-5319
▁underest	-5320
▁visitors	-5321
▁worrying	-5322
▁assistant	-5323
▁bookstore	-5324
▁currently	-5325
▁decisions	-5326
▁financial	-5327
▁lightning	-5328
▁otherwise	-5329
▁published	-5330
▁resources	-5331
▁secretary	-5332
▁suitcases	-5333
▁treatment	-5334
▁whichever	-5335
▁complaints	-5336
▁department	-5337
▁journalist	-5338
▁politician	-5339
▁practicing	-5340
▁punishment	-5341
▁toothpaste	-5342
▁volleyball	-5343
▁application	-5344
▁handwriting	-5345
▁independent	-5346
▁difficulties	-5347
▁circumstances	-5348
ym	-5349
yr	-5350
ale	-5351
awa	-5352
bet	-5353
cis	-5354
ibi	-5355
ids	-5356
lin	-5357
uls	-5358
zzy	-5359
▁da	-5360
anto	-5361
bell	-5362
eter	-5363
hama	-5364
iber	-5365
ilos	-5366
iron	-5367
moon	-5368
owed	-5369
plom	-5370
tles	-5371
▁196	-5372
▁198	-5373
▁Add	-5374
▁Cut	-5375
▁Men	-5376
▁Pic	-5377
▁Str	-5378
▁Wed	-5379
▁bas	-5380
▁gym	-5381
▁ket	-5382
▁odd	-5383
arant	-5384
ardon	-5385
istry	-5386
itzer	-5387
ounds	-5388
shirt	-5389
▁Cook	-5390
▁Face	-5391
▁Food	-5392
▁July	-5393
▁Pass	-5394
▁Sign	-5395
▁Wake	-5396
▁Yoko	-5397
▁item	-5398
▁jury	-5399
▁nail	-5400
▁pens	-5401
▁plus	-5402
▁sank	-5403
▁sett	-5404
▁silk	-5405
▁tire	-5406
▁tool	-5407
▁toys	-5408
▁tune	-5409
▁unhe	-5410
▁wolf	-5411
cience	-5412
ilosop	-5413
phabet	-5414
▁Alice	-5415
▁Esper	-5416
▁Haven	-5417
▁Korea	-5418
▁activ	-5419
▁aimed	-5420
▁arrow	-5421
▁aspir	-5422
▁below	-5423
▁bribe	-5424
▁broom	-5425
▁campa	-5426
▁crops	-5427
▁dizzy	-5428
▁error	-5429
▁frequ	-5430
▁jeans	-5431
▁liter	-5432
▁medal	-5433
▁minor	-5434
▁misle	-5435
▁notes	-5436
▁occup	-5437
▁plain	-5438
▁risks	-5439
▁shows	-5440
▁spicy	-5441
▁style	-5442
▁toler	-5443
▁walls	-5444
inating	-5445
ologist	-5446
▁Anyone	-5447
▁Having	-5448
▁Picass	-5449
▁agrees	-5450
▁border	-5451
▁candle	-5452
▁carpet	-5453
▁cookie	-5454
▁diplom	-5455
▁earned	-5456
▁farmer	-5457
▁fluent	-5458
▁hatred	-5459
▁indust	-5460
▁laughs	-5461
▁luxury	-5462
▁racket	-5463
▁repres	-5464
▁retire	-5465
▁robber	-5466
▁square	-5467
▁squeak	-5468
▁struck	-5469
▁suffer	-5470
▁sympat	-5471
▁tigers	-5472
▁uncons	-5473
▁volunt	-5474
▁wooden	-5475
ropriate	-5476
▁Switzer	-5477
▁arrival	-5478
▁arrives	-5479
▁beating	-5480
▁becomes	-5481
▁comment	-5482
▁dealing	-5483
▁digging	-5484
▁environ	-5485
▁guarant	-5486
▁numbers	-5487
▁painter	-5488
▁physics	-5489
▁prefers	-5490
▁protest	-5491
▁savings	-5492
▁stepped	-5493
▁unlucky	-5494
▁warning	-5495
▁Actually	-5496
▁Facebook	-5497
▁Learning	-5498
▁Yokohama	-5499
▁absolute	-5500
▁alphabet	-5501
▁cheating	-5502
▁contains	-5503
▁discount	-5504
▁entering	-5505
▁forecast	-5506
▁meetings	-5507
▁mosquito	-5508
▁postpone	-5509
▁princess	-5510
▁research	-5511
▁separate	-5512
▁sometime	-5513
▁supplies	-5514
▁unlocked	-5515
▁Esperanto	-5516
▁accompany	-5517
▁astronaut	-5518
▁briefcase	-5519
▁character	-5520
▁competent	-5521
▁desperate	-5522
▁foreigner	-5523
▁honeymoon	-5524
▁influence	-5525
▁prisoners	-5526
▁pronounce	-5527
▁remembers	-5528
▁searching	-5529
▁apparently	-5530
▁disgusting	-5531
▁increasing	-5532
▁optimistic	-5533
▁surprising	-5534
▁yourselves	-5535
▁Switzerland	-5536
▁appreciated	-5537
▁composition	-5538
▁interpreter	-5539
▁translation	-5540
▁unconscious	-5541
▁international	-5542
8.	-5543
ev	-5544
ks	-5545
lc	-5546
aly	-5547
iod	-5548
ocr	-5549
oos	-5550
▁dy	-5551
:00.	-5552
anta	-5553
atin	-5554
coat	-5555
ials	-5556
icip	-5557
ints	-5558
lied	-5559
mare	-5560
mind	-5561
onna	-5562
rain	-5563
wood	-5564
▁Ber	-5565
▁But	-5566
▁Cat	-5567
▁Hot	-5568
▁Ice	-5569
▁Jud	-5570
▁Mar	-5571
▁Mil	-5572
▁Min	-5573
▁San	-5574
▁caf	-5575
▁fan	-5576
▁hel	-5577
▁hom	-5578
▁lab	-5579
▁lyr	-5580
▁mix	-5581
▁mud	-5582
▁pra	-5583
▁scr	-5584
▁suf	-5585
eered	-5586
esome	-5587
iders	-5588
ocrat	-5589
ogram	-5590
overs	-5591
rated	-5592
rogen	-5593
▁Part	-5594
▁ages	-5595
▁bags	-5596
▁data	-5597
▁dyed	-5598
▁fauc	-5599
▁frog	-5600
▁gang	-5601
▁maid	-5602
▁pear	-5603
▁pipe	-5604
▁pure	-5605
▁rail	-5606
▁ruin	-5607
▁snee	-5608
▁stro	-5609
▁sunb	-5610
▁swam	-5611
▁welc	-5612
▁yard	-5613
alling	-5614
ichest	-5615
illing	-5616
minded	-5617
nesday	-5618
ushing	-5619
▁About	-5620
▁Great	-5621
▁Latin	-5622
▁Raise	-5623
▁added	-5624
▁based	-5625
▁blond	-5626
▁breed	-5627
▁burns	-5628
▁cloth	-5629
▁coach	-5630
▁cooks	-5631
▁creep	-5632
▁deals	-5633
▁depos	-5634
▁dried	-5635
▁eager	-5636
▁estab	-5637
▁exams	-5638
▁finds	-5639
▁freak	-5640
▁goods	-5641
▁goose	-5642
▁humor	-5643
▁metal	-5644
▁opera	-5645
▁outdo	-5646
▁react	-5647
▁scarf	-5648
▁scrap	-5649
▁sides	-5650
▁spoon	-5651
▁sting	-5652
▁stret	-5653
▁swims	-5654
▁tools	-5655
ousands	-5656
▁Disney	-5657
▁Either	-5658
▁Though	-5659
▁accent	-5660
▁advent	-5661
▁argued	-5662
▁autumn	-5663
▁candid	-5664
▁chores	-5665
▁eighty	-5666
▁fooled	-5667
▁headed	-5668
▁lyrics	-5669
▁online	-5670
▁packed	-5671
▁proved	-5672
▁reluct	-5673
▁rescue	-5674
▁skinny	-5675
▁strike	-5676
▁tasted	-5677
▁treats	-5678
▁upside	-5679
▁victim	-5680
antastic	-5681
▁Anybody	-5682
▁Picasso	-5683
▁aggress	-5684
▁anytime	-5685
▁applied	-5686
▁aspirin	-5687
▁bananas	-5688
▁candles	-5689
▁charity	-5690
▁conduct	-5691
▁connect	-5692
▁doctors	-5693
▁drawing	-5694
▁helpful	-5695
▁honesty	-5696
▁leather	-5697
▁longest	-5698
▁miracle	-5699
▁pianist	-5700
▁picking	-5701
▁possess	-5702
▁princip	-5703
▁putting	-5704
▁reflect	-5705
▁richest	-5706
▁shallow	-5707
▁shining	-5708
▁slipped	-5709
▁various	-5710
▁violent	-5711
▁Anything	-5712
▁Consider	-5713
▁avoiding	-5714
▁charming	-5715
▁clothing	-5716
▁consists	-5717
▁economic	-5718
▁elephant	-5719
▁generous	-5720
▁hundreds	-5721
▁necklace	-5722
▁normally	-5723
▁original	-5724
▁property	-5725
▁provided	-5726
▁reliable	-5727
▁relieved	-5728
▁religion	-5729
▁secretly	-5730
▁security	-5731
▁squeezed	-5732
▁strawber	-5733
▁suffered	-5734
▁terribly	-5735
▁unemploy	-5736
▁welcomed	-5737
▁Thousands	-5738
▁Wednesday	-5739
▁announced	-5740
▁answering	-5741
▁breathing	-5742
▁buildings	-5743
▁cellphone	-5744
▁described	-5745
▁essential	-5746
▁invention	-5747
▁mentioned	-5748
▁nightmare	-5749
▁overslept	-5750
▁postponed	-5751
▁recovered	-5752
▁unhealthy	-5753
▁approached	-5754
▁collection	-5755
▁conditions	-5756
▁surrounded	-5757
▁temptation	-5758
▁description	-5759
▁environment	-5760
▁fascinating	-5761
▁millionaire	-5762
▁politicians	-5763
▁embarrassing	-5764
▁underestimate	-5765
my	-5766
alf	-5767
asy	-5768
ero	-5769
hus	-5770
ita	-5771
ked	-5772
lph	-5773
ndy	-5774
obe	-5775
oot	-5776
osh	-5777
sis	-5778
ums	-5779
urd	-5780
urs	-5781
▁12	-5782
▁17	-5783
▁25	-5784
▁Gr	-5785
▁Me	-5786
▁Ob	-5787
▁Qu	-5788
▁Sl	-5789
▁nu	-5790
Will	-5791
ales	-5792
anch	-5793
anna	-5794
cure	-5795
gery	-5796
iece	-5797
ifle	-5798
ivid	-5799
made	-5800
mosp	-5801
oard	-5802
oyal	-5803
resp	-5804
town	-5805
ural	-5806
vert	-5807
walk	-5808
▁Bus	-5809
▁Cle	-5810
▁Yes	-5811
▁fle	-5812
▁rib	-5813
▁sac	-5814
▁sem	-5815
▁sir	-5816
▁spr	-5817
▁unb	-5818
aming	-5819
avery	-5820
osity	-5821
wards	-5822
▁Asia	-5823
▁Febr	-5824
▁Grab	-5825
▁Half	-5826
▁King	-5827
▁Luck	-5828
▁Shak	-5829
▁Swed	-5830
▁Swim	-5831
▁carr	-5832
▁coal	-5833
▁coun	-5834
▁dawn	-5835
▁dism	-5836
▁disp	-5837
▁fake	-5838
▁fits	-5839
▁forb	-5840
▁host	-5841
▁inde	-5842
▁irre	-5843
▁lung	-5844
▁oath	-5845
▁onto	-5846
▁pled	-5847
▁stir	-5848
▁sung	-5849
▁surf	-5850
▁wink	-5851
icient	-5852
▁Being	-5853
▁Count	-5854
▁Doesn	-5855
▁Hotel	-5856
▁Light	-5857
▁March	-5858
▁Santa	-5859
▁Trans	-5860
▁alike	-5861
▁appla	-5862
▁armed	-5863
▁bills	-5864
▁boxes	-5865
▁bunch	-5866
▁camer	-5867
▁champ	-5868
▁crown	-5869
▁disor	-5870
▁fifth	-5871
▁gramm	-5872
▁handy	-5873
▁lines	-5874
▁medit	-5875
▁motiv	-5876
▁opens	-5877
▁paran	-5878
▁pills	-5879
▁shape	-5880
▁sheet	-5881
▁shoel	-5882
▁steak	-5883
▁stiff	-5884
▁suits	-5885
▁sword	-5886
▁theft	-5887
▁tries	-5888
▁unatt	-5889
▁uncom	-5890
▁windy	-5891
▁wiped	-5892
agement	-5893
ilities	-5894
▁aboard	-5895
▁absurd	-5896
▁adjust	-5897
▁atmosp	-5898
▁bitten	-5899
▁breaks	-5900
▁circle	-5901
▁collea	-5902
▁compan	-5903
▁cooper	-5904
▁defeat	-5905
▁experi	-5906
▁frozen	-5907
▁includ	-5908
▁landed	-5909
▁misses	-5910
▁ninety	-5911
▁period	-5912
▁phoned	-5913
▁potato	-5914
▁prayed	-5915
▁reduce	-5916
▁rested	-5917
▁rubbed	-5918
▁scarce	-5919
▁seized	-5920
▁skills	-5921
▁stones	-5922
▁stress	-5923
▁teleph	-5924
▁vacant	-5925
▁wasted	-5926
atically	-5927
uriosity	-5928
▁Playing	-5929
▁awesome	-5930
▁besides	-5931
▁blaming	-5932
▁blanket	-5933
▁burglar	-5934
▁comfort	-5935
▁conceal	-5936
▁dresses	-5937
▁embassy	-5938
▁feeding	-5939
▁hurried	-5940
▁keeping	-5941
▁parties	-5942
▁passion	-5943
▁provide	-5944
▁punched	-5945
▁quarrel	-5946
▁reality	-5947
▁solving	-5948
▁yelling	-5949
▁Compared	-5950
▁February	-5951
▁Swimming	-5952
▁achieved	-5953
▁advanced	-5954
▁comments	-5955
▁counting	-5956
▁curtains	-5957
▁defeated	-5958
▁downtown	-5959
▁expenses	-5960
▁forgiven	-5961
▁happiest	-5962
▁kilogram	-5963
▁knocking	-5964
▁memorize	-5965
▁messages	-5966
▁novelist	-5967
▁outdoors	-5968
▁philosop	-5969
▁possibly	-5970
▁resigned	-5971
▁roommate	-5972
▁shooting	-5973
▁textbook	-5974
▁thankful	-5975
▁troubles	-5976
▁withdraw	-5977
▁bothering	-5978
▁celebrate	-5979
▁challenge	-5980
▁chemistry	-5981
▁collected	-5982
▁customers	-5983
▁dependent	-5984
▁effective	-5985
▁ignorance	-5986
▁kidnapped	-5987
▁paintings	-5988
▁repairing	-5989
▁represent	-5990
▁surrender	-5991
▁suspected	-5992
▁talkative	-5993
▁volunteer	-5994
▁acquainted	-5995
▁aggressive	-5996
▁assistance	-5997
▁atmosphere	-5998
▁determined	-5999
▁disturbing	-6000
▁incredible	-6001
▁incredibly	-6002
▁instrument	-6003
▁production	-6004
▁interrupted	-6005
▁resemblance	-6006
▁construction	-6007
▁congratulated	-6008
▁uncomfortable	-6009
4.	-6010
Is	-6011
af	-6012
lk	-6013
ti	-6014
Are	-6015
aus	-6016
com	-6017
ima	-6018
ino	-6019
jud	-6020
omb	-6021
oms	-6022
ses	-6023
son	-6024
tub	-6025
ube	-6026
ulf	-6027
▁40	-6028
▁Em	-6029
▁pi	-6030
ague	-6031
cond	-6032
each	-6033
eare	-6034
food	-6035
hest	-6036
hlet	-6037
mpoo	-6038
orge	-6039
rime	-6040
uine	-6041
uled	-6042
ulge	-6043
view	-6044
ware	-6045
▁193	-6046
▁194	-6047
▁Atl	-6048
▁Los	-6049
▁Old	-6050
▁Red	-6051
▁Rom	-6052
▁ack	-6053
▁aid	-6054
▁cre	-6055
▁laz	-6056
▁pir	-6057
▁pos	-6058
▁rap	-6059
▁ske	-6060
▁unw	-6061
aghet	-6062
anded	-6063
anied	-6064
chair	-6065
child	-6066
clear	-6067
ctors	-6068
fight	-6069
hetic	-6070
iddle	-6071
inals	-6072
istol	-6073
pered	-6074
umbus	-6075
venge	-6076
▁Lake	-6077
▁Lend	-6078
▁Move	-6079
▁Nara	-6080
▁Quit	-6081
▁Scot	-6082
▁Shin	-6083
▁Stud	-6084
▁Work	-6085
▁bang	-6086
▁bush	-6087
▁cart	-6088
▁cock	-6089
▁cops	-6090
▁cows	-6091
▁cure	-6092
▁envy	-6093
▁insp	-6094
▁jerk	-6095
▁kite	-6096
▁link	-6097
▁mere	-6098
▁prec	-6099
▁rout	-6100
▁sake	-6101
▁shel	-6102
▁simp	-6103
▁tatt	-6104
itched	-6105
levant	-6106
ousers	-6107
prints	-6108
romise	-6109
▁Black	-6110
▁Claus	-6111
▁Cross	-6112
▁Music	-6113
▁Ocean	-6114
▁Throw	-6115
▁absor	-6116
▁abuse	-6117
▁alibi	-6118
▁awoke	-6119
▁bears	-6120
▁boast	-6121
▁cabin	-6122
▁cared	-6123
▁cerem	-6124
▁chalk	-6125
▁cheat	-6126
▁chest	-6127
▁essay	-6128
▁feeds	-6129
▁fried	-6130
▁fully	-6131
▁homes	-6132
▁horiz	-6133
▁inher	-6134
▁leads	-6135
▁limit	-6136
▁mustn	-6137
▁panic	-6138
▁pluck	-6139
▁ranch	-6140
▁shine	-6141
▁solid	-6142
▁spill	-6143
▁stink	-6144
▁tends	-6145
▁topic	-6146
▁track	-6147
▁trait	-6148
▁truly	-6149
▁wanna	-6150
▁waved	-6151
▁whale	-6152
aghetti	-6153
espeare	-6154
leasant	-6155
olished	-6156
▁Arabic	-6157
▁Greece	-6158
▁Univer	-6159
▁Winter	-6160
▁acknow	-6161
▁antiqu	-6162
▁athlet	-6163
▁atomic	-6164
▁baking	-6165
▁blames	-6166
▁boiled	-6167
▁brakes	-6168
▁bumped	-6169
▁calcul	-6170
▁chased	-6171
▁dining	-6172
▁driven	-6173
▁faucet	-6174
▁fellow	-6175
▁folded	-6176
▁forbid	-6177
▁groups	-6178
▁habits	-6179
▁hunger	-6180
▁infect	-6181
▁jewels	-6182
▁pistol	-6183
▁pounds	-6184
▁recent	-6185
▁remote	-6186
▁safely	-6187
▁shirts	-6188
▁statue	-6189
▁sunset	-6190
▁tricks	-6191
▁waiter	-6192
▁washes	-6193
▁wolves	-6194
▁yelled	-6195
▁Finally	-6196
▁Judging	-6197
▁Mexican	-6198
▁abandon	-6199
▁achieve	-6200
▁ancient	-6201
▁anticip	-6202
▁balance	-6203
▁bathtub	-6204
▁battery	-6205
▁camping	-6206
▁deliver	-6207
▁discour	-6208
▁follows	-6209
▁freedom	-6210
▁general	-6211
▁genuine	-6212
▁highest	-6213
▁hurting	-6214
▁jumping	-6215
▁lawyers	-6216
▁lessons	-6217
▁lightly	-6218
▁matches	-6219
▁moments	-6220
▁musical	-6221
▁praised	-6222
▁process	-6223
▁related	-6224
▁replace	-6225
▁seconds	-6226
▁section	-6227
▁settled	-6228
▁shortly	-6229
▁sincere	-6230
▁sinking	-6231
▁skating	-6232
▁slammed	-6233
▁slapped	-6234
▁surgery	-6235
▁turning	-6236
▁victory	-6237
▁worries	-6238
cientists	-6239
▁Columbus	-6240
▁Scotland	-6241
▁Students	-6242
▁Whenever	-6243
▁Wherever	-6244
▁addicted	-6245
▁arranged	-6246
▁backyard	-6247
▁bankrupt	-6248
▁campaign	-6249
▁coughing	-6250
▁directly	-6251
▁disagree	-6252
▁exploded	-6253
▁freezing	-6254
▁graduate	-6255
▁insecure	-6256
▁nowadays	-6257
▁positive	-6258
▁precious	-6259
▁proposed	-6260
▁requires	-6261
▁signific	-6262
▁starving	-6263
▁trousers	-6264
▁Christian	-6265
▁attracted	-6266
▁complains	-6267
▁curiosity	-6268
▁delegates	-6269
▁detective	-6270
▁finishing	-6271
▁fortunate	-6272
▁housework	-6273
▁incorrect	-6274
▁kilograms	-6275
▁leftovers	-6276
▁regularly	-6277
▁sentences	-6278
▁shoelaces	-6279
▁spaghetti	-6280
▁whispered	-6281
▁accomplish	-6282
▁distracted	-6283
▁misleading	-6284
▁pretending	-6285
▁technology	-6286
▁undressing	-6287
▁unemployed	-6288
▁unpleasant	-6289
▁Shakespeare	-6290
▁accompanied	-6291
▁conditioner	-6292
▁participate	-6293
▁performance	-6294
▁recommended	-6295
▁volunteered	-6296
▁consequences	-6297
▁investigating	-6298
fl	-6299
ka	-6300
ky	-6301
ms	-6302
ox	-6303
You	-6304
avy	-6305
for	-6306
ina	-6307
ipp	-6308
ipt	-6309
lee	-6310
oci	-6311
thi	-6312
▁$1	-6313
▁Kn	-6314
▁Pa	-6315
▁oy	-6316
ades	-6317
ador	-6318
chup	-6319
ctic	-6320
down	-6321
ecut	-6322
enth	-6323
erly	-6324
fere	-6325
fire	-6326
hand	-6327
husi	-6328
icer	-6329
idly	-6330
inct	-6331
isis	-6332
lymp	-6333
mbol	-6334
mbur	-6335
olve	-6336
onse	-6337
raff	-6338
rigu	-6339
ript	-6340
ulse	-6341
utes	-6342
▁195	-6343
▁Buy	-6344
▁CDs	-6345
▁Dem	-6346
▁Hum	-6347
▁Nag	-6348
▁Pac	-6349
▁Whe	-6350
▁Wow	-6351
▁ain	-6352
▁cro	-6353
▁ded	-6354
▁div	-6355
▁dug	-6356
▁dye	-6357
▁poo	-6358
▁rug	-6359
▁spy	-6360
▁sue	-6361
▁tre	-6362
▁une	-6363
▁vet	-6364
ancis	-6365
chiev	-6366
cribe	-6367
ender	-6368
ewrit	-6369
herry	-6370
ients	-6371
iforn	-6372
iking	-6373
inate	-6374
irmed	-6375
issed	-6376
itled	-6377
itors	-6378
lands	-6379
mbled	-6380
olves	-6381
onstr	-6382
oosen	-6383
orney	-6384
stead	-6385
uggle	-6386
undry	-6387
verty	-6388
water	-6389
▁Bell	-6390
▁Cent	-6391
▁Draw	-6392
▁Mars	-6393
▁Mill	-6394
▁Nice	-6395
▁Nove	-6396
▁Zeal	-6397
▁acts	-6398
▁blow	-6399
▁boil	-6400
▁chap	-6401
▁chop	-6402
▁clar	-6403
▁crew	-6404
▁dire	-6405
▁drag	-6406
▁east	-6407
▁exit	-6408
▁fest	-6409
▁flea	-6410
▁gall	-6411
▁hook	-6412
▁horn	-6413
▁inha	-6414
▁laws	-6415
▁mask	-6416
▁neat	-6417
▁outr	-6418
▁owed	-6419
▁pays	-6420
▁seas	-6421
▁sixt	-6422
▁tank	-6423
▁trop	-6424
▁vent	-6425
▁vers	-6426
▁virt	-6427
▁volc	-6428
▁wrap	-6429
agious	-6430
everal	-6431
ground	-6432
ipment	-6433
itable	-6434
▁1,000	-6435
▁Grand	-6436
▁Olymp	-6437
▁White	-6438
▁Young	-6439
▁baref	-6440
▁block	-6441
▁broad	-6442
▁fewer	-6443
▁gonna	-6444
▁guide	-6445
▁holds	-6446
▁jewel	-6447
▁nicer	-6448
▁north	-6449
▁pride	-6450
▁queen	-6451
▁refer	-6452
▁risky	-6453
▁schem	-6454
▁shade	-6455
▁sixty	-6456
▁sweep	-6457
▁teams	-6458
▁tiger	-6459
▁total	-6460
▁trash	-6461
▁trick	-6462
▁unmar	-6463
▁utter	-6464
▁woken	-6465
ancisco	-6466
ifornia	-6467
▁Berlin	-6468
▁Finish	-6469
▁Hallow	-6470
▁Transl	-6471
▁Turkey	-6472
▁Valent	-6473
▁altern	-6474
▁banana	-6475
▁barber	-6476
▁blouse	-6477
▁brings	-6478
▁checks	-6479
▁cheeks	-6480
▁cherry	-6481
▁commer	-6482
▁contro	-6483
▁crisis	-6484
▁devast	-6485
▁errors	-6486
▁execut	-6487
▁golden	-6488
▁grocer	-6489
▁hambur	-6490
▁horror	-6491
▁immigr	-6492
▁needle	-6493
▁palace	-6494
▁permit	-6495
▁refund	-6496
▁region	-6497
▁relief	-6498
▁rolled	-6499
▁rumors	-6500
▁rushed	-6501
▁script	-6502
▁shaved	-6503
▁simply	-6504
▁smiles	-6505
▁spider	-6506
▁states	-6507
▁sweets	-6508
▁symbol	-6509
▁unfort	-6510
▁voices	-6511
▁worker	-6512
chievous	-6513
▁Instead	-6514
▁Mondays	-6515
▁Pacific	-6516
▁Several	-6517
▁Whether	-6518
▁Zealand	-6519
▁antique	-6520
▁butterf	-6521
▁carrots	-6522
▁century	-6523
▁chances	-6524
▁chewing	-6525
▁cleared	-6526
▁closing	-6527
▁created	-6528
▁current	-6529
▁customs	-6530
▁destiny	-6531
▁earring	-6532
▁enthusi	-6533
▁glanced	-6534
▁harmful	-6535
▁individ	-6536
▁indulge	-6537
▁intrigu	-6538
▁ketchup	-6539
▁laundry	-6540
▁mailbox	-6541
▁operate	-6542
▁oysters	-6543
▁passing	-6544
▁pleaded	-6545
▁poverty	-6546
▁regrets	-6547
▁remarks	-6548
▁reserve	-6549
▁revenge	-6550
▁scratch	-6551
▁sharpen	-6552
▁surgeon	-6553
▁tightly	-6554
▁travels	-6555
▁twisted	-6556
▁vitamin	-6557
▁whining	-6558
▁Business	-6559
▁Catholic	-6560
▁Speaking	-6561
▁assemble	-6562
▁astronom	-6563
▁attorney	-6564
▁beginner	-6565
▁bringing	-6566
▁catching	-6567
▁ceremony	-6568
▁chatting	-6569
▁cheerful	-6570
▁declared	-6571
▁declined	-6572
▁demonstr	-6573
▁diseases	-6574
▁dislikes	-6575
▁festival	-6576
▁hopeless	-6577
▁interven	-6578
▁occupied	-6579
▁offended	-6580
▁official	-6581
▁opinions	-6582
▁overcoat	-6583
▁paranoid	-6584
▁promoted	-6585
▁purchase	-6586
▁railroad	-6587
▁regarded	-6588
▁resemble	-6589
▁respects	-6590
▁response	-6591
▁revealed	-6592
▁severely	-6593
▁slightly	-6594
▁sympathy	-6595
▁teenager	-6596
▁tomatoes	-6597
▁tortured	-6598
▁uniforms	-6599
▁wandered	-6600
▁weekends	-6601
▁Brazilian	-6602
▁Francisco	-6603
▁Halloween	-6604
▁applauded	-6605
▁architect	-6606
▁beginners	-6607
▁completed	-6608
▁connected	-6609
▁correctly	-6610
▁defendant	-6611
▁discovery	-6612
▁dismissed	-6613
▁equipment	-6614
▁fantastic	-6615
▁gradually	-6616
▁guarantee	-6617
▁hesitated	-6618
▁identical	-6619
▁improving	-6620
▁interfere	-6621
▁interview	-6622
▁necessity	-6623
▁relatives	-6624
▁respected	-6625
▁satisfact	-6626
▁struggled	-6627
▁terrified	-6628
▁unmarried	-6629
▁California	-6630
▁Scientists	-6631
▁University	-6632
▁acceptable	-6633
▁contagious	-6634
▁directions	-6635
▁engagement	-6636
▁fascinated	-6637
▁frequently	-6638
▁humiliated	-6639
▁literature	-6640
▁telephoned	-6641
▁alternative	-6642
▁approaching	-6643
▁appropriate	-6644
▁contributed	-6645
▁earthquakes	-6646
▁mischievous	-6647
▁reluctantly	-6648
▁unfortunate	-6649
▁vegetarians	-6650
▁accidentally	-6651
▁congratulate	-6652
▁grandparents	-6653
▁interrupting	-6654
▁photographer	-6655
So	-6656
ah	-6657
bl	-6658
oe	-6659
sk	-6660
sm	-6661
ya	-6662
yl	-6663
cel	-6664
ete	-6665
ham	-6666
hew	-6667
how	-6668
iar	-6669
irl	-6670
isp	-6671
kle	-6672
len	-6673
mit	-6674
ota	-6675
udy	-6676
▁13	-6677
▁24	-6678
▁ID	-6679
▁Mo	-6680
▁Sk	-6681
▁wa	-6682
acts	-6683
asty	-6684
cipe	-6685
conf	-6686
esus	-6687
hern	-6688
inos	-6689
load	-6690
male	-6691
ooth	-6692
phew	-6693
rase	-6694
rial	-6695
ssip	-6696
stit	-6697
ubes	-6698
uese	-6699
umsy	-6700
utch	-6701
what	-6702
▁Aug	-6703
▁Mat	-6704
▁Pro	-6705
▁Six	-6706
▁Ste	-6707
▁Ven	-6708
▁awk	-6709
▁gaz	-6710
▁hoc	-6711
▁lid	-6712
▁rat	-6713
▁rew	-6714
▁sib	-6715
▁sip	-6716
▁sow	-6717
▁tin	-6718
▁vir	-6719
alley	-6720
arted	-6721
cking	-6722
erson	-6723
hibit	-6724
idges	-6725
iding	-6726
ieves	-6727
imney	-6728
lings	-6729
orary	-6730
rived	-6731
stick	-6732
stood	-6733
unted	-6734
▁Burn	-6735
▁Dece	-6736
▁Fish	-6737
▁Kids	-6738
▁Kobe	-6739
▁Like	-6740
▁Lock	-6741
▁Long	-6742
▁Mind	-6743
▁Seen	-6744
▁ador	-6745
▁butt	-6746
▁dies	-6747
▁flir	-6748
▁inev	-6749
▁load	-6750
▁mall	-6751
▁pier	-6752
▁plun	-6753
▁rise	-6754
▁seek	-6755
▁sees	-6756
▁shad	-6757
▁snor	-6758
▁tidy	-6759
▁toot	-6760
▁zero	-6761
aholic	-6762
atform	-6763
entive	-6764
estern	-6765
fering	-6766
garian	-6767
istics	-6768
ivered	-6769
lected	-6770
oshima	-6771
phones	-6772
ricult	-6773
weight	-6774
▁2,000	-6775
▁Brush	-6776
▁Clean	-6777
▁Happy	-6778
▁Jesus	-6779
▁Learn	-6780
▁Study	-6781
▁accur	-6782
▁alert	-6783
▁ankle	-6784
▁bites	-6785
▁bloom	-6786
▁burnt	-6787
▁camel	-6788
▁cases	-6789
▁cliff	-6790
▁colds	-6791
▁crush	-6792
▁dolph	-6793
▁eaves	-6794
▁elbow	-6795
▁files	-6796
▁flows	-6797
▁flush	-6798
▁gains	-6799
▁grade	-6800
▁homet	-6801
▁image	-6802
▁irrit	-6803
▁legal	-6804
▁liber	-6805
▁loyal	-6806
▁oppon	-6807
▁owned	-6808
▁parks	-6809
▁postc	-6810
▁rifle	-6811
▁ruins	-6812
▁scrat	-6813
▁serve	-6814
▁shave	-6815
▁ships	-6816
▁sneak	-6817
▁spare	-6818
▁swept	-6819
▁toast	-6820
▁trial	-6821
▁urged	-6822
▁verge	-6823
▁veter	-6824
▁wakes	-6825
ewriter	-6826
ocratic	-6827
viously	-6828
▁August	-6829
▁Coffee	-6830
▁Indian	-6831
▁Soccer	-6832
▁advert	-6833
▁affair	-6834
▁amused	-6835
▁associ	-6836
▁branch	-6837
▁cattle	-6838
▁closes	-6839
▁clumsy	-6840
▁cockro	-6841
▁colder	-6842
▁collap	-6843
▁collar	-6844
▁copies	-6845
▁debate	-6846
▁degree	-6847
▁dumped	-6848
▁extent	-6849
▁facing	-6850
▁faults	-6851
▁female	-6852
▁former	-6853
▁gossip	-6854
▁helmet	-6855
▁hiking	-6856
▁hockey	-6857
▁hunter	-6858
▁idiots	-6859
▁insens	-6860
▁melted	-6861
▁misled	-6862
▁nephew	-6863
▁patron	-6864
▁plates	-6865
▁points	-6866
▁recess	-6867
▁recipe	-6868
▁reveal	-6869
▁scheme	-6870
▁sheets	-6871
▁skirts	-6872
▁slower	-6873
▁smooth	-6874
▁stingy	-6875
▁stores	-6876
▁tattoo	-6877
▁thread	-6878
▁tunnel	-6879
▁unsure	-6880
▁visits	-6881
▁weighs	-6882
ervative	-6883
▁Classes	-6884
▁Doctors	-6885
▁Everest	-6886
▁Iceland	-6887
▁Someday	-6888
▁awkward	-6889
▁behaved	-6890
▁billion	-6891
▁biology	-6892
▁blocked	-6893
▁blowing	-6894
▁bridges	-6895
▁catches	-6896
▁chimney	-6897
▁clapped	-6898
▁compare	-6899
▁confuse	-6900
▁contain	-6901
▁demands	-6902
▁destroy	-6903
▁elderly	-6904
▁guessed	-6905
▁heavier	-6906
▁journey	-6907
▁landing	-6908
▁leaning	-6909
▁limited	-6910
▁nuclear	-6911
▁obliged	-6912
▁rapidly	-6913
▁recover	-6914
▁sailors	-6915
▁seafood	-6916
▁seatbel	-6917
▁sending	-6918
▁shaking	-6919
▁shampoo	-6920
▁sixteen	-6921
▁smelled	-6922
▁spiders	-6923
▁spinach	-6924
▁spoiled	-6925
▁stirred	-6926
▁thunder	-6927
▁traitor	-6928
▁visible	-6929
▁volcano	-6930
▁November	-6931
▁Nowadays	-6932
▁adorable	-6933
▁antiques	-6934
▁chemical	-6935
▁customer	-6936
▁darkness	-6937
▁designed	-6938
▁discover	-6939
▁doubtful	-6940
▁engineer	-6941
▁entirely	-6942
▁entitled	-6943
▁examined	-6944
▁hangover	-6945
▁hometown	-6946
▁identify	-6947
▁interrog	-6948
▁inviting	-6949
▁majority	-6950
▁patients	-6951
▁politely	-6952
▁semester	-6953
▁siblings	-6954
▁somewhat	-6955
▁stunning	-6956
▁tolerate	-6957
▁vitamins	-6958
▁youngest	-6959
▁Translate	-6960
▁Valentine	-6961
▁adventure	-6962
▁attentive	-6963
▁confirmed	-6964
▁criminals	-6965
▁delivered	-6966
▁disgusted	-6967
▁exchanged	-6968
▁guitarist	-6969
▁immediate	-6970
▁organized	-6971
▁patiently	-6972
▁permitted	-6973
▁pollution	-6974
▁practical	-6975
▁qualified	-6976
▁scratched	-6977
▁slightest	-6978
▁suspicion	-6979
▁vegetable	-6980
▁Portuguese	-6981
▁compliment	-6982
▁conclusion	-6983
▁devastated	-6984
▁expression	-6985
▁generation	-6986
▁inevitable	-6987
▁intentions	-6988
▁intervened	-6989
▁mysterious	-6990
▁overweight	-6991
▁typewriter	-6992
▁defenseless	-6993
▁differently	-6994
▁established	-6995
▁insensitive	-6996
▁interfering	-6997
▁personality	-6998
▁remembering	-6999
▁restaurants	-7000
▁conservative	-7001
▁satisfactory	-7002
▁consideration	-7003
▁misunderstood	-7004
1.	-7005
7.	-7006
sp	-7007
Don	-7008
May	-7009
The	-7010
Who	-7011
ams	-7012
bag	-7013
bia	-7014
gle	-7015
iat	-7016
ift	-7017
isk	-7018
mel	-7019
oug	-7020
ria	-7021
rim	-7022
udd	-7023
ups	-7024
xim	-7025
▁14	-7026
▁II	-7027
acco	-7028
adle	-7029
aker	-7030
anes	-7031
ango	-7032
back	-7033
berg	-7034
bies	-7035
etic	-7036
fall	-7037
gain	-7038
iter	-7039
itle	-7040
ivor	-7041
kind	-7042
knob	-7043
lled	-7044
nels	-7045
oomy	-7046
umps	-7047
unci	-7048
zing	-7049
▁192	-7050
▁300	-7051
▁Big	-7052
▁Con	-7053
▁Ele	-7054
▁Emb	-7055
▁Had	-7056
▁Hir	-7057
▁Ill	-7058
▁Pri	-7059
▁Sea	-7060
▁Ser	-7061
▁Tex	-7062
▁Toy	-7063
▁bee	-7064
▁cas	-7065
▁der	-7066
▁exh	-7067
▁gum	-7068
▁hog	-7069
▁lif	-7070
▁mut	-7071
▁ped	-7072
▁ric	-7073
▁vig	-7074
▁voy	-7075
▁wid	-7076
ander	-7077
atell	-7078
cakes	-7079
cling	-7080
ement	-7081
enses	-7082
ental	-7083
ented	-7084
geles	-7085
geons	-7086
going	-7087
ially	-7088
icies	-7089
icket	-7090
iland	-7091
ilton	-7092
imals	-7093
itary	-7094
otton	-7095
tingu	-7096
ublic	-7097
ushes	-7098
▁Char	-7099
▁Cold	-7100
▁Cows	-7101
▁Desp	-7102
▁Drop	-7103
▁Fire	-7104
▁Gold	-7105
▁Hope	-7106
▁Iron	-7107
▁Lots	-7108
▁Pull	-7109
▁Stat	-7110
▁Supp	-7111
▁Thai	-7112
▁Wind	-7113
▁Year	-7114
▁beef	-7115
▁bunk	-7116
▁buys	-7117
▁cane	-7118
▁chef	-7119
▁curb	-7120
▁cuts	-7121
▁diss	-7122
▁fart	-7123
▁fuss	-7124
▁gray	-7125
▁harp	-7126
▁hats	-7127
▁lets	-7128
▁liqu	-7129
▁mamm	-7130
▁mile	-7131
▁mort	-7132
▁pace	-7133
▁pour	-7134
▁reap	-7135
▁sets	-7136
▁sits	-7137
▁slee	-7138
▁smok	-7139
▁spir	-7140
▁stif	-7141
▁subs	-7142
▁tame	-7143
▁toes	-7144
▁tons	-7145
▁toss	-7146
▁unne	-7147
▁wire	-7148
abbits	-7149
aughty	-7150
eteria	-7151
idents	-7152
iously	-7153
onesty	-7154
ormous	-7155
orters	-7156
raffic	-7157
rected	-7158
teries	-7159
tually	-7160
umbled	-7161
urning	-7162
ursday	-7163
▁2:30?	-7164
▁Drive	-7165
▁Dutch	-7166
▁Langu	-7167
▁Paper	-7168
▁Teach	-7169
▁Weren	-7170
▁adapt	-7171
▁agent	-7172
▁alleg	-7173
▁amate	-7174
▁aston	-7175
▁attic	-7176
▁award	-7177
▁belie	-7178
▁blink	-7179
▁blunt	-7180
▁bombs	-7181
▁bones	-7182
▁bride	-7183
▁cigar	-7184
▁comed	-7185
▁conqu	-7186
▁daily	-7187
▁debts	-7188
▁dolls	-7189
▁empha	-7190
▁exhib	-7191
▁flute	-7192
▁forms	-7193
▁forth	-7194
▁frust	-7195
▁goals	-7196
▁goats	-7197
▁grows	-7198
▁hitch	-7199
▁holes	-7200
▁indic	-7201
▁marks	-7202
▁nasty	-7203
▁picky	-7204
▁prime	-7205
▁pulse	-7206
▁sacri	-7207
▁salty	-7208
▁score	-7209
▁slice	-7210
▁snack	-7211
▁snows	-7212
▁stain	-7213
▁stare	-7214
▁steps	-7215
▁title	-7216
▁trace	-7217
▁valid	-7218
▁waist	-7219
▁youth	-7220
cessary	-7221
inosaur	-7222
orthern	-7223
otional	-7224
working	-7225
▁Health	-7226
▁Loosen	-7227
▁Making	-7228
▁Narita	-7229
▁Remain	-7230
▁Unless	-7231
▁addict	-7232
▁baboon	-7233
▁betray	-7234
▁biting	-7235
▁blonde	-7236
▁brains	-7237
▁carved	-7238
▁consum	-7239
▁darker	-7240
▁desire	-7241
▁elders	-7242
▁electr	-7243
▁exists	-7244
▁forces	-7245
▁gloomy	-7246
▁hotels	-7247
▁impact	-7248
▁lifted	-7249
▁limits	-7250
▁loving	-7251
▁makeup	-7252
▁melody	-7253
▁motion	-7254
▁obeyed	-7255
▁offend	-7256
▁onions	-7257
▁origin	-7258
▁raises	-7259
▁richer	-7260
▁shovel	-7261
▁string	-7262
▁supply	-7263
▁unbear	-7264
▁uneasy	-7265
▁vision	-7266
▁voyage	-7267
piration	-7268
ximately	-7269
▁Angeles	-7270
▁Animals	-7271
▁Believe	-7272
▁Compare	-7273
▁Embassy	-7274
▁Honesty	-7275
▁Rabbits	-7276
▁Reading	-7277
▁Strange	-7278
▁Traffic	-7279
▁affairs	-7280
▁applies	-7281
▁arrange	-7282
▁babysit	-7283
▁cameras	-7284
▁charges	-7285
▁choices	-7286
▁compuls	-7287
▁contrad	-7288
▁counter	-7289
▁cycling	-7290
▁deceive	-7291
▁erected	-7292
▁exhilar	-7293
▁expects	-7294
▁extingu	-7295
▁fastest	-7296
▁firemen	-7297
▁flights	-7298
▁focused	-7299
▁greatly	-7300
▁haunted	-7301
▁heating	-7302
▁hobbies	-7303
▁horizon	-7304
▁imitate	-7305
▁imports	-7306
▁inhabit	-7307
▁insists	-7308
▁interse	-7309
▁ironing	-7310
▁jewelry	-7311
▁kidnapp	-7312
▁naughty	-7313
▁plastic	-7314
▁pledged	-7315
▁plunged	-7316
▁privacy	-7317
▁refuses	-7318
▁seeking	-7319
▁seventy	-7320
▁sharing	-7321
▁shelter	-7322
▁singers	-7323
▁surface	-7324
▁swallow	-7325
▁swimmer	-7326
▁thieves	-7327
▁turtles	-7328
▁version	-7329
▁wealthy	-7330
confident	-7331
▁December	-7332
▁Thailand	-7333
▁Thursday	-7334
▁Visitors	-7335
▁barefoot	-7336
▁blankets	-7337
▁brushing	-7338
▁chairman	-7339
▁composed	-7340
▁constant	-7341
▁creative	-7342
▁creature	-7343
▁critical	-7344
▁cupboard	-7345
▁delicate	-7346
▁deprived	-7347
▁despises	-7348
▁detailed	-7349
▁director	-7350
▁doorknob	-7351
▁enormous	-7352
▁firewood	-7353
▁gambling	-7354
▁imported	-7355
▁knitting	-7356
▁lipstick	-7357
▁memories	-7358
▁negative	-7359
▁opponent	-7360
▁pathetic	-7361
▁policies	-7362
▁produces	-7363
▁pronunci	-7364
▁psychiat	-7365
▁relaxing	-7366
▁reported	-7367
▁reserved	-7368
▁salesman	-7369
▁seatbelt	-7370
▁shortcut	-7371
▁sidewalk	-7372
▁sunlight	-7373
▁supplied	-7374
▁tendency	-7375
▁throwing	-7376
▁training	-7377
▁transfer	-7378
▁ventured	-7379
▁withdrew	-7380
▁addressed	-7381
▁associate	-7382
▁cafeteria	-7383
▁community	-7384
▁companies	-7385
▁departure	-7386
▁disappear	-7387
▁existence	-7388
▁expressed	-7389
▁forbidden	-7390
▁inherited	-7391
▁interests	-7392
▁materials	-7393
▁policemen	-7394
▁principal	-7395
▁receiving	-7396
▁referring	-7397
▁regretted	-7398
▁statement	-7399
▁temporary	-7400
▁toothache	-7401
▁transport	-7402
▁unwilling	-7403
▁Disneyland	-7404
▁Eventually	-7405
▁afterwards	-7406
▁calculator	-7407
▁commercial	-7408
▁criticized	-7409
▁dependable	-7410
▁discussing	-7411
▁exhibition	-7412
▁explaining	-7413
▁forgetting	-7414
▁grandchild	-7415
▁individual	-7416
▁revolution	-7417
▁vegetarian	-7418
▁workaholic	-7419
▁Mathematics	-7420
▁destination	-7421
▁translating	-7422
▁unnecessary	-7423
▁accomplished	-7424
▁intelligence	-7425
▁strawberries	-7426
▁automatically	-7427
▁consciousness	-7428
▁exceptionally	-7429
▁overconfident	-7430
6.	-7431
BI	-7432
He	-7433
ij	-7434
wa	-7435
ara	-7436
asm	-7437
ban	-7438
elt	-7439
gue	-7440
hop	-7441
kin	-7442
lps	-7443
oro	-7444
oul	-7445
oys	-7446
rav	-7447
til	-7448
ulb	-7449
urt	-7450
uum	-7451
▁15	-7452
▁80	-7453
▁MP	-7454
▁Ow	-7455
▁Sy	-7456
▁ge	-7457
anny	-7458
arge	-7459
aven	-7460
chae	-7461
chan	-7462
cher	-7463
cles	-7464
cope	-7465
erry	-7466
fice	-7467
four	-7468
gues	-7469
iant	-7470
ilip	-7471
illa	-7472
inis	-7473
oger	-7474
onia	-7475
oops	-7476
ords	-7477
otes	-7478
pock	-7479
reck	-7480
rosc	-7481
shot	-7482
tuce	-7483
ueen	-7484
umer	-7485
velt	-7486
▁10.	-7487
▁Del	-7488
▁Dri	-7489
▁FBI	-7490
▁Ign	-7491
▁Net	-7492
▁Nor	-7493
▁Rec	-7494
▁Run	-7495
▁Sal	-7496
▁Use	-7497
▁bac	-7498
▁bak	-7499
▁bik	-7500
▁dom	-7501
▁enl	-7502
▁fol	-7503
▁gag	-7504
▁gig	-7505
▁hyd	-7506
▁ing	-7507
▁jar	-7508
▁lap	-7509
▁lob	-7510
▁lun	-7511
▁nit	-7512
▁pes	-7513
▁por	-7514
▁sin	-7515
▁tob	-7516
▁upd	-7517
▁wag	-7518
Thank	-7519
about	-7520
adium	-7521
allel	-7522
andal	-7523
apted	-7524
arian	-7525
armed	-7526
ascul	-7527
dling	-7528
eable	-7529
elled	-7530
endar	-7531
ening	-7532
guard	-7533
isher	-7534
itals	-7535
ivity	-7536
kered	-7537
laced	-7538
naire	-7539
oline	-7540
ooked	-7541
place	-7542
quate	-7543
ships	-7544
ugees	-7545
ungle	-7546
▁Alps	-7547
▁Belg	-7548
▁Boys	-7549
▁Budd	-7550
▁Feel	-7551
▁Fore	-7552
▁Holl	-7553
▁Paul	-7554
▁Soon	-7555
▁Step	-7556
▁Talk	-7557
▁anch	-7558
▁bake	-7559
▁bars	-7560
▁bass	-7561
▁bent	-7562
▁bore	-7563
▁caut	-7564
▁clog	-7565
▁clue	-7566
▁coma	-7567
▁damp	-7568
▁dang	-7569
▁dict	-7570
▁duck	-7571
▁dull	-7572
▁edge	-7573
▁emot	-7574
▁fled	-7575
▁foul	-7576
▁fuel	-7577
▁fulf	-7578
▁hail	-7579
▁indo	-7580
▁keen	-7581
▁kick	-7582
▁male	-7583
▁obst	-7584
▁pant	-7585
▁pork	-7586
▁pump	-7587
▁reck	-7588
▁slim	-7589
▁snoo	-7590
▁tape	-7591
▁tear	-7592
▁tiny	-7593
▁trim	-7594
▁unim	-7595
▁unre	-7596
▁unsu	-7597
▁vary	-7598
▁yawn	-7599
athing	-7600
believ	-7601
cation	-7602
ensive	-7603
ership	-7604
minute	-7605
nament	-7606
ocracy	-7607
oughed	-7608
ricane	-7609
sticks	-7610
▁10:00	-7611
▁1939.	-7612
▁Above	-7613
▁Catch	-7614
▁Crime	-7615
▁Filip	-7616
▁Knock	-7617
▁Queen	-7618
▁River	-7619
▁Roger	-7620
▁Roose	-7621
▁Seven	-7622
▁Smell	-7623
▁Taste	-7624
▁Tears	-7625
▁Times	-7626
▁Under	-7627
▁Until	-7628
▁alley	-7629
▁arrog	-7630
▁banks	-7631
▁basic	-7632
▁basis	-7633
▁beers	-7634
▁benef	-7635
▁blown	-7636
▁boils	-7637
▁brake	-7638
▁carol	-7639
▁chain	-7640
▁cured	-7641
▁discl	-7642
▁fails	-7643
▁films	-7644
▁flies	-7645
▁flock	-7646
▁focus	-7647
▁greed	-7648
▁handc	-7649
▁humid	-7650
▁lands	-7651
▁leaks	-7652
▁logic	-7653
▁meets	-7654
▁minds	-7655
▁prett	-7656
▁prior	-7657
▁quant	-7658
▁restr	-7659
▁rings	-7660
▁ruled	-7661
▁sauce	-7662
▁shown	-7663
▁signs	-7664
▁skept	-7665
▁slipp	-7666
▁stead	-7667
▁tasty	-7668
▁teles	-7669
▁tests	-7670
▁trade	-7671
▁virus	-7672
▁weeds	-7673
▁wreck	-7674
▁yield	-7675
assador	-7676
lexible	-7677
mission	-7678
onsible	-7679
umbling	-7680
umerous	-7681
▁10,000	-7682
▁Always	-7683
▁Asians	-7684
▁Better	-7685
▁Cookie	-7686
▁During	-7687
▁Eating	-7688
▁Hilton	-7689
▁Little	-7690
▁Miller	-7691
▁Nether	-7692
▁Pardon	-7693
▁Toyota	-7694
▁Venice	-7695
▁adores	-7696
▁appeal	-7697
▁archae	-7698
▁attrib	-7699
▁bakery	-7700
▁banker	-7701
▁barked	-7702
▁belief	-7703
▁boasts	-7704
▁carbon	-7705
▁cotton	-7706
▁cradle	-7707
▁create	-7708
▁deceit	-7709
▁dialed	-7710
▁duties	-7711
▁ending	-7712
▁errand	-7713
▁fatter	-7714
▁fiddle	-7715
▁flames	-7716
▁formed	-7717
▁garlic	-7718
▁hotter	-7719
▁ironed	-7720
▁irresp	-7721
▁jungle	-7722
▁kitten	-7723
▁ladies	-7724
▁leaped	-7725
▁loaded	-7726
▁magnet	-7727
▁messed	-7728
▁microw	-7729
▁noises	-7730
▁peanut	-7731
▁placed	-7732
▁planes	-7733
▁poorly	-7734
▁prover	-7735
▁quarre	-7736
▁racist	-7737
▁reform	-7738
▁ribbon	-7739
▁risked	-7740
▁satell	-7741
▁scraps	-7742
▁secure	-7743
▁shadow	-7744
▁slices	-7745
▁smoked	-7746
▁sneeze	-7747
▁sorrow	-7748
▁spying	-7749
▁stinks	-7750
▁stream	-7751
▁temple	-7752
▁tomato	-7753
▁troops	-7754
▁untied	-7755
▁vacuum	-7756
▁valley	-7757
▁virtue	-7758
▁wisdom	-7759
▁worthy	-7760
asculine	-7761
ccessful	-7762
uttering	-7763
▁Airport	-7764
▁Britain	-7765
▁Control	-7766
▁Despite	-7767
▁Hunting	-7768
▁Illness	-7769
▁Luckily	-7770
▁Nations	-7771
▁Oranges	-7772
▁actions	-7773
▁adapted	-7774
▁airmail	-7775
▁amateur	-7776
▁awfully	-7777
▁backing	-7778
▁bargain	-7779
▁bathing	-7780
▁carpent	-7781
▁chatted	-7782
▁compete	-7783
▁cowards	-7784
▁crushed	-7785
▁deepest	-7786
▁delight	-7787
▁drivers	-7788
▁farmers	-7789
▁farther	-7790
▁forgave	-7791
▁founded	-7792
▁freezes	-7793
▁handbag	-7794
▁healthi	-7795
▁imposed	-7796
▁install	-7797
▁instant	-7798
▁intends	-7799
▁invaded	-7800
▁lettuce	-7801
▁mankind	-7802
▁measure	-7803
▁microsc	-7804
▁monster	-7805
▁natives	-7806
▁outcome	-7807
▁partner	-7808
▁passage	-7809
▁peeling	-7810
▁perhaps	-7811
▁plugged	-7812
▁produce	-7813
▁pulling	-7814
▁rabbits	-7815
▁receipt	-7816
▁refrain	-7817
▁reports	-7818
▁sailing	-7819
▁scandal	-7820
▁schools	-7821
▁seasons	-7822
▁shaving	-7823
▁snoring	-7824
▁snowman	-7825
▁sounded	-7826
▁stadium	-7827
▁ticking	-7828
▁tobacco	-7829
ibilities	-7830
riculture	-7831
▁Filipino	-7832
▁Portugal	-7833
▁accurate	-7834
▁adjusted	-7835
▁affected	-7836
▁calendar	-7837
▁captured	-7838
▁champion	-7839
▁childish	-7840
▁competed	-7841
▁contempt	-7842
▁deadline	-7843
▁disguise	-7844
▁doorbell	-7845
▁educated	-7846
▁employed	-7847
▁fountain	-7848
▁gardener	-7849
▁humanity	-7850
▁industry	-7851
▁inspired	-7852
▁magician	-7853
▁marrying	-7854
▁pancakes	-7855
▁physical	-7856
▁pickpock	-7857
▁planting	-7858
▁platform	-7859
▁previous	-7860
▁recovery	-7861
▁refugees	-7862
▁resulted	-7863
▁sickness	-7864
▁snuggled	-7865
▁software	-7866
▁speakers	-7867
▁specific	-7868
▁stranded	-7869
▁strongly	-7870
▁struggle	-7871
▁survivor	-7872
▁vanished	-7873
▁watermel	-7874
▁Accidents	-7875
▁Hiroshima	-7876
▁Lightning	-7877
▁Obviously	-7878
▁Roosevelt	-7879
▁accepting	-7880
▁acknowled	-7881
▁alcoholic	-7882
▁batteries	-7883
▁blackmail	-7884
▁candidate	-7885
▁criticism	-7886
▁dedicated	-7887
▁deposited	-7888
▁dishonest	-7889
▁disturbed	-7890
▁economics	-7891
▁efficient	-7892
▁exercises	-7893
▁factories	-7894
▁including	-7895
▁increased	-7896
▁instantly	-7897
▁negotiate	-7898
▁objection	-7899
▁objective	-7900
▁predicted	-7901
▁promising	-7902
▁realistic	-7903
▁requested	-7904
▁responded	-7905
▁returning	-7906
▁shoulders	-7907
▁signature	-7908
▁squeaking	-7909
▁surprises	-7910
▁teenagers	-7911
▁telescope	-7912
▁thousands	-7913
▁travelers	-7914
▁villagers	-7915
▁worthless	-7916
▁Apparently	-7917
▁Australian	-7918
▁Christians	-7919
▁accountant	-7920
▁babysitter	-7921
▁characters	-7922
▁chocolates	-7923
▁chopsticks	-7924
▁colleagues	-7925
▁hamburgers	-7926
▁investment	-7927
▁irrelevant	-7928
▁meditating	-7929
▁obligation	-7930
▁philosophy	-7931
▁regardless	-7932
▁relatively	-7933
▁speechless	-7934
▁sunbathing	-7935
▁throughout	-7936
▁tournament	-7937
▁translator	-7938
▁unattended	-7939
▁unbearable	-7940
▁Netherlands	-7941
▁anticipated	-7942
▁cooperation	-7943
▁inhabitants	-7944
▁nationality	-7945
▁necessarily	-7946
▁photographs	-7947
▁significant	-7948
▁carelessness	-7949
▁dictionaries	-7950
▁exhilarating	-7951
▁housesitting	-7952
▁intersection	-7953
▁psychiatrist	-7954
▁unsuccessful	-7955
▁approximately	-7956
▁communication	-7957
▁irresponsible	-7958
▁pronunciation	-7959
▁questionnaire	-7960
▁disappointment	-7961
▁representative	-7962
20	-7963
DS	-7964
NA	-7965
hj	-7966
ta	-7967
500	-7968
Tom	-7969
acu	-7970
bor	-7971
chi	-7972
cod	-7973
dka	-7974
eat	-7975
eed	-7976
eer	-7977
ern	-7978
gin	-7979
gun	-7980
hic	-7981
hik	-7982
ien	-7983
inc	-7984
iro	-7985
isc	-7986
iti	-7987
juk	-7988
oal	-7989
ode	-7990
put	-7991
rid	-7992
uba	-7993
was	-7994
zes	-7995
▁$3	-7996
▁54	-7997
▁60	-7998
▁AI	-7999
▁Bi	-8000
▁Ed	-8001
▁Ma	-8002
▁Mc	-8003
▁Sa	-8004
▁uk	-8005
▁vi	-8006
aine	-8007
alog	-8008
ania	-8009
anic	-8010
arse	-8011
avor	-8012
bble	-8013
bled	-8014
brow	-8015
dict	-8016
eapp	-8017
fume	-8018
harm	-8019
hold	-8020
icit	-8021
iens	-8022
iety	-8023
ilig	-8024
ille	-8025
juku	-8026
mark	-8027
mers	-8028
oons	-8029
oppy	-8030
oral	-8031
orse	-8032
oser	-8033
resa	-8034
seas	-8035
urbs	-8036
▁150	-8037
▁400	-8038
▁Att	-8039
▁Bew	-8040
▁Bur	-8041
▁Car	-8042
▁Cha	-8043
▁Cop	-8044
▁DNA	-8045
▁Dar	-8046
▁Edu	-8047
▁Fam	-8048
▁Mic	-8049
▁Mus	-8050
▁Pal	-8051
▁Pre	-8052
▁Sil	-8053
▁Swe	-8054
▁Tit	-8055
▁USA	-8056
▁ade	-8057
▁bre	-8058
▁fra	-8059
▁fry	-8060
▁len	-8061
▁net	-8062
▁oak	-8063
▁que	-8064
▁sam	-8065
▁sch	-8066
▁sen	-8067
▁syn	-8068
▁tag	-8069
▁tum	-8070
▁ups	-8071
▁wig	-8072
▁yog	-8073
abies	-8074
acked	-8075
aders	-8076
agedy	-8077
aging	-8078
amped	-8079
apore	-8080
aters	-8081
backs	-8082
brows	-8083
dress	-8084
emned	-8085
eness	-8086
etent	-8087
grand	-8088
great	-8089
hjong	-8090
ipper	-8091
itter	-8092
ivery	-8093
olite	-8094
olved	-8095
oning	-8096
order	-8097
owers	-8098
piece	-8099
plain	-8100
proof	-8101
react	-8102
rover	-8103
sized	-8104
teria	-8105
ulele	-8106
ustle	-8107
venir	-8108
works	-8109
▁Back	-8110
▁Beat	-8111
▁Calm	-8112
▁Exam	-8113
▁Hong	-8114
▁Kong	-8115
▁Over	-8116
▁Pick	-8117
▁Roll	-8118
▁Stir	-8119
▁Then	-8120
▁Very	-8121
▁Viet	-8122
▁Wall	-8123
▁ache	-8124
▁agon	-8125
▁alto	-8126
▁ants	-8127
▁bone	-8128
▁bulb	-8129
▁chin	-8130
▁diab	-8131
▁dice	-8132
▁disk	-8133
▁flaw	-8134
▁gull	-8135
▁hack	-8136
▁hens	-8137
▁inqu	-8138
▁intr	-8139
▁itch	-8140
▁merc	-8141
▁mult	-8142
▁pand	-8143
▁peas	-8144
▁pies	-8145
▁pigs	-8146
▁prim	-8147
▁rats	-8148
▁rehe	-8149
▁ripe	-8150
▁role	-8151
▁rust	-8152
▁slip	-8153
▁tort	-8154
▁tuna	-8155
▁urge	-8156
▁ware	-8157
abouts	-8158
allows	-8159
alyzed	-8160
apable	-8161
arison	-8162
astrop	-8163
atical	-8164
ceeded	-8165
coming	-8166
ercise	-8167
hibits	-8168
icking	-8169
icycle	-8170
ioneer	-8171
lights	-8172
phants	-8173
screen	-8174
urable	-8175
witted	-8176
▁1945.	-8177
▁6:30.	-8178
▁Breat	-8179
▁Buddh	-8180
▁Civil	-8181
▁Doing	-8182
▁Elect	-8183
▁Empty	-8184
▁Fight	-8185
▁Forty	-8186
▁Hello	-8187
▁Seize	-8188
▁Shake	-8189
▁Share	-8190
▁Sleep	-8191
▁Small	-8192
▁Smith	-8193
▁Texas	-8194
▁Tower	-8195
▁Yours	-8196
▁accum	-8197
▁backs	-8198
▁bless	-8199
▁cling	-8200
▁coast	-8201
▁crane	-8202
▁crawl	-8203
▁cubes	-8204
▁devil	-8205
▁disgr	-8206
▁downs	-8207
▁dread	-8208
▁eater	-8209
▁evacu	-8210
▁exped	-8211
▁faced	-8212
▁float	-8213
▁froze	-8214
▁gazed	-8215
▁grace	-8216
▁gross	-8217
▁guest	-8218
▁guilt	-8219
▁hypoc	-8220
▁ideal	-8221
▁kites	-8222
▁liver	-8223
▁loser	-8224
▁lungs	-8225
▁manip	-8226
▁miner	-8227
▁miser	-8228
▁pairs	-8229
▁penny	-8230
▁pesos	-8231
▁pharm	-8232
▁porch	-8233
▁print	-8234
▁recon	-8235
▁revol	-8236
▁roast	-8237
▁robot	-8238
▁sympt	-8239
▁tires	-8240
▁trips	-8241
▁types	-8242
▁vodka	-8243
▁votes	-8244
▁waves	-8245
▁wrink	-8246
▁wrist	-8247
aughter	-8248
ethical	-8249
fashion	-8250
ificial	-8251
inarian	-8252
inished	-8253
▁Anyway	-8254
▁Beware	-8255
▁Comput	-8256
▁Easter	-8257
▁Ignore	-8258
▁Living	-8259
▁Palace	-8260
▁Poland	-8261
▁Second	-8262
▁Serbia	-8263
▁Street	-8264
▁Sweden	-8265
▁Teresa	-8266
▁Wouldn	-8267
▁abused	-8268
▁agency	-8269
▁aliens	-8270
▁allows	-8271
▁astute	-8272
▁attach	-8273
▁banned	-8274
▁beggar	-8275
▁blocks	-8276
▁braces	-8277
▁breeds	-8278
▁burden	-8279
▁calmed	-8280
▁choked	-8281
▁counts	-8282
▁creepy	-8283
▁defect	-8284
▁eavesd	-8285
▁eighth	-8286
▁equals	-8287
▁fasten	-8288
▁fields	-8289
▁fixing	-8290
▁flavor	-8291
▁floors	-8292
▁formal	-8293
▁golfer	-8294
▁greedy	-8295
▁growth	-8296
▁humans	-8297
▁incomp	-8298
▁ingred	-8299
▁injury	-8300
▁kisser	-8301
▁knives	-8302
▁licked	-8303
▁madman	-8304
▁mechan	-8305
▁milder	-8306
▁modest	-8307
▁nights	-8308
▁notify	-8309
▁option	-8310
▁owners	-8311
▁parade	-8312
▁parcel	-8313
▁pardon	-8314
▁parent	-8315
▁passes	-8316
▁pearls	-8317
▁phrase	-8318
▁plague	-8319
▁profit	-8320
▁rebell	-8321
▁recall	-8322
▁refres	-8323
▁rivers	-8324
▁rubber	-8325
▁runner	-8326
▁serves	-8327
▁shiver	-8328
▁sloppy	-8329
▁soaked	-8330
▁softly	-8331
▁splend	-8332
▁spouse	-8333
▁territ	-8334
▁undone	-8335
▁unique	-8336
▁voting	-8337
▁whales	-8338
inosaurs	-8339
ulations	-8340
▁Belgium	-8341
▁Central	-8342
▁Contact	-8343
▁Correct	-8344
▁Explain	-8345
▁Germans	-8346
▁Indians	-8347
▁Promise	-8348
▁Science	-8349
▁Swedish	-8350
▁Twitter	-8351
▁Vietnam	-8352
▁athlete	-8353
▁balloon	-8354
▁bandage	-8355
▁banging	-8356
▁behaves	-8357
▁causing	-8358
▁cleaner	-8359
▁clients	-8360
▁compass	-8361
▁coughed	-8362
▁cricket	-8363
▁damages	-8364
▁decreas	-8365
▁desires	-8366
▁devious	-8367
▁discrim	-8368
▁donated	-8369
▁drastic	-8370
▁effects	-8371
▁evident	-8372
▁excuses	-8373
▁extinct	-8374
▁feather	-8375
▁flipped	-8376
▁flooded	-8377
▁folding	-8378
▁fulfill	-8379
▁guesses	-8380
▁handful	-8381
▁happily	-8382
▁humming	-8383
▁include	-8384
▁indoors	-8385
▁justice	-8386
▁leading	-8387
▁letting	-8388
▁lowered	-8389
▁mahjong	-8390
▁mailman	-8391
▁monkeys	-8392
▁museums	-8393
▁objects	-8394
▁observe	-8395
▁packing	-8396
▁perfume	-8397
▁pigeons	-8398
▁pineapp	-8399
▁prescri	-8400
▁printed	-8401
▁profile	-8402
▁proverb	-8403
▁rainbow	-8404
▁routine	-8405
▁slavery	-8406
▁slumped	-8407
▁species	-8408
▁squeeze	-8409
▁stalled	-8410
▁starved	-8411
▁stifled	-8412
▁strings	-8413
▁suburbs	-8414
▁sucking	-8415
▁suffers	-8416
▁sunburn	-8417
▁tighten	-8418
▁towards	-8419
▁tragedy	-8420
▁ukulele	-8421
▁uncanny	-8422
▁vanilla	-8423
▁verdict	-8424
▁wonders	-8425
fashioned	-8426
▁Atlantic	-8427
▁European	-8428
▁Exercise	-8429
▁adequate	-8430
▁ambition	-8431
▁appalled	-8432
▁approval	-8433
▁arrogant	-8434
▁bothered	-8435
▁burglary	-8436
▁channels	-8437
▁checking	-8438
▁chickens	-8439
▁contrary	-8440
▁cultural	-8441
▁deceased	-8442
▁diabetic	-8443
▁disgusts	-8444
▁dreadful	-8445
▁dripping	-8446
▁earrings	-8447
▁emotions	-8448
▁eyebrows	-8449
▁flirting	-8450
▁handcuff	-8451
▁homeless	-8452
▁hydrogen	-8453
▁identity	-8454
▁ignoring	-8455
▁illusion	-8456
▁immature	-8457
▁impolite	-8458
▁included	-8459
▁invaders	-8460
▁lemonade	-8461
▁machines	-8462
▁military	-8463
▁monument	-8464
▁numerous	-8465
▁observed	-8466
▁overcome	-8467
▁overseas	-8468
▁panicked	-8469
▁parallel	-8470
▁peaceful	-8471
▁poisoned	-8472
▁polluted	-8473
▁postcard	-8474
▁quantity	-8475
▁rational	-8476
▁reaction	-8477
▁replaced	-8478
▁required	-8479
▁sensible	-8480
▁silently	-8481
▁souvenir	-8482
▁stalling	-8483
▁stressed	-8484
▁strictly	-8485
▁superior	-8486
▁swimsuit	-8487
▁switched	-8488
▁unbeliev	-8489
▁weakness	-8490
▁whistled	-8491
▁Breakfast	-8492
▁Elephants	-8493
▁Happiness	-8494
▁Saturdays	-8495
▁Singapore	-8496
▁abolished	-8497
▁affection	-8498
▁announcer	-8499
▁arguments	-8500
▁assembled	-8501
▁astronomy	-8502
▁catastrop	-8503
▁commander	-8504
▁condemned	-8505
▁convicted	-8506
▁criticize	-8507
▁deceitful	-8508
▁decorated	-8509
▁demanding	-8510
▁developed	-8511
▁earphones	-8512
▁easygoing	-8513
▁elephants	-8514
▁emotional	-8515
▁gentlemen	-8516
▁groceries	-8517
▁hairdress	-8518
▁hurricane	-8519
▁incapable	-8520
▁intrigued	-8521
▁masculine	-8522
▁microwave	-8523
▁motivated	-8524
▁mysteries	-8525
▁neglected	-8526
▁offensive	-8527
▁overreact	-8528
▁poisonous	-8529
▁potential	-8530
▁preferred	-8531
▁railroads	-8532
▁recession	-8533
▁religious	-8534
▁sacrifice	-8535
▁screaming	-8536
▁skeptical	-8537
▁strangely	-8538
▁stressful	-8539
▁strongest	-8540
▁sunscreen	-8541
▁warehouse	-8542
▁whistling	-8543
▁witnessed	-8544
▁Englishman	-8545
▁activities	-8546
▁altogether	-8547
▁ambassador	-8548
▁appetizing	-8549
▁astonished	-8550
▁background	-8551
▁bankruptcy	-8552
▁belongings	-8553
▁cautiously	-8554
▁comparison	-8555
▁connection	-8556
▁conscience	-8557
▁controvers	-8558
▁decorating	-8559
▁democratic	-8560
▁diplomatic	-8561
▁exaggerate	-8562
▁exceptions	-8563
▁expedition	-8564
▁frustrated	-8565
▁hesitation	-8566
▁immigrants	-8567
▁impressive	-8568
▁kidnappers	-8569
▁medication	-8570
▁microscope	-8571
▁questioned	-8572
▁reflection	-8573
▁scientific	-8574
▁scientists	-8575
▁separately	-8576
▁volunteers	-8577
▁wheelchair	-8578
▁accumulated	-8579
▁blackmailed	-8580
▁cockroaches	-8581
▁differences	-8582
▁discouraged	-8583
▁experienced	-8584
▁grammatical	-8585
▁incompetent	-8586
▁inspiration	-8587
▁masterpiece	-8588
▁resignation	-8589
▁traditional	-8590
▁whereabouts	-8591
▁acknowledged	-8592
▁fingerprints	-8593
▁occasionally	-8594
▁organization	-8595
▁participated	-8596
▁veterinarian	-8597
▁archaeologist	-8598
▁concentrating	-8599
▁intentionally	-8600
▁investigation	-8601
".	-8602
%.	-8603
jo	-8604
tr	-8605
Let	-8606
aki	-8607
ali	-8608
amb	-8609
bes	-8610
bul	-8611
dam	-8612
edo	-8613
few	-8614
ggy	-8615
hol	-8616
hor	-8617
iam	-8618
ica	-8619
icc	-8620
idy	-8621
igs	-8622
imp	-8623
ims	-8624
ips	-8625
lam	-8626
lif	-8627
lor	-8628
mes	-8629
obb	-8630
ogy	-8631
ola	-8632
oli	-8633
ris	-8634
roe	-8635
sal	-8636
ste	-8637
ula	-8638
win	-8639
▁22	-8640
▁3.	-8641
▁35	-8642
▁70	-8643
▁Ak	-8644
▁El	-8645
▁Ev	-8646
▁Fa	-8647
▁Ge	-8648
▁Gl	-8649
▁Im	-8650
▁Ir	-8651
▁Ph	-8652
▁Po	-8653
▁Pr	-8654
▁ax	-8655
▁dw	-8656
▁ut	-8657
,500	-8658
That	-8659
abor	-8660
agle	-8661
agne	-8662
alty	-8663
anji	-8664
apor	-8665
ares	-8666
ario	-8667
atis	-8668
bows	-8669
bras	-8670
brew	-8671
bted	-8672
cest	-8673
cipl	-8674
cott	-8675
esar	-8676
etho	-8677
fish	-8678
free	-8679
gged	-8680
gled	-8681
hole	-8682
inet	-8683
inge	-8684
isen	-8685
istr	-8686
itty	-8687
just	-8688
keep	-8689
keys	-8690
lers	-8691
like	-8692
lish	-8693
name	-8694
nuts	-8695
oids	-8696
oped	-8697
opin	-8698
page	-8699
park	-8700
pler	-8701
quil	-8702
rise	-8703
sion	-8704
stan	-8705
term	-8706
text	-8707
ties	-8708
udge	-8709
uise	-8710
ushu	-8711
wife	-8712
▁191	-8713
▁Aim	-8714
▁Art	-8715
▁Aut	-8716
▁Bad	-8717
▁Bes	-8718
▁Bul	-8719
▁Bun	-8720
▁Den	-8721
▁Des	-8722
▁Det	-8723
▁Due	-8724
▁Exp	-8725
▁Fat	-8726
▁Gir	-8727
▁Hak	-8728
▁Ham	-8729
▁Ken	-8730
▁Lad	-8731
▁Lie	-8732
▁Mad	-8733
▁Mos	-8734
▁Nap	-8735
▁Oil	-8736
▁Out	-8737
▁Sen	-8738
▁Sho	-8739
▁Ski	-8740
▁Squ	-8741
▁Tie	-8742
▁Too	-8743
▁Wha	-8744
▁alt	-8745
▁apt	-8746
▁bod	-8747
▁bug	-8748
▁bun	-8749
▁cyn	-8750
▁fax	-8751
▁gal	-8752
▁jay	-8753
▁mer	-8754
▁mow	-8755
▁nun	-8756
▁nut	-8757
▁ome	-8758
▁pip	-8759
▁pup	-8760
▁rhy	-8761
▁rud	-8762
▁sax	-8763
▁tux	-8764
▁vul	-8765
▁wax	-8766
abled	-8767
arrot	-8768
arten	-8769
ategy	-8770
ccoli	-8771
cloth	-8772
cohol	-8773
dream	-8774
eight	-8775
essim	-8776
estic	-8777
ienna	-8778
ighed	-8779
ilant	-8780
incts	-8781
inent	-8782
ishes	-8783
istan	-8784
lines	-8785
mares	-8786
metic	-8787
oleon	-8788
orous	-8789
oxide	-8790
point	-8791
ptied	-8792
reasy	-8793
uctor	-8794
▁$300	-8795
▁8:00	-8796
▁AIDS	-8797
▁Alex	-8798
▁Biwa	-8799
▁Chan	-8800
▁City	-8801
▁Cong	-8802
▁Corn	-8803
▁Foot	-8804
▁Ford	-8805
▁Hide	-8806
▁Merc	-8807
▁Milk	-8808
▁Mine	-8809
▁Musl	-8810
▁Nile	-8811
▁Okin	-8812
▁Owls	-8813
▁Pain	-8814
▁Peru	-8815
▁Pole	-8816
▁Rain	-8817
▁Rats	-8818
▁Sapp	-8819
▁Sold	-8820
▁Warn	-8821
▁Wood	-8822
▁abst	-8823
▁bart	-8824
▁bias	-8825
▁blog	-8826
▁bury	-8827
▁cafe	-8828
▁calc	-8829
▁chol	-8830
▁code	-8831
▁cope	-8832
▁corn	-8833
▁dign	-8834
▁dorm	-8835
▁drum	-8836
▁erup	-8837
▁fist	-8838
▁folk	-8839
▁heir	-8840
▁hicc	-8841
▁hunt	-8842
▁inch	-8843
▁init	-8844
▁knit	-8845
▁mice	-8846
▁mini	-8847
▁mixt	-8848
▁mole	-8849
▁nick	-8850
▁nude	-8851
▁odds	-8852
▁pepp	-8853
▁rung	-8854
▁scat	-8855
▁sigh	-8856
▁site	-8857
▁slap	-8858
▁smir	-8859
▁sole	-8860
▁sout	-8861
▁sued	-8862
▁torn	-8863
▁tube	-8864
▁unac	-8865
▁vibr	-8866
▁wage	-8867
▁wars	-8868
▁weep	-8869
▁wool	-8870
Donald	-8871
alogue	-8872
ending	-8873
essive	-8874
ferior	-8875
iberty	-8876
igning	-8877
imated	-8878
intend	-8879
ipping	-8880
isible	-8881
issant	-8882
judged	-8883
obbish	-8884
ocated	-8885
ometer	-8886
oodles	-8887
oosing	-8888
ophone	-8889
pering	-8890
redded	-8891
teenth	-8892
tering	-8893
uction	-8894
washer	-8895
▁1972.	-8896
▁1980.	-8897
▁3,000	-8898
▁Among	-8899
▁Bears	-8900
▁Cheer	-8901
▁Daddy	-8902
▁Death	-8903
▁Exper	-8904
▁Faith	-8905
▁Flash	-8906
▁Green	-8907
▁Islam	-8908
▁Party	-8909
▁Right	-8910
▁Steel	-8911
▁Trust	-8912
▁Words	-8913
▁admin	-8914
▁admir	-8915
▁ambig	-8916
▁ambit	-8917
▁await	-8918
▁bakes	-8919
▁banjo	-8920
▁barbe	-8921
▁barks	-8922
▁beats	-8923
▁belts	-8924
▁bleed	-8925
▁bloss	-8926
▁boats	-8927
▁bores	-8928
▁brass	-8929
▁brill	-8930
▁broch	-8931
▁canoe	-8932
▁cello	-8933
▁chase	-8934
▁chips	-8935
▁clerk	-8936
▁clown	-8937
▁cries	-8938
▁curry	-8939
▁curse	-8940
▁dilig	-8941
▁dozed	-8942
▁drain	-8943
▁drawn	-8944
▁drums	-8945
▁eagle	-8946
▁equiv	-8947
▁fairy	-8948
▁fears	-8949
▁fined	-8950
▁fires	-8951
▁foxes	-8952
▁frank	-8953
▁fries	-8954
▁gorge	-8955
▁grief	-8956
▁grind	-8957
▁hangs	-8958
▁heels	-8959
▁hilar	-8960
▁items	-8961
▁kanji	-8962
▁knelt	-8963
▁labor	-8964
▁marsh	-8965
▁meter	-8966
▁moral	-8967
▁moves	-8968
▁muddy	-8969
▁nerve	-8970
▁newly	-8971
▁niece	-8972
▁orbit	-8973
▁orche	-8974
▁overd	-8975
▁renew	-8976
▁route	-8977
▁saves	-8978
▁scale	-8979
▁shack	-8980
▁shark	-8981
▁shore	-8982
▁skysc	-8983
▁sniff	-8984
▁snore	-8985
▁solar	-8986
▁spect	-8987
▁squir	-8988
▁staff	-8989
▁steam	-8990
▁swine	-8991
▁sworn	-8992
▁tango	-8993
▁taxis	-8994
▁tract	-8995
▁tribe	-8996
▁tumor	-8997
▁tunes	-8998
▁twent	-8999
▁urban	-9000
▁views	-9001
▁wages	-9002
▁whirl	-9003
▁widow	-9004
▁witch	-9005
▁witty	-9006
▁wives	-9007
▁wrung	-9008
ability	-9009
autions	-9010
bedroom	-9011
ception	-9012
covered	-9013
ganized	-9014
gentina	-9015
ificent	-9016
incible	-9017
iskirts	-9018
loading	-9019
ractive	-9020
ression	-9021
smoking	-9022
uggling	-9023
visions	-9024
▁Apples	-9025
▁Butter	-9026
▁Chopin	-9027
▁Darwin	-9028
▁Edison	-9029
▁Hebrew	-9030
▁Indust	-9031
▁Invest	-9032
▁Kyushu	-9033
▁Leaves	-9034
▁Monroe	-9035
▁Nature	-9036
▁Norway	-9037
▁Polish	-9038
▁Sooner	-9039
▁Statue	-9040
▁Vienna	-9041
▁Whales	-9042
▁accord	-9043
▁ancest	-9044
▁anchor	-9045
▁backup	-9046
▁beaten	-9047
▁behalf	-9048
▁bushes	-9049
▁calmly	-9050
▁campus	-9051
▁circus	-9052
▁clocks	-9053
▁creeps	-9054
▁crimes	-9055
▁curfew	-9056
▁dances	-9057
▁donate	-9058
▁dragon	-9059
▁elbows	-9060
▁emails	-9061
▁events	-9062
▁export	-9063
▁expose	-9064
▁extend	-9065
▁fights	-9066
▁fruits	-9067
▁frying	-9068
▁gladly	-9069
▁greasy	-9070
▁guards	-9071
▁heated	-9072
▁heaven	-9073
▁histor	-9074
▁hunted	-9075
▁hyster	-9076
▁judged	-9077
▁killer	-9078
▁length	-9079
▁lenses	-9080
▁locker	-9081
▁mainly	-9082
▁manner	-9083
▁margar	-9084
▁nicely	-9085
▁omelet	-9086
▁overfl	-9087
▁overhe	-9088
▁owning	-9089
▁parrot	-9090
▁pastry	-9091
▁peeled	-9092
▁pessim	-9093
▁pigeon	-9094
▁pizzas	-9095
▁prejud	-9096
▁proven	-9097
▁proves	-9098
▁resume	-9099
▁ripped	-9100
▁sealed	-9101
▁seller	-9102
▁shares	-9103
▁sprang	-9104
▁starve	-9105
▁steady	-9106
▁sticks	-9107
▁stroke	-9108
▁teased	-9109
▁tender	-9110
▁thesis	-9111
▁tiring	-9112
▁topics	-9113
▁trusts	-9114
▁tuxedo	-9115
▁united	-9116
▁waking	-9117
▁warmed	-9118
▁whisky	-9119
▁wicked	-9120
▁winked	-9121
▁wisely	-9122
▁wounds	-9123
▁zipper	-9124
asonable	-9125
ceptable	-9126
ergarten	-9127
fighting	-9128
ological	-9129
roverted	-9130
▁Ancient	-9131
▁Austria	-9132
▁Besides	-9133
▁Breathe	-9134
▁Charles	-9135
▁Denmark	-9136
▁Driving	-9137
▁Examine	-9138
▁Express	-9139
▁Falling	-9140
▁Foreign	-9141
▁Justice	-9142
▁Liberty	-9143
▁Mercury	-9144
▁Okinawa	-9145
▁Olympic	-9146
▁Sapporo	-9147
▁Silence	-9148
▁Walking	-9149
▁Winning	-9150
▁annoyed	-9151
▁assured	-9152
▁barbers	-9153
▁benefit	-9154
▁blushed	-9155
▁boarded	-9156
▁bothers	-9157
▁boycott	-9158
▁bullets	-9159
▁buttons	-9160
▁carries	-9161
▁confirm	-9162
▁conform	-9163
▁console	-9164
▁copying	-9165
▁crawled	-9166
▁custody	-9167
▁cynical	-9168
▁deliber	-9169
▁deposit	-9170
▁dischar	-9171
▁distant	-9172
▁distrib	-9173
▁doubted	-9174
▁drought	-9175
▁edition	-9176
▁element	-9177
▁emptied	-9178
▁ethical	-9179
▁examine	-9180
▁existed	-9181
▁expires	-9182
▁explore	-9183
▁fiction	-9184
▁figures	-9185
▁filling	-9186
▁fireman	-9187
▁forgets	-9188
▁freaked	-9189
▁gallons	-9190
▁gunfire	-9191
▁gunshot	-9192
▁halfway	-9193
▁hitting	-9194
▁intense	-9195
▁islands	-9196
▁justify	-9197
▁kingdom	-9198
▁liberty	-9199
▁lighter	-9200
▁melting	-9201
▁mixture	-9202
▁pastime	-9203
▁penalty	-9204
▁pierced	-9205
▁pinched	-9206
▁pirates	-9207
▁plucked	-9208
▁plumber	-9209
▁pouring	-9210
▁precise	-9211
▁printer	-9212
▁prosper	-9213
▁rehears	-9214
▁release	-9215
▁reminis	-9216
▁resting	-9217
▁rewrite	-9218
▁robbers	-9219
▁robbery	-9220
▁ruining	-9221
▁scripts	-9222
▁seaside	-9223
▁serving	-9224
▁setting	-9225
▁shotgun	-9226
▁showers	-9227
▁simpler	-9228
▁somehow	-9229
▁sources	-9230
▁spirits	-9231
▁stashed	-9232
▁stretch	-9233
▁sunrise	-9234
▁thinner	-9235
▁trained	-9236
▁undergo	-9237
▁victims	-9238
▁visitor	-9239
▁wanting	-9240
▁western	-9241
▁whiskey	-9242
▁Describe	-9243
▁Language	-9244
▁McDonald	-9245
▁Minister	-9246
▁Napoleon	-9247
▁Olympics	-9248
▁Recently	-9249
▁Republic	-9250
▁Shinjuku	-9251
▁Soldiers	-9252
▁absorbed	-9253
▁acquaint	-9254
▁activity	-9255
▁addition	-9256
▁amounted	-9257
▁armchair	-9258
▁assigned	-9259
▁balanced	-9260
▁basement	-9261
▁bedrooms	-9262
▁belonged	-9263
▁brightly	-9264
▁checkers	-9265
▁choosing	-9266
▁clearing	-9267
▁collapse	-9268
▁composer	-9269
▁concerns	-9270
▁contents	-9271
▁crawling	-9272
▁deciding	-9273
▁decorate	-9274
▁delivery	-9275
▁diligent	-9276
▁disliked	-9277
▁disorder	-9278
▁dolphins	-9279
▁download	-9280
▁earliest	-9281
▁equipped	-9282
▁evacuate	-9283
▁executed	-9284
▁extended	-9285
▁floating	-9286
▁function	-9287
▁gasoline	-9288
▁gorgeous	-9289
▁grandson	-9290
▁gullible	-9291
▁hostages	-9292
▁includes	-9293
▁indebted	-9294
▁inferior	-9295
▁internal	-9296
▁lighting	-9297
▁maintain	-9298
▁meanings	-9299
▁meditate	-9300
▁minerals	-9301
▁minister	-9302
▁nitrogen	-9303
▁northern	-9304
▁organize	-9305
▁overlook	-9306
▁programs	-9307
▁quitting	-9308
▁realizes	-9309
▁regulate	-9310
▁scarcely	-9311
▁scenario	-9312
▁services	-9313
▁shortage	-9314
▁shouting	-9315
▁shredded	-9316
▁shrugged	-9317
▁snobbish	-9318
▁speeding	-9319
▁splashed	-9320
▁splendid	-9321
▁strategy	-9322
▁surround	-9323
▁survival	-9324
▁symptoms	-9325
▁telegram	-9326
▁touching	-9327
▁treating	-9328
▁unicycle	-9329
▁unsolved	-9330
▁vigilant	-9331
▁waitress	-9332
▁watering	-9333
▁Admission	-9334
▁Argentina	-9335
▁Bulgarian	-9336
▁Computers	-9337
▁Dinosaurs	-9338
▁Education	-9339
▁Europeans	-9340
▁Icelandic	-9341
▁admission	-9342
▁allergies	-9343
▁ambitious	-9344
▁apologies	-9345
▁brilliant	-9346
▁butterfly	-9347
▁carpenter	-9348
▁catalogue	-9349
▁colleague	-9350
▁complaint	-9351
▁concluded	-9352
▁confusing	-9353
▁croissant	-9354
▁delighted	-9355
▁encourage	-9356
▁engineers	-9357
▁evolution	-9358
▁fireplace	-9359
▁fireworks	-9360
▁gathering	-9361
▁handcuffs	-9362
▁headaches	-9363
▁healthier	-9364
▁hilarious	-9365
▁hospitals	-9366
▁imaginary	-9367
▁imitating	-9368
▁installed	-9369
▁instincts	-9370
▁invisible	-9371
▁misjudged	-9372
▁muttering	-9373
▁obligated	-9374
▁overnight	-9375
▁protected	-9376
▁religions	-9377
▁scheduled	-9378
▁shivering	-9379
▁stretched	-9380
▁stupidity	-9381
▁supported	-9382
▁suspended	-9383
▁technical	-9384
▁technique	-9385
▁territory	-9386
▁terrorist	-9387
▁testified	-9388
▁universal	-9389
▁witnesses	-9390
grandfather	-9391
▁artificial	-9392
▁candidates	-9393
▁celebrated	-9394
▁challenged	-9395
▁compromise	-9396
▁compulsive	-9397
▁constantly	-9398
▁contradict	-9399
▁contribute	-9400
▁demolished	-9401
▁dishwasher	-9402
▁electrical	-9403
▁enthusiasm	-9404
▁equivalent	-9405
▁headlights	-9406
▁industrial	-9407
▁invincible	-9408
▁mosquitoes	-9409
▁passionate	-9410
▁permitting	-9411
▁prediction	-9412
▁principles	-9413
▁productive	-9414
▁protection	-9415
▁reconsider	-9416
▁responding	-9417
▁scratching	-9418
▁sharpening	-9419
▁strawberry	-9420
▁suggesting	-9421
▁supporters	-9422
▁tablecloth	-9423
▁terrorists	-9424
▁thoroughly	-9425
▁unfinished	-9426
▁watermelon	-9427
▁agriculture	-9428
▁apologizing	-9429
▁businessman	-9430
▁considerate	-9431
▁considering	-9432
▁experiences	-9433
▁forgiveness	-9434
▁hairdresser	-9435
▁hardworking	-9436
▁humiliating	-9437
▁instruments	-9438
▁magnificent	-9439
▁negotiation	-9440
▁patronizing	-9441
▁practically	-9442
▁precautions	-9443
▁suggestions	-9444
▁transferred	-9445
▁architecture	-9446
▁concentrated	-9447
▁confidential	-9448
▁enthusiastic	-9449
▁exaggerating	-9450
▁expectations	-9451
▁extinguished	-9452
▁kindergarten	-9453
▁negotiations	-9454
▁presidential	-9455
▁suspiciously	-9456
▁unacceptable	-9457
▁unattractive	-9458
▁unreasonable	-9459
▁controversial	-9460
▁demonstration	-9461
▁grandchildren	-9462
▁handkerchiefs	-9463
▁materialistic	-9464
▁relationships	-9465
.?	-9466
4,	-9467
9,	-9468
TM	-9469
ae	-9470
ba	-9471
cé	-9472
da	-9473
hu	-9474
ja	-9475
rm	-9476
rs	-9477
su	-9478
ão	-9479
▁'	-9480
Can	-9481
Did	-9482
Get	-9483
Not	-9484
arc	-9485
boy	-9486
cow	-9487
cue	-9488
ena	-9489
ene	-9490
gha	-9491
ida	-9492
ini	-9493
kes	-9494
ley	-9495
och	-9496
oni	-9497
oop	-9498
orp	-9499
ffe	-9500
oya	-9501
que	-9502
tan	-9503
ths	-9504
uan	-9505
uke	-9506
ura	-9507
urb	-9508
uya	-9509
you	-9510
▁28	-9511
▁5.	-9512
▁7.	-9513
▁8.	-9514
▁Hy	-9515
▁Mu	-9516
▁Us	-9517
▁ep	-9518
▁et	-9519
▁hi	-9520
▁ze	-9521
Does	-9522
They	-9523
Tube	-9524
When	-9525
abul	-9526
adem	-9527
affe	-9528
alid	-9529
alls	-9530
aman	-9531
anan	-9532
ancy	-9533
aned	-9534
anky	-9535
arin	-9536
atab	-9537
away	-9538
bler	-9539
cake	-9540
cile	-9541
cled	-9542
days	-9543
eged	-9544
emet	-9545
emor	-9546
enic	-9547
eted	-9548
ghai	-9549
ghan	-9550
give	-9551
hael	-9552
hecy	-9553
hell	-9554
hier	-9555
hies	-9556
idal	-9557
imal	-9558
imet	-9559
imum	-9560
inoc	-9561
inue	-9562
ixon	-9563
izar	-9564
lict	-9565
misp	-9566
mons	-9567
mper	-9568
neum	-9569
nics	-9570
nies	-9571
nish	-9572
oala	-9573
obal	-9574
obey	-9575
olar	-9576
oler	-9577
oles	-9578
omas	-9579
omin	-9580
ommy	-9581
onge	-9582
ooks	-9583
ousy	-9584
pack	-9585
ping	-9586
ples	-9587
rawn	-9588
rels	-9589
robe	-9590
ront	-9591
rous	-9592
sary	-9593
ship	-9594
sive	-9595
star	-9596
stra	-9597
test	-9598
uced	-9599
ugar	-9600
umes	-9601
uros	-9602
wear	-9603
weds	-9604
ylum	-9605
zech	-9606
▁160	-9607
▁186	-9608
▁187	-9609
▁65.	-9610
▁ATM	-9611
▁Ant	-9612
▁Bar	-9613
▁Coc	-9614
▁Com	-9615
▁Cup	-9616
▁Dan	-9617
▁Div	-9618
▁Ein	-9619
▁Est	-9620
▁Far	-9621
▁Fed	-9622
▁Fif	-9623
▁Fig	-9624
▁Gar	-9625
▁Hit	-9626
▁Hon	-9627
▁Int	-9628
▁Law	-9629
▁Lay	-9630
▁Med	-9631
▁Nik	-9632
▁Pan	-9633
▁Pot	-9634
▁Ret	-9635
▁Rev	-9636
▁Sup	-9637
▁São	-9638
▁Ter	-9639
▁Vik	-9640
▁ace	-9641
▁ang	-9642
▁ash	-9643
▁asp	-9644
▁coc	-9645
▁dia	-9646
▁ecc	-9647
▁fab	-9648
▁god	-9649
▁hay	-9650
▁hen	-9651
▁hub	-9652
▁jaw	-9653
▁jit	-9654
▁jun	-9655
▁kar	-9656
▁mal	-9657
▁mug	-9658
▁ove	-9659
▁owl	-9660
▁pac	-9661
▁pad	-9662
▁reb	-9663
▁rip	-9664
▁rut	-9665
▁sop	-9666
▁tab	-9667
▁toe	-9668
▁tuc	-9669
▁ven	-9670
▁ves	-9671
▁via	-9672
,000.	-9673
Could	-9674
andom	-9675
angar	-9676
angle	-9677
antis	-9678
asted	-9679
atory	-9680
aware	-9681
bbing	-9682
blind	-9683
celer	-9684
ckles	-9685
class	-9686
cript	-9687
dreds	-9688
eline	-9689
ertil	-9690
eself	-9691
essed	-9692
esson	-9693
gible	-9694
gment	-9695
hable	-9696
hower	-9697
iancé	-9698
icate	-9699
icill	-9700
idesp	-9701
igsaw	-9702
ijing	-9703
insed	-9704
iries	-9705
maker	-9706
nails	-9707
ommod	-9708
onies	-9709
oshed	-9710
otein	-9711
plant	-9712
ports	-9713
print	-9714
quila	-9715
raham	-9716
reeze	-9717
river	-9718
rough	-9719
roved	-9720
spect	-9721
stein	-9722
table	-9723
toned	-9724
tress	-9725
ufact	-9726
uffle	-9727
umpet	-9728
uries	-9729
usage	-9730
valry	-9731
verse	-9732
watch	-9733
wives	-9734
ywood	-9735
▁1950	-9736
▁3:00	-9737
▁7:00	-9738
▁Army	-9739
▁Bali	-9740
▁Buck	-9741
▁Care	-9742
▁Cels	-9743
▁Chen	-9744
▁Cock	-9745
▁Comm	-9746
▁East	-9747
▁Fear	-9748
▁Jump	-9749
▁Kick	-9750
▁Kiss	-9751
▁Lack	-9752
▁Live	-9753
▁Mand	-9754
▁Mass	-9755
▁Meet	-9756
▁Need	-9757
▁Norm	-9758
▁Pack	-9759
▁Pope	-9760
▁Pret	-9761
▁Push	-9762
▁Resp	-9763
▁Rock	-9764
▁Shan	-9765
▁Shib	-9766
▁Slow	-9767
▁Snow	-9768
▁Teen	-9769
▁Tele	-9770
▁Toss	-9771
▁True	-9772
▁UFOs	-9773
▁Viol	-9774
▁ally	-9775
▁athe	-9776
▁bait	-9777
▁barn	-9778
▁bees	-9779
▁bene	-9780
▁boun	-9781
▁bugs	-9782
▁carn	-9783
▁core	-9784
▁corp	-9785
▁diag	-9786
▁dial	-9787
▁dock	-9788
▁dogh	-9789
▁excl	-9790
▁fans	-9791
▁fare	-9792
▁feat	-9793
▁flab	-9794
▁frow	-9795
▁grie	-9796
▁grin	-9797
▁grip	-9798
▁guts	-9799
▁heed	-9800
▁hell	-9801
▁hood	-9802
▁iPod	-9803
▁kitt	-9804
▁knot	-9805
▁laun	-9806
▁lays	-9807
▁leap	-9808
▁loaf	-9809
▁loos	-9810
▁mour	-9811
▁neut	-9812
▁obsc	-9813
▁peak	-9814
▁plot	-9815
▁prem	-9816
▁pupp	-9817
▁rear	-9818
▁robe	-9819
▁root	-9820
▁sche	-9821
▁skip	-9822
▁skis	-9823
▁soil	-9824
▁ster	-9825
▁sunk	-9826
▁tent	-9827
▁trem	-9828
▁ward	-9829
▁wate	-9830
▁wept	-9831
▁worm	-9832
▁zone	-9833
advant	-9834
ananas	-9835
arilyn	-9836
artial	-9837
ashing	-9838
astern	-9839
barrow	-9840
cedure	-9841
codile	-9842
cooked	-9843
culiar	-9844
ection	-9845
egedly	-9846
entric	-9847
ferent	-9848
hedral	-9849
istent	-9850
lessly	-9851
liness	-9852
mbling	-9853
ogenic	-9854
ogical	-9855
ombone	-9856
ortion	-9857
parked	-9858
ravity	-9859
resist	-9860
rewell	-9861
roatia	-9862
skirts	-9863
tained	-9864
ughter	-9865
undant	-9866
usions	-9867
vation	-9868
▁1960.	-9869
▁1992.	-9870
▁7:00.	-9871
▁7:30.	-9872
▁Apart	-9873
▁Apple	-9874
▁Asian	-9875
▁Blood	-9876
▁Brace	-9877
▁Bread	-9878
▁Build	-9879
▁Canal	-9880
▁Carry	-9881
▁Czech	-9882
▁Eight	-9883
▁Eisen	-9884
▁Games	-9885
▁Girls	-9886
▁House	-9887
▁Human	-9888
▁Irish	-9889
▁Large	-9890
▁Lower	-9891
▁Lunch	-9892
▁Memor	-9893
▁Mommy	-9894
▁Nixon	-9895
▁Obama	-9896
▁Organ	-9897
▁Paulo	-9898
▁Peace	-9899
▁Prime	-9900
▁Quiet	-9901
▁Smoke	-9902
▁State	-9903
▁Stick	-9904
▁Sugar	-9905
▁Swiss	-9906
▁accus	-9907
▁aloof	-9908
▁aloud	-9909
▁analy	-9910
▁angle	-9911
▁bacon	-9912
▁balls	-9913
▁boxer	-9914
▁bumps	-9915
▁cease	-9916
▁cents	-9917
▁chief	-9918
▁cryst	-9919
▁datab	-9920
▁dates	-9921
▁dealt	-9922
▁displ	-9923
▁distr	-9924
▁drops	-9925
▁dwell	-9926
▁emigr	-9927
▁euros	-9928
▁flags	-9929
▁floss	-9930
▁flown	-9931
▁fools	-9932
▁forks	-9933
▁fract	-9934
▁frost	-9935
▁funds	-9936
▁galax	-9937
▁hatch	-9938
▁heads	-9939
▁inapp	-9940
▁insol	-9941
▁intox	-9942
▁itchy	-9943
▁kilos	-9944
▁kneel	-9945
▁koala	-9946
▁label	-9947
▁lasts	-9948
▁liars	-9949
▁lifet	-9950
▁locks	-9951
▁lousy	-9952
▁madly	-9953
▁mercy	-9954
▁moist	-9955
▁natur	-9956
▁needn	-9957
▁palms	-9958
▁pengu	-9959
▁races	-9960
▁rates	-9961
▁rebel	-9962
▁relat	-9963
▁rides	-9964
▁risen	-9965
▁roads	-9966
▁rocks	-9967
▁rolls	-9968
▁rusty	-9969
▁seeds	-9970
▁seize	-9971
▁sewed	-9972
▁shots	-9973
▁slave	-9974
▁sober	-9975
▁stair	-9976
▁steep	-9977
▁subst	-9978
▁surve	-9979
▁symph	-9980
▁tails	-9981
▁tales	-9982
▁tense	-9983
▁tenth	-9984
▁theme	-9985
▁therm	-9986
▁thorn	-9987
▁timid	-9988
▁towns	-9989
▁traps	-9990
▁typos	-9991
▁unbut	-9992
▁unfit	-9993
▁unfor	-9994
▁union	-9995
▁vague	-9996
emetery	-9997
ethoven	-9998
etition	-9999
hearted	-10000
icillin	-10001
imeters	-10002
intendo	-10003
irstyle	-10004
istance	-10005
itement	-10006
ittered	-10007
itution	-10008
mallows	-10009
ography	-10010
parable	-10011
portant	-10012
reeable	-10013
renched	-10014
▁Adjust	-10015
▁Afghan	-10016
▁Autumn	-10017
▁Babies	-10018
▁Cheese	-10019
▁Delete	-10020
▁Divide	-10021
▁Employ	-10022
▁Friend	-10023
▁Hamlet	-10024
▁Horses	-10025
▁Lesson	-10026
▁Madrid	-10027
▁Master	-10028
▁Middle	-10029
▁Moscow	-10030
▁Nagano	-10031
▁Nagoya	-10032
▁Panama	-10033
▁Police	-10034
▁Return	-10035
▁Romans	-10036
▁Seeing	-10037
▁Social	-10038
▁Taking	-10039
▁Thames	-10040
▁Thomas	-10041
▁Twenty	-10042
▁Wolves	-10043
▁actual	-10044
▁annual	-10045
▁appoin	-10046
▁arrows	-10047
▁assass	-10048
▁asylum	-10049
▁babies	-10050
▁backed	-10051
▁ballet	-10052
▁boxing	-10053
▁brandy	-10054
▁breast	-10055
▁breeze	-10056
▁bribes	-10057
▁bubble	-10058
▁bundle	-10059
▁caller	-10060
▁carols	-10061
▁cheers	-10062
▁chewed	-10063
▁chilly	-10064
▁client	-10065
▁colony	-10066
▁combed	-10067
▁covers	-10068
▁cranky	-10069
▁crunch	-10070
▁cutest	-10071
▁deaths	-10072
▁differ	-10073
▁digest	-10074
▁divide	-10075
▁dreamt	-10076
▁favors	-10077
▁fertil	-10078
▁fiancé	-10079
▁filmed	-10080
▁glance	-10081
▁glared	-10082
▁goatee	-10083
▁hanged	-10084
▁harass	-10085
▁harbor	-10086
▁heartb	-10087
▁hectic	-10088
▁hollow	-10089
▁hustle	-10090
▁indeed	-10091
▁indisp	-10092
▁jigsaw	-10093
▁joints	-10094
▁junior	-10095
▁kangar	-10096
▁karate	-10097
▁kettle	-10098
▁kindly	-10099
▁lazier	-10100
▁learns	-10101
▁legend	-10102
▁lemons	-10103
▁liquid	-10104
▁mammal	-10105
▁mature	-10106
▁mental	-10107
▁merely	-10108
▁mostly	-10109
▁mutual	-10110
▁opener	-10111
▁oppose	-10112
▁partly	-10113
▁phones	-10114
▁pilots	-10115
▁pirate	-10116
▁pledge	-10117
▁poetry	-10118
▁polish	-10119
▁posted	-10120
▁praise	-10121
▁prepar	-10122
▁purple	-10123
▁random	-10124
▁refurb	-10125
▁relied	-10126
▁review	-10127
▁rinsed	-10128
▁robots	-10129
▁roller	-10130
▁sacred	-10131
▁sample	-10132
▁senior	-10133
▁series	-10134
▁server	-10135
▁signal	-10136
▁skelet	-10137
▁slaves	-10138
▁southe	-10139
▁spaces	-10140
▁specul	-10141
▁sponge	-10142
▁stains	-10143
▁steals	-10144
▁stored	-10145
▁storms	-10146
▁streak	-10147
▁struct	-10148
▁submit	-10149
▁summit	-10150
▁suntan	-10151
▁surely	-10152
▁surged	-10153
▁therap	-10154
▁ticked	-10155
▁tracks	-10156
▁trophy	-10157
▁typing	-10158
▁untidy	-10159
▁vessel	-10160
▁wheels	-10161
▁widesp	-10162
▁winner	-10163
▁yogurt	-10164
▁zebras	-10165
atisfied	-10166
ferences	-10167
ifferent	-10168
ithmetic	-10169
iversary	-10170
lessness	-10171
misphere	-10172
neumonia	-10173
ordinary	-10174
▁Alcohol	-10175
▁Bananas	-10176
▁Beijing	-10177
▁Celsius	-10178
▁Certain	-10179
▁Croatia	-10180
▁Finding	-10181
▁Forgive	-10182
▁Fridays	-10183
▁Getting	-10184
▁Goodbye	-10185
▁Holland	-10186
▁Kingdom	-10187
▁Leaving	-10188
▁Marilyn	-10189
▁Michael	-10190
▁Respect	-10191
▁Shibuya	-10192
▁Slavery	-10193
▁Station	-10194
▁Staying	-10195
▁Success	-10196
▁Suppose	-10197
▁Titanic	-10198
▁Vikings	-10199
▁Western	-10200
▁Workers	-10201
▁YouTube	-10202
▁absorbs	-10203
▁acceler	-10204
▁admirer	-10205
▁advises	-10206
▁affects	-10207
▁alarmed	-10208
▁attends	-10209
▁auction	-10210
▁battles	-10211
▁beaches	-10212
▁bedtime	-10213
▁begging	-10214
▁blacked	-10215
▁blinded	-10216
▁blondes	-10217
▁botched	-10218
▁bowling	-10219
▁bravely	-10220
▁cabinet	-10221
▁cashier	-10222
▁chained	-10223
▁chapter	-10224
▁chopped	-10225
▁clarify	-10226
▁clogged	-10227
▁conquer	-10228
▁context	-10229
▁corrupt	-10230
▁costume	-10231
▁counted	-10232
▁couples	-10233
▁cutting	-10234
▁debated	-10235
▁decline	-10236
▁deleted	-10237
▁despite	-10238
▁dialect	-10239
▁dieting	-10240
▁differs	-10241
▁dioxide	-10242
▁disobey	-10243
▁dolphin	-10244
▁dreamer	-10245
▁enabled	-10246
▁envious	-10247
▁equator	-10248
▁experts	-10249
▁extract	-10250
▁finance	-10251
▁fingert	-10252
▁freezer	-10253
▁frowned	-10254
▁fumbled	-10255
▁gambler	-10256
▁giraffe	-10257
▁greener	-10258
▁grocery	-10259
▁growled	-10260
▁guitars	-10261
▁hardest	-10262
▁harshly	-10263
▁healing	-10264
▁heights	-10265
▁honored	-10266
▁hottest	-10267
▁intoler	-10268
▁invalid	-10269
▁involve	-10270
▁jaywalk	-10271
▁jittery	-10272
▁joining	-10273
▁kittens	-10274
▁laziest	-10275
▁leaders	-10276
▁leaking	-10277
▁liberal	-10278
▁logical	-10279
▁majored	-10280
▁manages	-10281
▁massage	-10282
▁misfort	-10283
▁morally	-10284
▁mustard	-10285
▁noodles	-10286
▁oneself	-10287
▁organic	-10288
▁outrage	-10289
▁payment	-10290
▁peasant	-10291
▁peppers	-10292
▁picnics	-10293
▁pioneer	-10294
▁proceed	-10295
▁psyched	-10296
▁radical	-10297
▁records	-10298
▁reduced	-10299
▁relieve	-10300
▁replied	-10301
▁resumed	-10302
▁retires	-10303
▁returns	-10304
▁romance	-10305
▁sausage	-10306
▁screams	-10307
▁shuffle	-10308
▁skipped	-10309
▁sleeves	-10310
▁sloshed	-10311
▁smashed	-10312
▁swamped	-10313
▁tequila	-10314
▁tidying	-10315
▁toaster	-10316
▁torture	-10317
▁touches	-10318
▁tractor	-10319
▁tremble	-10320
▁tripped	-10321
▁trumpet	-10322
▁unaware	-10323
▁utterly	-10324
▁watered	-10325
▁webpage	-10326
▁wrapped	-10327
bergasted	-10328
istration	-10329
▁Atlantis	-10330
▁Congress	-10331
▁Continue	-10332
▁Drinking	-10333
▁Einstein	-10334
▁Football	-10335
▁Hundreds	-10336
▁Investig	-10337
▁Mandarin	-10338
▁Memorize	-10339
▁Nintendo	-10340
▁Shanghai	-10341
▁Supplies	-10342
▁Violence	-10343
▁accommod	-10344
▁agonized	-10345
▁applying	-10346
▁assisted	-10347
▁attached	-10348
▁backpack	-10349
▁barbecue	-10350
▁believer	-10351
▁bicycles	-10352
▁blinking	-10353
▁bookkeep	-10354
▁brochure	-10355
▁buttoned	-10356
▁campfire	-10357
▁chapters	-10358
▁clarinet	-10359
▁clinging	-10360
▁comedian	-10361
▁commonly	-10362
▁concerts	-10363
▁conflict	-10364
▁constell	-10365
▁creating	-10366
▁cultures	-10367
▁cutbacks	-10368
▁dangling	-10369
▁database	-10370
▁daydream	-10371
▁defended	-10372
▁discreet	-10373
▁doghouse	-10374
▁domestic	-10375
▁elements	-10376
▁emphasis	-10377
▁enlisted	-10378
▁estimate	-10379
▁examples	-10380
▁exceeded	-10381
▁explains	-10382
▁explored	-10383
▁fabulous	-10384
▁farewell	-10385
▁fastened	-10386
▁fourteen	-10387
▁freckles	-10388
▁frequent	-10389
▁frighten	-10390
▁governed	-10391
▁ignorant	-10392
▁inclined	-10393
▁initials	-10394
▁instinct	-10395
▁invested	-10396
▁irresist	-10397
▁judgment	-10398
▁keyboard	-10399
▁landscap	-10400
▁laughter	-10401
▁launched	-10402
▁leftover	-10403
▁loosened	-10404
▁manufact	-10405
▁mattress	-10406
▁measured	-10407
▁mechanic	-10408
▁miracles	-10409
▁mornings	-10410
▁mortgage	-10411
▁mustache	-10412
▁narrowly	-10413
▁nickname	-10414
▁noticing	-10415
▁obsessed	-10416
▁opportun	-10417
▁overwork	-10418
▁paddling	-10419
▁peculiar	-10420
▁pharmacy	-10421
▁pretends	-10422
▁prettier	-10423
▁prophecy	-10424
▁recorder	-10425
▁relevant	-10426
▁reporter	-10427
▁restroom	-10428
▁rewarded	-10429
▁scolding	-10430
▁sharpest	-10431
▁shipment	-10432
▁slippers	-10433
▁smoothly	-10434
▁snowfall	-10435
▁speeches	-10436
▁spitting	-10437
▁steroids	-10438
▁subjects	-10439
▁suicidal	-10440
▁supports	-10441
▁traveler	-10442
▁trembled	-10443
▁trombone	-10444
▁tropical	-10445
▁tuckered	-10446
▁wardrobe	-10447
▁warnings	-10448
▁Alexander	-10449
▁Beethoven	-10450
▁Hopefully	-10451
▁Hungarian	-10452
▁Teenagers	-10453
▁accordion	-10454
▁acquitted	-10455
▁addiction	-10456
▁allegedly	-10457
▁allowance	-10458
▁approving	-10459
▁automatic	-10460
▁bartender	-10461
▁believing	-10462
▁bodyguard	-10463
▁broadcast	-10464
▁cameraman	-10465
▁cardboard	-10466
▁classmate	-10467
▁collapsed	-10468
▁collision	-10469
▁commotion	-10470
▁consented	-10471
▁consulted	-10472
▁corrected	-10473
▁crocodile	-10474
▁democracy	-10475
▁determine	-10476
▁disadvant	-10477
▁disclosed	-10478
▁disorient	-10479
▁distances	-10480
▁eavesdrop	-10481
▁eccentric	-10482
▁establish	-10483
▁excessive	-10484
▁foolishly	-10485
▁furnished	-10486
▁gardening	-10487
▁graveyard	-10488
▁grumbling	-10489
▁hairstyle	-10490
▁hardships	-10491
▁horrified	-10492
▁hypocrite	-10493
▁imitation	-10494
▁incurable	-10495
▁indicates	-10496
▁limitless	-10497
▁lunchtime	-10498
▁margarine	-10499
▁musicians	-10500
▁naturally	-10501
▁neighbour	-10502
▁newlyweds	-10503
▁obstinate	-10504
▁occasions	-10505
▁opportune	-10506
▁orchestra	-10507
▁orphanage	-10508
▁paralyzed	-10509
▁presented	-10510
▁pressured	-10511
▁procedure	-10512
▁proofread	-10513
▁protested	-10514
▁purchased	-10515
▁reception	-10516
▁remaining	-10517
▁satellite	-10518
▁specialty	-10519
▁spreading	-10520
▁standards	-10521
▁subscribe	-10522
▁swallowed	-10523
▁trembling	-10524
▁umbrellas	-10525
▁uncertain	-10526
▁underwear	-10527
▁vacations	-10528
▁valuables	-10529
▁Eisenhower	-10530
▁Everywhere	-10531
▁Industrial	-10532
▁accusation	-10533
▁advantages	-10534
▁attributes	-10535
▁calculated	-10536
▁cheesecake	-10537
▁commitment	-10538
▁companions	-10539
▁contracted	-10540
▁controlled	-10541
▁developing	-10542
▁discharged	-10543
▁discourage	-10544
▁dressmaker	-10545
▁elementary	-10546
▁excitement	-10547
▁footprints	-10548
▁foundation	-10549
▁guaranteed	-10550
▁hysterical	-10551
▁infectious	-10552
▁inflexible	-10553
▁influenced	-10554
▁instructor	-10555
▁intriguing	-10556
▁inventions	-10557
▁irritating	-10558
▁management	-10559
▁nightmares	-10560
▁opposition	-10561
▁originated	-10562
▁overflowed	-10563
▁penicillin	-10564
▁possession	-10565
▁professors	-10566
▁protesting	-10567
▁respectful	-10568
▁retirement	-10569
▁settlement	-10570
▁skateboard	-10571
▁statistics	-10572
▁stepfather	-10573
▁sufficient	-10574
▁traditions	-10575
▁unbuttoned	-10576
▁underwater	-10577
▁waterproof	-10578
▁widespread	-10579
▁Afghanistan	-10580
▁accelerated	-10581
▁acknowledge	-10582
▁allegations	-10583
▁anniversary	-10584
▁appearances	-10585
▁catastrophe	-10586
▁celebrating	-10587
▁centimeters	-10588
▁conclusions	-10589
▁consequence	-10590
▁constructed	-10591
▁downloading	-10592
▁engineering	-10593
▁experiments	-10594
▁fingernails	-10595
▁girlfriends	-10596
▁ingredients	-10597
▁inseparable	-10598
▁investigate	-10599
▁investments	-10600
▁pessimistic	-10601
▁philosopher	-10602
▁pickpockets	-10603
▁proposition	-10604
▁refurbished	-10605
▁regulations	-10606
▁surrendered	-10607
▁transported	-10608
▁unimportant	-10609
▁wheelbarrow	-10610
▁civilization	-10611
▁constitution	-10612
▁demonstrated	-10613
▁irresistible	-10614
▁marshmallows	-10615
▁particularly	-10616
▁passionately	-10617
▁reservations	-10618
▁southeastern	-10619
▁successfully	-10620
▁surprisingly	-10621
▁unbelievably	-10622
▁flabbergasted	-10623
▁inappropriate	-10624
▁understandable	-10625
3,	-10626
5%	-10627
:1	-10628
:4	-10629
Ab	-10630
Be	-10631
CR	-10632
If	-10633
In	-10634
Ob	-10635
SA	-10636
Th	-10637
aj	-10638
cu	-10639
ec	-10640
fy	-10641
ko	-10642
sl	-10643
tg	-10644
tw	-10645
ua	-10646
wh	-10647
wk	-10648
zh	-10649
30.	-10650
92.	-10651
ado	-10652
aga	-10653
ags	-10654
aiw	-10655
alo	-10656
anc	-10657
anz	-10658
aor	-10659
ava	-10660
aze	-10661
bar	-10662
bic	-10663
bur	-10664
dad	-10665
des	-10666
dog	-10667
ean	-10668
edy	-10669
eek	-10670
eps	-10671
fel	-10672
gal	-10673
ggs	-10674
hea	-10675
hio	-10676
hma	-10677
ika	-10678
imm	-10679
iri	-10680
lem	-10681
lon	-10682
mic	-10683
oed	-10684
off	-10685
ogo	-10686
oil	-10687
oku	-10688
pan	-10689
pat	-10690
pay	-10691
pip	-10692
see	-10693
six	-10694
sts	-10695
sty	-10696
uis	-10697
ulu	-10698
uok	-10699
usk	-10700
uty	-10701
yal	-10702
▁1,	-10703
▁1.	-10704
▁21	-10705
▁31	-10706
▁5%	-10707
▁97	-10708
▁BM	-10709
▁Ca	-10710
▁DJ	-10711
▁Rh	-10712
▁Up	-10713
▁Ur	-10714
▁ol	-10715
▁py	-10716
Engl	-10717
Have	-10718
acht	-10719
ader	-10720
aest	-10721
agin	-10722
alan	-10723
anks	-10724
aoru	-10725
apes	-10726
aren	-10727
arly	-10728
arts	-10729
aser	-10730
aska	-10731
asts	-10732
ateg	-10733
ault	-10734
aust	-10735
ayas	-10736
azon	-10737
bird	-10738
bour	-10739
clip	-10740
cule	-10741
dney	-10742
done	-10743
east	-10744
elic	-10745
elly	-10746
eros	-10747
fted	-10748
gans	-10749
good	-10750
hake	-10751
hase	-10752
hens	-10753
hnic	-10754
hurt	-10755
ieth	-10756
igue	-10757
inde	-10758
inki	-10759
inqu	-10760
irth	-10761
isor	-10762
itis	-10763
itor	-10764
kill	-10765
kish	-10766
mann	-10767
mets	-10768
mond	-10769
nate	-10770
nect	-10771
nedy	-10772
omez	-10773
onel	-10774
opot	-10775
opsy	-10776
orri	-10777
othe	-10778
oths	-10779
pher	-10780
pick	-10781
pill	-10782
pour	-10783
prim	-10784
prot	-10785
quet	-10786
rait	-10787
rant	-10788
rate	-10789
rift	-10790
rior	-10791
roit	-10792
rote	-10793
rove	-10794
ruit	-10795
rust	-10796
seat	-10797
tgom	-10798
uchi	-10799
▁$2	-10800
▁9.	-10801
▁90	-10802
▁99	-10803
uits	-10804
ules	-10805
ulet	-10806
uman	-10807
uous	-10808
worm	-10809
wort	-10810
zhou	-10811
▁10%	-10812
▁17.	-10813
▁185	-10814
▁188	-10815
▁190	-10816
▁20.	-10817
▁800	-10818
▁Ach	-10819
▁Bac	-10820
▁Bas	-10821
▁Bay	-10822
▁Bea	-10823
▁Bee	-10824
▁Bet	-10825
▁Bob	-10826
▁Bon	-10827
▁Bow	-10828
▁Cad	-10829
▁Cam	-10830
▁Cap	-10831
▁Chi	-10832
▁Dep	-10833
▁Dry	-10834
▁Eif	-10835
▁Fer	-10836
▁Gam	-10837
▁Gas	-10838
▁Got	-10839
▁Jup	-10840
▁Kak	-10841
▁Lem	-10842
▁Lid	-10843
▁Lou	-10844
▁Mac	-10845
▁Mag	-10846
▁Mal	-10847
▁Mur	-10848
▁Neg	-10849
▁Ori	-10850
▁Pat	-10851
▁Rel	-10852
▁Rio	-10853
▁Rob	-10854
▁Sel	-10855
▁Sur	-10856
▁Tah	-10857
▁Tea	-10858
▁Tig	-10859
▁Typ	-10860
▁Var	-10861
▁Way	-10862
▁Wet	-10863
▁Wit	-10864
▁bew	-10865
▁bru	-10866
▁bye	-10867
▁dew	-10868
▁esc	-10869
▁fue	-10870
▁fug	-10871
▁gay	-10872
▁hip	-10873
▁jet	-10874
▁lag	-10875
▁lin	-10876
▁mes	-10877
▁mus	-10878
▁nie	-10879
▁oce	-10880
▁pee	-10881
▁pit	-10882
▁pox	-10883
▁rig	-10884
▁roo	-10885
▁ros	-10886
▁sed	-10887
▁soy	-10888
▁tac	-10889
▁tan	-10890
▁ton	-10891
▁tub	-10892
▁ult	-10893
▁unz	-10894
▁voc	-10895
▁woo	-10896
About	-10897
Whose	-10898
Would	-10899
eva	-10900
uki	-10901
▁165	-10902
▁USB	-10903
acher	-10904
acity	-10905
acker	-10906
acles	-10907
acock	-10908
agiar	-10909
agons	-10910
ailed	-10911
aimed	-10912
aiwan	-10913
amels	-10914
archy	-10915
arent	-10916
asaki	-10917
asive	-10918
athon	-10919
ching	-10920
cover	-10921
early	-10922
ensed	-10923
erted	-10924
estri	-10925
faced	-10926
feree	-10927
force	-10928
gered	-10929
gling	-10930
hobic	-10931
hrase	-10932
ibiot	-10933
icist	-10934
ictly	-10935
idext	-10936
ingle	-10937
inted	-10938
iolet	-10939
isode	-10940
isure	-10941
lling	-10942
lying	-10943
mates	-10944
neath	-10945
ogawa	-10946
omers	-10947
onven	-10948
orice	-10949
orida	-10950
ormal	-10951
oster	-10952
oused	-10953
phalt	-10954
pipes	-10955
raper	-10956
rehen	-10957
rella	-10958
ritis	-10959
ronic	-10960
sever	-10961
shine	-10962
steps	-10963
storm	-10964
suing	-10965
tenna	-10966
thank	-10967
think	-10968
thiop	-10969
third	-10970
tight	-10971
uding	-10972
ulars	-10973
urous	-10974
usely	-10975
uster	-10976
vents	-10977
venue	-10978
▁$100	-10979
▁100.	-10980
▁119.	-10981
▁4:00	-10982
▁6:00	-10983
▁9:00	-10984
▁Bang	-10985
▁Bear	-10986
▁Beer	-10987
▁Bees	-10988
▁Boil	-10989
▁Buff	-10990
▁Card	-10991
▁Cars	-10992
▁Coca	-10993
▁Cons	-10994
▁Copy	-10995
▁Cust	-10996
▁Drug	-10997
▁Form	-10998
▁Hels	-10999
Cola	-11000
This	-11001
girl	-11002
▁14,	-11003
skirt	-11004
▁Cuba	-11005
▁Hist	-11006
▁Hons	-11007
▁Imag	-11008
▁Jane	-11009
▁Khan	-11010
▁Lead	-11011
▁Mail	-11012
▁Meat	-11013
▁Must	-11014
▁Ness	-11015
▁Peel	-11016
▁Pers	-11017
▁Pizz	-11018
▁Salt	-11019
▁Sand	-11020
▁Sept	-11021
▁Shie	-11022
▁Shik	-11023
▁Size	-11024
▁Slip	-11025
▁Tick	-11026
▁Visa	-11027
▁Want	-11028
▁Wasn	-11029
▁Wipe	-11030
▁adds	-11031
▁bapt	-11032
▁beds	-11033
▁bran	-11034
▁café	-11035
▁cass	-11036
▁clap	-11037
▁clin	-11038
▁crem	-11039
▁cryb	-11040
▁dirt	-11041
▁dove	-11042
▁dual	-11043
▁elim	-11044
▁embr	-11045
▁eter	-11046
▁fame	-11047
▁frag	-11048
▁funn	-11049
▁fuse	-11050
▁germ	-11051
▁gimm	-11052
▁glum	-11053
▁gods	-11054
▁goof	-11055
▁gums	-11056
▁hint	-11057
▁hoot	-11058
▁jogs	-11059
▁kara	-11060
▁kilo	-11061
▁knob	-11062
▁lect	-11063
▁lens	-11064
▁lump	-11065
▁migr	-11066
▁mock	-11067
▁mule	-11068
▁navy	-11069
▁nosy	-11070
▁nuis	-11071
▁oboe	-11072
▁outl	-11073
▁pend	-11074
▁pets	-11075
▁phen	-11076
▁pitc	-11077
▁plea	-11078
▁plum	-11079
▁pony	-11080
▁pose	-11081
▁prev	-11082
▁publ	-11083
▁quot	-11084
▁rake	-11085
▁rays	-11086
▁recy	-11087
▁regg	-11088
▁rept	-11089
▁ribs	-11090
▁sack	-11091
▁sadd	-11092
▁scan	-11093
▁seed	-11094
▁slit	-11095
▁solo	-11096
▁sonn	-11097
▁subt	-11098
▁surp	-11099
week	-11100
▁VCR	-11101
▁Eggs	-11102
▁Ohio	-11103
▁hawk	-11104
▁sarc	-11105
▁soph	-11106
▁syll	-11107
▁teas	-11108
▁ties	-11109
▁tips	-11110
▁tipt	-11111
▁toad	-11112
▁trif	-11113
▁twig	-11114
▁unfa	-11115
▁unpl	-11116
▁vast	-11117
▁wavy	-11118
▁whim	-11119
▁whom	-11120
acious	-11121
ademic	-11122
apping	-11123
ardess	-11124
arrhea	-11125
called	-11126
celled	-11127
cisive	-11128
driver	-11129
esters	-11130
former	-11131
fusion	-11132
giving	-11133
haired	-11134
iation	-11135
idized	-11136
ignant	-11137
isters	-11138
itches	-11139
izarre	-11140
lawing	-11141
leader	-11142
length	-11143
lphins	-11144
minine	-11145
mitted	-11146
namite	-11147
native	-11148
nessee	-11149
ocrisy	-11150
ograph	-11151
opotam	-11152
ouched	-11153
overty	-11154
person	-11155
pillar	-11156
piracy	-11157
priced	-11158
rapers	-11159
shield	-11160
sities	-11161
taking	-11162
termin	-11163
ugging	-11164
uities	-11165
umbers	-11166
untary	-11167
ustion	-11168
utions	-11169
▁1492.	-11170
▁1969.	-11171
▁1970.	-11172
▁1990.	-11173
▁1998.	-11174
▁2010.	-11175
▁2:30,	-11176
▁5,500	-11177
▁8:30.	-11178
▁Adapt	-11179
▁Apply	-11180
▁Blend	-11181
▁Chile	-11182
▁Cinde	-11183
▁Click	-11184
▁Cover	-11185
▁Deleg	-11186
▁Flour	-11187
▁Fresh	-11188
▁Going	-11189
▁Gomez	-11190
▁Helen	-11191
▁Himal	-11192
▁Honey	-11193
▁Humor	-11194
▁Hyogo	-11195
▁Istan	-11196
▁Jorge	-11197
▁Kaoru	-11198
▁Lions	-11199
worthy	-11200
▁Lucky	-11201
▁Might	-11202
▁Milky	-11203
▁Moder	-11204
▁Mount	-11205
▁Night	-11206
▁Nikko	-11207
▁Nobel	-11208
▁Pract	-11209
▁Press	-11210
▁Rhine	-11211
▁Roman	-11212
▁Royal	-11213
▁Rules	-11214
▁Sales	-11215
▁Scott	-11216
▁Shoes	-11217
▁Short	-11218
▁Sixty	-11219
▁Stars	-11220
▁Stock	-11221
▁Super	-11222
▁Sweep	-11223
▁Tango	-11224
▁Techn	-11225
▁Trave	-11226
▁Union	-11227
▁Years	-11228
▁abhor	-11229
▁aches	-11230
▁advoc	-11231
▁agony	-11232
▁amuse	-11233
▁areas	-11234
▁arise	-11235
▁arist	-11236
▁ashes	-11237
▁atoms	-11238
▁audio	-11239
▁bache	-11240
▁bells	-11241
▁binge	-11242
▁binoc	-11243
▁buyer	-11244
▁cable	-11245
▁cages	-11246
▁chill	-11247
▁comet	-11248
▁crept	-11249
▁crude	-11250
▁curly	-11251
▁dared	-11252
▁dated	-11253
▁disco	-11254
▁ditch	-11255
▁donut	-11256
▁drier	-11257
▁drown	-11258
▁dryer	-11259
▁dumbf	-11260
▁eclip	-11261
▁endea	-11262
▁erase	-11263
▁fades	-11264
▁farms	-11265
▁fatal	-11266
▁flame	-11267
▁fraud	-11268
▁fussy	-11269
▁gases	-11270
▁globe	-11271
▁gotta	-11272
▁groom	-11273
▁hairy	-11274
▁heals	-11275
▁hears	-11276
▁hyper	-11277
▁infin	-11278
▁jelly	-11279
▁joint	-11280
▁legit	-11281
▁lions	-11282
▁lobby	-11283
▁lones	-11284
▁lured	-11285
▁mango	-11286
▁media	-11287
▁minus	-11288
▁mixed	-11289
▁mommy	-11290
▁moons	-11291
▁mower	-11292
▁munch	-11293
▁nause	-11294
▁nests	-11295
▁noble	-11296
▁outsm	-11297
▁overt	-11298
▁pains	-11299
▁panda	-11300
▁patio	-11301
▁peach	-11302
▁pearl	-11303
▁phase	-11304
▁piled	-11305
▁pound	-11306
▁prawn	-11307
▁punch	-11308
▁pyram	-11309
▁quote	-11310
▁radar	-11311
▁repay	-11312
▁rises	-11313
▁royal	-11314
▁rugby	-11315
▁sadly	-11316
▁safer	-11317
▁scars	-11318
▁scorp	-11319
▁scram	-11320
▁scrib	-11321
▁scrub	-11322
▁sends	-11323
▁sheer	-11324
▁shift	-11325
▁shone	-11326
▁shops	-11327
▁skull	-11328
▁slope	-11329
▁snare	-11330
▁snide	-11331
▁snuck	-11332
▁sorts	-11333
▁souls	-11334
▁spied	-11335
▁spilt	-11336
▁spoil	-11337
▁stark	-11338
▁strip	-11339
▁stung	-11340
▁syrup	-11341
▁teens	-11342
▁trail	-11343
▁tubes	-11344
▁unins	-11345
▁unnot	-11346
▁untie	-11347
▁usern	-11348
▁vehic	-11349
▁winds	-11350
▁wires	-11351
▁wiser	-11352
▁wrest	-11353
▁yacht	-11354
▁yards	-11355
Because	-11356
English	-11357
aborate	-11358
abulary	-11359
areness	-11360
artment	-11361
astered	-11362
austrop	-11363
chooled	-11364
ensable	-11365
ensions	-11366
esterol	-11367
fighter	-11368
handise	-11369
ictions	-11370
ievable	-11371
inction	-11372
iscated	-11373
isement	-11374
istered	-11375
jection	-11376
licking	-11377
merized	-11378
nerable	-11379
ominium	-11380
onnaise	-11381
pitched	-11382
ppiness	-11383
respect	-11384
ricanes	-11385
ritious	-11386
rophone	-11387
tensive	-11388
tgomery	-11389
thritis	-11390
through	-11391
▁10:00?	-11392
▁20,000	-11393
▁40,000	-11394
▁Alaska	-11395
▁Amazon	-11396
▁Arctic	-11397
▁Around	-11398
▁Attack	-11399
▁Avenue	-11400
▁Bridge	-11401
▁Caesar	-11402
▁Camels	-11403
▁Commun	-11404
▁Eiffel	-11405
▁Ethiop	-11406
▁Ferris	-11407
▁Figure	-11408
▁Geneva	-11409
▁Genius	-11410
▁George	-11411
▁Giving	-11412
▁Golden	-11413
▁Graham	-11414
▁Greeks	-11415
▁Hakone	-11416
▁Hitler	-11417
▁Honshu	-11418
▁Humans	-11419
▁Ladies	-11420
▁Losing	-11421
▁Malays	-11422
▁Murder	-11423
▁Native	-11424
▁Oxygen	-11425
▁Remove	-11426
▁Repeat	-11427
▁Report	-11428
▁Selena	-11429
▁Senate	-11430
▁Sister	-11431
▁Sydney	-11432
▁Tahiti	-11433
▁Taiwan	-11434
▁Tennis	-11435
▁Truman	-11436
▁Trying	-11437
▁Twelve	-11438
▁abrupt	-11439
▁abuses	-11440
▁accuse	-11441
▁adding	-11442
▁aiming	-11443
▁almond	-11444
▁ambush	-11445
▁amulet	-11446
▁anaest	-11447
▁angels	-11448
▁append	-11449
▁argues	-11450
▁assign	-11451
▁asthma	-11452
▁avoids	-11453
▁babble	-11454
▁beasts	-11455
▁beings	-11456
▁biased	-11457
▁biling	-11458
▁blacks	-11459
▁bodies	-11460
▁bombed	-11461
▁bomber	-11462
▁bribed	-11463
▁camels	-11464
▁canary	-11465
▁carded	-11466
▁caring	-11467
▁ceases	-11468
▁cleans	-11469
▁comics	-11470
▁consol	-11471
▁cooler	-11472
▁cooped	-11473
▁cowork	-11474
▁cruise	-11475
▁dealer	-11476
▁detest	-11477
▁device	-11478
▁divers	-11479
▁drapes	-11480
▁drowsy	-11481
▁drying	-11482
▁dyeing	-11483
▁erased	-11484
▁estate	-11485
▁ethnic	-11486
▁evapor	-11487
▁expire	-11488
▁feared	-11489
▁filthy	-11490
▁finals	-11491
▁finest	-11492
▁fisher	-11493
▁floods	-11494
▁folder	-11495
▁fourth	-11496
▁frames	-11497
▁freeze	-11498
▁fundam	-11499
▁futile	-11500
▁gagged	-11501
▁gasped	-11502
▁global	-11503
▁grease	-11504
▁greets	-11505
▁groggy	-11506
▁groped	-11507
▁grudge	-11508
▁hacked	-11509
▁handic	-11510
▁harmon	-11511
▁healed	-11512
▁hearts	-11513
▁hellos	-11514
▁heroes	-11515
▁hoarse	-11516
▁honors	-11517
▁iPhone	-11518
▁illust	-11519
▁immune	-11520
▁impuls	-11521
▁indisc	-11522
▁insist	-11523
▁issues	-11524
▁itches	-11525
▁lacked	-11526
▁liking	-11527
▁liquor	-11528
▁lovers	-11529
▁lumber	-11530
▁manual	-11531
▁margin	-11532
▁mashed	-11533
▁models	-11534
▁mortal	-11535
▁motive	-11536
▁mowing	-11537
▁multip	-11538
▁nabbed	-11539
▁newcom	-11540
▁nieces	-11541
▁nurses	-11542
▁oceans	-11543
▁organs	-11544
▁overly	-11545
▁paints	-11546
▁pandas	-11547
▁pantry	-11548
▁patted	-11549
▁payday	-11550
▁petals	-11551
▁plowed	-11552
▁poorer	-11553
▁powers	-11554
▁preced	-11555
▁prizes	-11556
▁pupils	-11557
▁quotes	-11558
▁racial	-11559
▁ration	-11560
▁reckon	-11561
▁recoll	-11562
▁reggae	-11563
▁remedy	-11564
▁reprim	-11565
▁rocket	-11566
▁sailor	-11567
▁salmon	-11568
▁scares	-11569
▁scenic	-11570
▁scores	-11571
▁skates	-11572
▁sleeve	-11573
▁snooze	-11574
▁snores	-11575
▁spades	-11576
▁spirit	-11577
▁spoils	-11578
▁stable	-11579
▁stated	-11580
▁status	-11581
▁stifle	-11582
▁stocks	-11583
▁stools	-11584
▁submar	-11585
▁synony	-11586
▁tables	-11587
▁tapped	-11588
▁terrif	-11589
▁tested	-11590
▁throne	-11591
▁thrown	-11592
▁tidied	-11593
▁timing	-11594
▁tossed	-11595
▁towels	-11596
▁typist	-11597
▁unhurt	-11598
▁unpaid	-11599
▁update	-11600
▁upload	-11601
▁values	-11602
▁varies	-11603
▁voters	-11604
▁warmly	-11605
▁washer	-11606
▁waving	-11607
▁widely	-11608
▁winded	-11609
agiarism	-11610
cheduled	-11611
ciplined	-11612
daughter	-11613
distance	-11614
gettable	-11615
ibiotics	-11616
inations	-11617
izations	-11618
mannered	-11619
ologists	-11620
raviolet	-11621
stitious	-11622
versible	-11623
▁400,000	-11624
▁African	-11625
▁Another	-11626
▁Beatles	-11627
▁Between	-11628
▁Buffalo	-11629
▁Bunnies	-11630
▁Channel	-11631
▁Cloning	-11632
▁Consult	-11633
▁Country	-11634
▁Detroit	-11635
▁Dragons	-11636
▁Estonia	-11637
▁Experts	-11638
▁Fiction	-11639
▁Finnish	-11640
▁Fishing	-11641
▁Florida	-11642
▁History	-11643
▁Islands	-11644
▁Janeiro	-11645
▁Jupiter	-11646
▁Kennedy	-11647
▁Knowing	-11648
▁Monkeys	-11649
▁Muslims	-11650
▁Parents	-11651
▁Plastic	-11652
▁Poverty	-11653
▁Romania	-11654
▁Running	-11655
▁Shiegal	-11656
▁Shikoku	-11657
▁Shinano	-11658
▁Shouldn	-11659
▁Somehow	-11660
▁Tickets	-11661
▁Turkish	-11662
▁Usually	-11663
▁Windows	-11664
▁admires	-11665
▁advisor	-11666
▁altered	-11667
▁amounts	-11668
▁antenna	-11669
▁aroused	-11670
▁arrests	-11671
▁asphalt	-11672
▁attacks	-11673
▁authors	-11674
▁autopsy	-11675
▁awaited	-11676
▁awarded	-11677
▁baffles	-11678
▁bassoon	-11679
▁beliefs	-11680
▁bending	-11681
▁beneath	-11682
▁bizarre	-11683
▁bluntly	-11684
▁borders	-11685
▁bounces	-11686
▁brushes	-11687
▁burgers	-11688
▁busiest	-11689
▁butcher	-11690
▁castles	-11691
▁caution	-11692
▁channel	-11693
▁chapped	-11694
▁clashed	-11695
▁classic	-11696
▁cocaine	-11697
▁coldest	-11698
▁combine	-11699
▁council	-11700
▁cracked	-11701
▁crosses	-11702
▁crystal	-11703
▁cunning	-11704
▁dangers	-11705
▁daytime	-11706
▁defects	-11707
▁delinqu	-11708
▁denying	-11709
▁departs	-11710
▁diploma	-11711
▁display	-11712
▁divides	-11713
▁doubled	-11714
▁dragged	-11715
▁dragonf	-11716
▁drained	-11717
▁dresser	-11718
▁enforce	-11719
▁envelop	-11720
▁episode	-11721
▁equally	-11722
▁errands	-11723
▁erupted	-11724
▁escapes	-11725
▁evicted	-11726
▁expense	-11727
▁exports	-11728
▁exposed	-11729
▁failing	-11730
▁fiancée	-11731
▁fighter	-11732
▁flirted	-11733
▁floated	-11734
▁formula	-11735
▁frankly	-11736
▁furnish	-11737
▁gaining	-11738
▁gallery	-11739
▁geology	-11740
▁giggled	-11741
▁gimmick	-11742
▁glowing	-11743
▁grammar	-11744
▁grandma	-11745
▁gravity	-11746
▁greater	-11747
▁grieved	-11748
▁groaned	-11749
▁handled	-11750
▁handles	-11751
▁handout	-11752
▁heading	-11753
▁heaters	-11754
▁helmets	-11755
▁hiccups	-11756
▁hideous	-11757
▁hunters	-11758
▁immense	-11759
▁immoral	-11760
▁incorri	-11761
▁inherit	-11762
▁insults	-11763
▁interns	-11764
▁intrude	-11765
▁karaoke	-11766
▁largely	-11767
▁legally	-11768
▁leisure	-11769
▁loyalty	-11770
▁lunatic	-11771
▁mammals	-11772
▁manipul	-11773
▁mansion	-11774
▁massive	-11775
▁methods	-11776
▁milkman	-11777
▁mineral	-11778
▁minimum	-11779
▁mislead	-11780
▁mopping	-11781
▁mothers	-11782
▁mourned	-11783
▁murders	-11784
▁neutral	-11785
▁outrank	-11786
▁panting	-11787
▁passive	-11788
▁peaches	-11789
▁peacock	-11790
▁pendant	-11791
▁pistols	-11792
▁pitcher	-11793
▁planets	-11794
▁portion	-11795
▁prayers	-11796
▁praying	-11797
▁primary	-11798
▁profits	-11799
▁propose	-11800
▁protein	-11801
▁proudly	-11802
▁purring	-11803
▁pushing	-11804
▁referee	-11805
▁remorse	-11806
▁repairs	-11807
▁repeats	-11808
▁revolve	-11809
▁rewrote	-11810
▁rooster	-11811
▁rumored	-11812
▁scaring	-11813
▁screwed	-11814
▁seasick	-11815
▁seventh	-11816
▁skilled	-11817
▁slander	-11818
▁snapped	-11819
▁sniffed	-11820
▁soaking	-11821
▁sobbing	-11822
▁specify	-11823
▁stuffed	-11824
▁substit	-11825
▁talents	-11826
▁temples	-11827
▁testify	-11828
▁threats	-11829
▁toolbox	-11830
▁totaled	-11831
▁trimmed	-11832
▁variety	-11833
▁vending	-11834
▁wagging	-11835
▁warming	-11836
▁warrior	-11837
▁weakest	-11838
▁weighed	-11839
▁winters	-11840
condition	-11841
idextrous	-11842
severance	-11843
stitution	-11844
▁Bacteria	-11845
▁Buddhism	-11846
▁Buddhist	-11847
▁Building	-11848
▁Chivalry	-11849
▁Dolphins	-11850
▁Electric	-11851
▁Helsinki	-11852
▁Istanbul	-11853
▁Italians	-11854
▁Millions	-11855
▁Needless	-11856
▁Northern	-11857
▁Painting	-11858
▁Patience	-11859
▁Potatoes	-11860
▁Strictly	-11861
▁Studying	-11862
▁Sweating	-11863
▁Thirteen	-11864
▁Unemploy	-11865
▁abundant	-11866
▁academic	-11867
▁acquired	-11868
▁advances	-11869
▁airtight	-11870
▁altitude	-11871
▁apparent	-11872
▁articles	-11873
▁artistic	-11874
▁athletes	-11875
▁bachelor	-11876
▁backseat	-11877
▁backward	-11878
▁bacteria	-11879
▁balloons	-11880
▁banished	-11881
▁bareback	-11882
▁blessing	-11883
▁blossoms	-11884
▁branches	-11885
▁breathed	-11886
▁breeding	-11887
▁broccoli	-11888
▁bullying	-11889
▁capacity	-11890
▁cemetery	-11891
▁colorful	-11892
▁confront	-11893
▁congress	-11894
▁connects	-11895
▁consumed	-11896
▁consumes	-11897
▁controls	-11898
▁cracking	-11899
▁cremated	-11900
▁dedicate	-11901
▁definite	-11902
▁derailed	-11903
▁deranged	-11904
▁designer	-11905
▁detained	-11906
▁diarrhea	-11907
▁dictator	-11908
▁diplomat	-11909
▁directed	-11910
▁disgrace	-11911
▁disputed	-11912
▁district	-11913
▁donation	-11914
▁downpour	-11915
▁drenched	-11916
▁embraced	-11917
▁emigrate	-11918
▁everyday	-11919
▁exhibits	-11920
▁extermin	-11921
▁faintest	-11922
▁famished	-11923
▁features	-11924
▁feminine	-11925
▁fertiliz	-11926
▁feverish	-11927
▁flexible	-11928
▁fugitive	-11929
▁galaxies	-11930
▁goldfish	-11931
▁graceful	-11932
▁headline	-11933
▁homesick	-11934
▁honestly	-11935
▁implying	-11936
▁inconven	-11937
▁indicate	-11938
▁infected	-11939
▁injuries	-11940
▁inserted	-11941
▁intently	-11942
▁internet	-11943
▁involves	-11944
▁laziness	-11945
▁licorice	-11946
▁lifetime	-11947
▁littered	-11948
▁location	-11949
▁lonesome	-11950
▁marathon	-11951
▁matching	-11952
▁measures	-11953
▁migraine	-11954
▁minority	-11955
▁molecule	-11956
▁muttered	-11957
▁nauseous	-11958
▁nuisance	-11959
▁numbered	-11960
▁objected	-11961
▁optimist	-11962
▁outraged	-11963
▁overdose	-11964
▁overhear	-11965
▁overtime	-11966
▁packages	-11967
▁painkill	-11968
▁payments	-11969
▁pedestri	-11970
▁phenomen	-11971
▁pipeline	-11972
▁portrait	-11973
▁prevents	-11974
▁produced	-11975
▁projects	-11976
▁prospect	-11977
▁pursuing	-11978
▁raincoat	-11979
▁rainfore	-11980
▁reckless	-11981
▁recorded	-11982
▁relented	-11983
▁reptiles	-11984
▁resource	-11985
▁restrain	-11986
▁ridicule	-11987
▁rudeness	-11988
▁sedative	-11989
▁servants	-11990
▁shameful	-11991
▁shortest	-11992
▁signaled	-11993
▁situated	-11994
▁skeleton	-11995
▁skillful	-11996
▁slippery	-11997
▁smallest	-11998
▁smirking	-11999
▁sneezing	-12000
▁sociable	-12001
▁solitude	-12002
▁spinning	-12003
▁spoonful	-12004
▁sprained	-12005
▁squeaked	-12006
▁squirrel	-12007
▁stations	-12008
▁stepping	-12009
▁stripped	-12010
▁suspects	-12011
▁swimmers	-12012
▁syllable	-12013
▁sympathi	-12014
▁symphony	-12015
▁terminal	-12016
▁theaters	-12017
▁troubled	-12018
▁twenties	-12019
▁underway	-12020
▁unimagin	-12021
▁unpacked	-12022
▁unzipped	-12023
▁vigorous	-12024
▁withered	-12025
▁worships	-12026
▁wrinkles	-12027
▁Delegates	-12028
▁Democracy	-12029
▁Different	-12030
▁Employers	-12031
▁Fantastic	-12032
▁Himalayas	-12033
▁Hollywood	-12034
▁Languages	-12035
▁Mastering	-12036
▁September	-12037
▁Socialist	-12038
▁Tennessee	-12039
▁abilities	-12040
▁appointed	-12041
▁attending	-12042
▁autograph	-12043
▁awareness	-12044
▁backwards	-12045
▁bilingual	-12046
▁biologist	-12047
▁brightest	-12048
▁cancelled	-12049
▁cathedral	-12050
▁celebrity	-12051
▁champions	-12052
▁claustrop	-12053
▁cockroach	-12054
▁compelled	-12055
▁comprehen	-12056
▁contacted	-12057
▁contained	-12058
▁countdown	-12059
▁creatures	-12060
▁creditors	-12061
▁decreased	-12062
▁defective	-12063
▁dignified	-12064
▁disagreed	-12065
▁disagrees	-12066
▁disasters	-12067
▁disorders	-12068
▁dissolves	-12069
▁elaborate	-12070
▁electrons	-12071
▁entertain	-12072
▁estimated	-12073
▁executive	-12074
▁explorers	-12075
▁fashioned	-12076
▁favorable	-12077
▁fingertip	-12078
▁footsteps	-12079
▁fractured	-12080
▁freelance	-12081
▁furiously	-12082
▁genuinely	-12083
▁geography	-12084
▁hamburger	-12085
▁household	-12086
▁hypocrisy	-12087
▁immigrate	-12088
▁indignant	-12089
▁inquiries	-12090
▁interpret	-12091
▁lifeguard	-12092
▁literally	-12093
▁memorized	-12094
▁miserable	-12095
▁notebooks	-12096
▁outlawing	-12097
▁outskirts	-12098
▁outwitted	-12099
▁passenger	-12100
▁patronize	-12101
▁pepperoni	-12102
▁performed	-12103
▁performer	-12104
▁pineapple	-12105
▁pneumonia	-12106
▁pointless	-12107
▁postcards	-12108
▁practices	-12109
▁pregnancy	-12110
▁prejudice	-12111
▁prettiest	-12112
▁profusely	-12113
▁prohibits	-12114
▁punishing	-12115
▁qualities	-12116
▁reluctant	-12117
▁reminding	-12118
▁reminisce	-12119
▁repeating	-12120
▁saxophone	-12121
▁scattered	-12122
▁scrambled	-12123
▁separates	-12124
▁sharpened	-12125
▁sincerely	-12126
▁snowboard	-12127
▁snowstorm	-12128
▁sociology	-12129
▁splashing	-12130
▁staircase	-12131
▁strangled	-12132
▁structure	-12133
▁sunburned	-12134
▁survivors	-12135
▁textbooks	-12136
▁tolerated	-12137
▁treasures	-12138
▁uninsured	-12139
▁unnoticed	-12140
▁violently	-12141
▁violinist	-12142
▁withdrawn	-12143
▁Adaptation	-12144
▁Cinderella	-12145
▁Democratic	-12146
▁Montgomery	-12147
▁Statistics	-12148
▁Technology	-12149
▁allegation	-12150
▁aristocrat	-12151
▁arithmetic	-12152
▁attributed	-12153
▁barbershop	-12154
▁believable	-12155
▁binoculars	-12156
▁brightened	-12157
▁carelessly	-12158
▁colorblind	-12159
▁combustion	-12160
▁compulsory	-12161
▁concealing	-12162
▁conspiracy	-12163
▁consultant	-12164
▁convincing	-12165
▁criticizes	-12166
▁dealership	-12167
▁decreasing	-12168
▁depressing	-12169
▁depression	-12170
▁economical	-12171
▁greenhouse	-12172
▁headphones	-12173
▁indecisive	-12174
▁intolerant	-12175
▁jaywalking	-12176
▁leadership	-12177
▁legitimate	-12178
▁maintained	-12179
▁manipulate	-12180
▁mayonnaise	-12181
▁meditation	-12182
▁memorizing	-12183
▁mesmerized	-12184
▁microphone	-12185
▁miniskirts	-12186
▁misfortune	-12187
▁motivation	-12188
▁negotiated	-12189
▁nutritious	-12190
▁officially	-12191
▁outsmarted	-12192
▁overworked	-12193
▁perfection	-12194
▁persistent	-12195
▁photogenic	-12196
▁physically	-12197
▁pickpocket	-12198
▁pineapples	-12199
▁plagiarism	-12200
▁predicting	-12201
▁prescribed	-12202
▁priorities	-12203
▁programmer	-12204
▁pronounced	-12205
▁proportion	-12206
▁prosperity	-12207
▁protesters	-12208
▁psychology	-12209
▁quarreling	-12210
▁rebellious	-12211
▁refreshing	-12212
▁relativity	-12213
▁repeatedly	-12214
▁restricted	-12215
▁satellites	-12216
▁secondhand	-12217
▁skyscraper	-12218
▁smartphone	-12219
▁specialize	-12220
▁spectators	-12221
▁stewardess	-12222
▁subsidized	-12223
▁suspicions	-12224
▁thoughtful	-12225
▁underneath	-12226
▁vocabulary	-12227
▁vulnerable	-12228
▁weatherman	-12229
▁whimpering	-12230
▁windshield	-12231
▁wristwatch	-12232
▁youngsters	-12233
▁Competition	-12234
▁Considering	-12235
▁accommodate	-12236
▁adventurous	-12237
▁ambiguities	-12238
▁antibiotics	-12239
▁appreciates	-12240
▁attentively	-12241
▁butterflies	-12242
▁cheerleader	-12243
▁cholesterol	-12244
▁condominium	-12245
▁confiscated	-12246
▁consumption	-12247
▁convenience	-12248
▁countryside	-12249
▁criticizing	-12250
▁development	-12251
▁disapproved	-12252
▁disoriented	-12253
▁distributed	-12254
▁drastically	-12255
▁dumbfounded	-12256
▁encouraging	-12257
▁extroverted	-12258
▁fashionable	-12259
▁firefighter	-12260
▁forecasting	-12261
▁frightening	-12262
▁hospitality	-12263
▁incorrectly	-12264
▁inferiority	-12265
▁influential	-12266
▁intentional	-12267
▁interpreted	-12268
▁intoxicated	-12269
▁involuntary	-12270
▁meaningless	-12271
▁merchandise	-12272
▁predictions	-12273
▁preparation	-12274
▁programming	-12275
▁questioning	-12276
▁reprimanded	-12277
▁screwdriver	-12278
▁thermometer	-12279
▁threatening	-12280
▁transfusion	-12281
▁translators	-12282
▁underground	-12283
▁unhappiness	-12284
▁Christianity	-12285
▁Organization	-12286
▁Thanksgiving	-12287
▁Unemployment	-12288
▁alternatives	-12289
▁ambidextrous	-12290
▁appointments	-12291
▁arrangements	-12292
▁breakthrough	-12293
▁breathtaking	-12294
▁bullfighting	-12295
▁considerable	-12296
▁constructive	-12297
▁disagreeable	-12298
▁disorganized	-12299
▁dissatisfied	-12300
▁grandfathers	-12301
▁helplessness	-12302
▁homeschooled	-12303
▁improvements	-12304
▁incorrigible	-12305
▁interrogated	-12306
▁manufactures	-12307
▁overreacting	-12308
▁prescription	-12309
▁presentation	-12310
▁recollection	-12311
▁surroundings	-12312
▁unexpectedly	-12313
▁universities	-12314
▁advertisement	-12315
▁concentration	-12316
▁conversations	-12317
▁disadvantages	-12318
▁disappearance	-12319
▁disappointing	-12320
▁documentaries	-12321
▁extraordinary	-12322
▁grammatically	-12323
▁indispensable	-12324
▁interrogation	-12325
▁misunderstand	-12326
▁opportunities	-12327
▁possibilities	-12328
▁psychological	-12329
▁significantly	-12330
▁superstitious	-12331
▁traditionally	-12332
▁unforgettable	-12333
▁unfortunately	-12334
▁administration	-12335
▁claustrophobic	-12336
▁discrimination	-12337
▁specialization	-12338
▁transportation	-12339
!!	-12340
'.	-12341
..	-12342
39	-12343
5?	-12344
6,	-12345
8,	-12346
DA	-12347
IA	-12348
Ls	-12349
Ne	-12350
Of	-12351
On	-12352
PR	-12353
PS	-12354
VD	-12355
We	-12356
bu	-12357
ca	-12358
dd	-12359
gt	-12360
ih	-12361
li	-12362
oa	-12363
uy	-12364
uz	-12365
vy	-12366
xf	-12367
yn	-12368
▁0	-12369
▁u	-12370
▁€	-12371
32.	-12372
36.	-12373
RLs	-12374
Sil	-12375
Why	-12376
ada	-12377
agu	-12378
akh	-12379
alt	-12380
amu	-12381
aro	-12382
aru	-12383
atr	-12384
bot	-12385
cca	-12386
dge	-12387
eah	-12388
eba	-12389
eor	-12390
fed	-12391
geb	-12392
gir	-12393
got	-12394
hal	-12395
hyd	-12396
iac	-12397
ias	-12398
imb	-12399
To	-12400
▁X	-12401
▁x	-12402
89.	-12403
iob	-12404
ios	-12405
ira	-12406
jas	-12407
kel	-12408
kit	-12409
lac	-12410
mem	-12411
nog	-12412
oat	-12413
occ	-12414
ona	-12415
ono	-12416
opp	-12417
ora	-12418
org	-12419
ori	-12420
osa	-12421
rag	-12422
rey	-12423
roc	-12424
ser	-12425
sun	-12426
tal	-12427
the	-12428
thm	-12429
top	-12430
tra	-12431
ubl	-12432
udi	-12433
ulp	-12434
umi	-12435
uns	-12436
uto	-12437
vez	-12438
vie	-12439
vis	-12440
whe	-12441
xed	-12442
xic	-12443
yan	-12444
zel	-12445
▁6.	-12446
▁7%	-12447
▁81	-12448
▁Ac	-12449
▁Ag	-12450
▁Av	-12451
▁Ba	-12452
▁CO	-12453
▁Gi	-12454
▁Ke	-12455
▁Li	-12456
▁Ms	-12457
▁Má	-12458
▁NA	-12459
▁Ni	-12460
▁Nu	-12461
▁Ot	-12462
▁Sn	-12463
▁Wr	-12464
▁ic	-12465
▁om	-12466
▁ot	-12467
▁si	-12468
▁yo	-12469
Fast	-12470
Only	-12471
Tell	-12472
aint	-12473
airy	-12474
andt	-12475
anim	-12476
aped	-12477
apeg	-12478
arer	-12479
arks	-12480
arou	-12481
arte	-12482
asay	-12483
asol	-12484
asse	-12485
atar	-12486
aver	-12487
azor	-12488
came	-12489
card	-12490
cede	-12491
cted	-12492
dain	-12493
doll	-12494
eaky	-12495
eals	-12496
eech	-12497
enda	-12498
enos	-12499
fty	-12500
kok	-12501
raq	-12502
sue	-12503
azai	-12504
bike	-12505
erob	-12506
etch	-12507
felt	-12508
fess	-12509
gher	-12510
hara	-12511
heit	-12512
held	-12513
helf	-12514
help	-12515
heum	-12516
hill	-12517
hour	-12518
ibis	-12519
ichi	-12520
icky	-12521
icol	-12522
icts	-12523
igen	-12524
ills	-12525
imid	-12526
imsy	-12527
inea	-12528
ipop	-12529
izab	-12530
jack	-12531
kins	-12532
ldon	-12533
lier	-12534
list	-12535
nest	-12536
nged	-12537
nine	-12538
nity	-12539
nour	-12540
oast	-12541
ocus	-12542
olic	-12543
ooch	-12544
opes	-12545
orus	-12546
otic	-12547
oton	-12548
quar	-12549
raft	-12550
reot	-12551
rily	-12552
riot	-12553
rmed	-12554
rose	-12555
rown	-12556
sake	-12557
sets	-12558
seud	-12559
shed	-12560
sing	-12561
stop	-12562
tail	-12563
tray	-12564
turn	-12565
ugee	-12566
ulas	-12567
ulpt	-12568
ulum	-12569
umph	-12570
unes	-12571
uten	-12572
vage	-12573
vite	-12574
xist	-12575
xter	-12576
yers	-12577
zart	-12578
zens	-12579
▁$10	-12580
▁1,6	-12581
▁10,	-12582
▁11.	-12583
▁17,	-12584
▁182	-12585
▁Abs	-12586
▁Aff	-12587
▁Alf	-12588
▁Ang	-12589
▁Ank	-12590
▁Ben	-12591
▁Bot	-12592
▁Bro	-12593
▁Cab	-12594
▁Cro	-12595
▁DVD	-12596
▁Die	-12597
▁Dyl	-12598
▁Ecu	-12599
Joy	-12600
mia	-12601
▁Ko	-12602
▁Ra	-12603
dles	-12604
lted	-12605
pare	-12606
pron	-12607
▁20,	-12608
▁Amb	-12609
▁Eth	-12610
▁Fry	-12611
▁Fuk	-12612
▁Gal	-12613
▁Goo	-12614
▁Han	-12615
▁Hat	-12616
▁Hug	-12617
▁Jew	-12618
▁Kaw	-12619
▁Kaz	-12620
▁Kha	-12621
▁Lis	-12622
▁Lun	-12623
▁Mel	-12624
▁Mot	-12625
▁Nin	-12626
▁Nog	-12627
▁Non	-12628
▁Off	-12629
▁Oxf	-12630
▁Pav	-12631
▁Poy	-12632
▁Res	-12633
▁Rum	-12634
▁Sad	-12635
▁Sat	-12636
▁Set	-12637
▁Sid	-12638
▁Sim	-12639
▁Tax	-12640
▁Tet	-12641
▁Tow	-12642
▁Ult	-12643
▁Uno	-12644
▁Vir	-12645
▁Vol	-12646
▁Wax	-12647
▁Web	-12648
▁Yuk	-12649
▁ave	-12650
▁bay	-12651
▁bid	-12652
▁bol	-12653
▁boo	-12654
▁bou	-12655
▁byg	-12656
▁cav	-12657
▁dee	-12658
▁dra	-12659
▁dup	-12660
▁ech	-12661
▁ego	-12662
▁fee	-12663
▁gor	-12664
▁kim	-12665
▁kit	-12666
▁liz	-12667
▁mop	-12668
▁mum	-12669
▁myt	-12670
▁nom	-12671
▁pap	-12672
▁pud	-12673
▁ram	-12674
▁rim	-12675
▁rit	-12676
▁sau	-12677
▁sul	-12678
▁tul	-12679
▁wil	-12680
▁wiz	-12681
▁yol	-12682
actly	-12683
actus	-12684
adise	-12685
ality	-12686
andas	-12687
anent	-12688
ansom	-12689
arded	-12690
atown	-12691
atter	-12692
attle	-12693
avoid	-12694
aying	-12695
bable	-12696
bergh	-12697
bleed	-12698
build	-12699
Any	-12700
nov	-12701
weg	-12702
▁2.	-12703
▁23	-12704
▁4.	-12705
brid	-12706
lica	-12707
lord	-12708
size	-12709
uals	-12710
▁54.	-12711
▁Dub	-12712
▁gib	-12713
check	-12714
cials	-12715
click	-12716
coons	-12717
cutta	-12718
dated	-12719
death	-12720
ealed	-12721
earch	-12722
eaten	-12723
ector	-12724
eling	-12725
eller	-12726
erced	-12727
erget	-12728
eries	-12729
espan	-12730
etary	-12731
feine	-12732
fense	-12733
ffees	-12734
ffeur	-12735
forty	-12736
gging	-12737
ggles	-12738
glass	-12739
gular	-12740
heart	-12741
hesia	-12742
holes	-12743
hosts	-12744
icide	-12745
ieged	-12746
ierre	-12747
ifies	-12748
ilipp	-12749
illac	-12750
ilson	-12751
inery	-12752
inged	-12753
ional	-12754
isies	-12755
isily	-12756
isins	-12757
isive	-12758
itles	-12759
itone	-12760
lette	-12761
lfare	-12762
liest	-12763
mouth	-12764
nosed	-12765
oalas	-12766
olars	-12767
olded	-12768
olete	-12769
omped	-12770
ondes	-12771
ooded	-12772
orant	-12773
orocc	-12774
orted	-12775
ossil	-12776
othes	-12777
otted	-12778
ounan	-12779
ounge	-12780
racts	-12781
reast	-12782
reens	-12783
rical	-12784
rific	-12785
rower	-12786
state	-12787
sunam	-12788
tedly	-12789
tened	-12790
throp	-12791
upied	-12792
urich	-12793
usive	-12794
ville	-12795
vised	-12796
▁$30.	-12797
▁6:30	-12798
▁Adop	-12799
:50	-12800
aza	-12801
ype	-12802
airo	-12803
ileo	-12804
wash	-12805
▁40.	-12806
▁Imp	-12807
▁bio	-12808
▁era	-12809
▁yaw	-12810
affes	-12811
amboo	-12812
bably	-12813
ilege	-12814
olulu	-12815
ontal	-12816
rends	-12817
rison	-12818
unned	-12819
▁Ages	-12820
▁Akag	-12821
▁Base	-12822
▁Best	-12823
▁Bill	-12824
▁Bite	-12825
▁Blow	-12826
▁Book	-12827
▁Brus	-12828
▁Chur	-12829
▁Cool	-12830
▁Cult	-12831
▁Deal	-12832
▁Dick	-12833
▁Dise	-12834
▁Diss	-12835
▁Evil	-12836
▁Farm	-12837
▁Fast	-12838
▁Gate	-12839
▁Guns	-12840
▁Hack	-12841
▁Hard	-12842
▁Heat	-12843
▁High	-12844
▁Hill	-12845
▁Honk	-12846
▁Join	-12847
▁Kumi	-12848
▁Lady	-12849
▁Lind	-12850
▁Mach	-12851
▁Mart	-12852
▁Math	-12853
▁Mumb	-12854
▁Nash	-12855
▁Noel	-12856
▁Parl	-12857
▁Pets	-12858
▁Pork	-12859
▁Prom	-12860
▁Rest	-12861
▁Rice	-12862
▁Rich	-12863
▁Ring	-12864
▁Room	-12865
▁Star	-12866
▁Term	-12867
▁Tour	-12868
▁URLs	-12869
▁Ward	-12870
▁Wear	-12871
▁Wild	-12872
▁amus	-12873
▁anec	-12874
▁arts	-12875
▁bans	-12876
▁beak	-12877
▁beam	-12878
▁beep	-12879
▁bick	-12880
▁bits	-12881
▁bode	-12882
▁bold	-12883
▁bond	-12884
▁brag	-12885
▁brew	-12886
▁bron	-12887
▁bubb	-12888
▁buzz	-12889
▁cans	-12890
▁capt	-12891
▁cens	-12892
▁chau	-12893
▁clam	-12894
▁claw	-12895
▁clut	-12896
▁coke	-12897
▁cone	-12898
▁cozy	-12899
ivy	-12900
psy	-12901
Away	-12902
firm	-12903
sels	-12904
viet	-12905
▁CIA	-12906
▁ivy	-12907
boats	-12908
gebra	-12909
insaw	-12910
ivate	-12911
ridge	-12912
▁Nero	-12913
▁Real	-12914
▁Suit	-12915
▁cuff	-12916
▁cush	-12917
▁dash	-12918
▁dear	-12919
▁deed	-12920
▁deod	-12921
▁dime	-12922
▁dine	-12923
▁dots	-12924
▁doze	-12925
▁elig	-12926
▁eyed	-12927
▁eyep	-12928
▁fade	-12929
▁fant	-12930
▁feas	-12931
▁flam	-12932
▁foun	-12933
▁fres	-12934
▁gear	-12935
▁geni	-12936
▁gest	-12937
▁glit	-12938
▁grat	-12939
▁grey	-12940
▁halt	-12941
▁hare	-12942
▁haze	-12943
▁honk	-12944
▁hums	-12945
▁idol	-12946
▁impe	-12947
▁intu	-12948
▁lact	-12949
▁lamb	-12950
▁lame	-12951
▁mand	-12952
▁mang	-12953
▁mead	-12954
▁melt	-12955
▁ment	-12956
▁myth	-12957
▁nest	-12958
▁noun	-12959
▁oral	-12960
▁pawn	-12961
▁pine	-12962
▁pole	-12963
▁pong	-12964
▁prun	-12965
▁rack	-12966
▁raft	-12967
▁rash	-12968
▁reac	-12969
▁rect	-12970
▁reef	-12971
▁reek	-12972
▁rein	-12973
▁relo	-12974
▁reun	-12975
▁roar	-12976
▁rows	-12977
▁scal	-12978
▁sequ	-12979
▁shat	-12980
▁sins	-12981
▁skim	-12982
▁slid	-12983
▁snat	-12984
▁snoc	-12985
▁span	-12986
▁stag	-12987
▁stut	-12988
▁sumo	-12989
▁sust	-12990
▁swap	-12991
▁swel	-12992
▁tact	-12993
▁tang	-12994
▁tech	-12995
▁toen	-12996
▁tomb	-12997
▁trig	-12998
▁typo	-12999
bats	-13000
boat	-13001
coon	-13002
mbly	-13003
rane	-13004
roso	-13005
▁180	-13006
▁20%	-13007
abuki	-13008
grade	-13009
▁Exha	-13010
▁curt	-13011
▁dude	-13012
▁inex	-13013
▁unde	-13014
▁unin	-13015
▁unit	-13016
▁unst	-13017
▁unve	-13018
▁vacc	-13019
▁vice	-13020
▁vine	-13021
▁waff	-13022
▁wing	-13023
▁wors	-13024
Please	-13025
achers	-13026
ackets	-13027
action	-13028
active	-13029
acular	-13030
aining	-13031
akened	-13032
amides	-13033
aneous	-13034
antial	-13035
aparte	-13036
aphone	-13037
arters	-13038
ashore	-13039
asking	-13040
atable	-13041
baraki	-13042
berish	-13043
boiled	-13044
bridge	-13045
cerity	-13046
ctions	-13047
eaking	-13048
eering	-13049
efruit	-13050
elling	-13051
eptune	-13052
ervant	-13053
estyle	-13054
ficial	-13055
gotist	-13056
hology	-13057
iament	-13058
ifully	-13059
ifying	-13060
ingers	-13061
intosh	-13062
irable	-13063
irties	-13064
itated	-13065
ithful	-13066
licate	-13067
lingon	-13068
little	-13069
mented	-13070
nesses	-13071
ocrats	-13072
ogames	-13073
omfort	-13074
omores	-13075
opened	-13076
opular	-13077
orexic	-13078
orical	-13079
orious	-13080
otarou	-13081
ottery	-13082
ounter	-13083
pherds	-13084
plants	-13085
ranean	-13086
rawber	-13087
reedom	-13088
ridden	-13089
rified	-13090
rology	-13091
ronted	-13092
rosoft	-13093
soever	-13094
struck	-13095
talion	-13096
terest	-13097
uation	-13098
uckled	-13099
▁3,	-13100
▁36	-13101
egas	-13102
mstr	-13103
ucid	-13104
▁$20	-13105
▁97%	-13106
▁Cuc	-13107
▁Def	-13108
▁Ref	-13109
▁Wik	-13110
▁cuc	-13111
irius	-13112
ooted	-13113
verbs	-13114
▁Harr	-13115
▁Sumo	-13116
▁auto	-13117
▁samp	-13118
▁vamp	-13119
ampled	-13120
boards	-13121
dollar	-13122
hended	-13123
uggish	-13124
ussing	-13125
utable	-13126
venile	-13127
▁1,600	-13128
▁1603.	-13129
▁1950.	-13130
▁1952.	-13131
▁1955.	-13132
▁1974.	-13133
▁2003.	-13134
▁2008.	-13135
▁3,500	-13136
▁5,000	-13137
▁Aband	-13138
▁Aires	-13139
▁Antar	-13140
▁Armen	-13141
▁Banks	-13142
▁Broad	-13143
▁Cairo	-13144
▁Cesar	-13145
▁Coast	-13146
▁Comet	-13147
▁Creat	-13148
▁Diego	-13149
▁Dream	-13150
▁Drunk	-13151
▁Emper	-13152
▁Enter	-13153
▁Flags	-13154
▁Focus	-13155
▁Force	-13156
▁Frank	-13157
▁Georg	-13158
▁Germs	-13159
▁Glass	-13160
▁Inter	-13161
▁Italo	-13162
▁James	-13163
▁Jeans	-13164
▁Kenya	-13165
▁Leaky	-13166
▁Liars	-13167
▁Lidya	-13168
▁Maria	-13169
▁Merry	-13170
▁Milan	-13171
▁Moths	-13172
▁Older	-13173
▁Other	-13174
▁Pizza	-13175
▁Pluto	-13176
▁Rural	-13177
▁Sasay	-13178
▁Saudi	-13179
▁Shame	-13180
▁Smart	-13181
▁Smile	-13182
▁Solve	-13183
▁Sound	-13184
▁Space	-13185
▁Spell	-13186
▁Sport	-13187
▁Squir	-13188
▁Steal	-13189
▁Steam	-13190
▁Third	-13191
▁Uncle	-13192
▁Weeds	-13193
▁Wires	-13194
▁Worry	-13195
▁Youth	-13196
▁acute	-13197
▁adore	-13198
▁aerob	-13199
iku	-13200
▁7,	-13201
▁30.	-13202
▁5%.	-13203
cuted	-13204
elect	-13205
lects	-13206
▁2:00	-13207
▁5:00	-13208
▁8:30	-13209
▁Chew	-13210
▁Deaf	-13211
▁Soap	-13212
▁dope	-13213
▁owls	-13214
▁undo	-13215
cutive	-13216
▁1870.	-13217
▁Atoms	-13218
▁Quite	-13219
▁allig	-13220
▁alter	-13221
▁aquar	-13222
▁arose	-13223
▁bathe	-13224
▁bever	-13225
▁bikes	-13226
▁blend	-13227
▁blush	-13228
▁bossy	-13229
▁brace	-13230
▁brick	-13231
▁brink	-13232
▁buddy	-13233
▁bushy	-13234
▁butts	-13235
▁caged	-13236
▁camps	-13237
▁canal	-13238
▁cardi	-13239
▁cater	-13240
▁charm	-13241
▁choir	-13242
▁cleft	-13243
▁clubs	-13244
▁comic	-13245
▁cramp	-13246
▁crows	-13247
▁cuter	-13248
▁dairy	-13249
▁decay	-13250
▁desks	-13251
▁destr	-13252
▁dilem	-13253
▁donor	-13254
▁dough	-13255
▁doves	-13256
▁drill	-13257
▁embro	-13258
▁empat	-13259
▁enhan	-13260
▁exert	-13261
▁exits	-13262
▁faked	-13263
▁fancy	-13264
▁farce	-13265
▁ferry	-13266
▁fists	-13267
▁fleas	-13268
▁flirt	-13269
▁fluke	-13270
▁flunk	-13271
▁forte	-13272
▁frant	-13273
▁gavel	-13274
▁genes	-13275
▁genet	-13276
▁germs	-13277
▁glist	-13278
▁haiku	-13279
▁hazel	-13280
▁horns	-13281
▁illum	-13282
▁imper	-13283
▁input	-13284
▁irons	-13285
▁kings	-13286
▁lakes	-13287
▁lapel	-13288
▁layer	-13289
▁leash	-13290
▁lends	-13291
▁lever	-13292
▁manus	-13293
▁marri	-13294
▁melts	-13295
▁mines	-13296
▁motel	-13297
▁mount	-13298
▁ninet	-13299
73.	-13300
Here	-13301
▁18.	-13302
▁18?	-13303
▁Burr	-13304
▁Gram	-13305
▁Iraq	-13306
▁Phys	-13307
▁Plan	-13308
▁Prin	-13309
▁Sony	-13310
▁hipp	-13311
▁racy	-13312
▁rhet	-13313
▁sexy	-13314
▁tone	-13315
leness	-13316
onents	-13317
ternal	-13318
uggler	-13319
▁Place	-13320
▁Rembr	-13321
▁Seine	-13322
▁Trade	-13323
▁melon	-13324
▁motto	-13325
▁ninja	-13326
▁ninth	-13327
▁noted	-13328
▁obese	-13329
▁obeys	-13330
▁onion	-13331
▁outer	-13332
▁overr	-13333
▁paged	-13334
▁pasta	-13335
▁pause	-13336
▁pedal	-13337
▁penet	-13338
▁persp	-13339
▁picks	-13340
▁pitch	-13341
▁probe	-13342
▁pseud	-13343
▁quart	-13344
▁queue	-13345
▁quits	-13346
▁range	-13347
▁reass	-13348
▁recur	-13349
▁remod	-13350
▁renov	-13351
▁rents	-13352
▁rheum	-13353
▁rhyme	-13354
▁roots	-13355
▁ropes	-13356
▁sabot	-13357
▁sails	-13358
▁schoo	-13359
▁scoot	-13360
▁scorn	-13361
▁scree	-13362
▁scrup	-13363
▁shell	-13364
▁shill	-13365
▁shyly	-13366
▁siren	-13367
▁sites	-13368
▁skies	-13369
▁slide	-13370
▁slimy	-13371
▁smirk	-13372
▁smoot	-13373
▁spice	-13374
▁spies	-13375
▁spots	-13376
▁squab	-13377
▁squid	-13378
▁stall	-13379
▁stanz	-13380
▁swall	-13381
▁swarm	-13382
▁swore	-13383
▁tents	-13384
▁thres	-13385
▁tread	-13386
▁twist	-13387
▁unfam	-13388
▁viral	-13389
▁vivid	-13390
▁weary	-13391
▁wedge	-13392
▁werew	-13393
▁wines	-13394
▁woozy	-13395
▁wring	-13396
▁yells	-13397
Neither	-13398
Nothing	-13399
lov	-13400
▁Ze	-13401
▁110	-13402
▁25.	-13403
▁250	-13404
▁Zam	-13405
dotes	-13406
odram	-13407
ollen	-13408
▁$200	-13409
▁2013	-13410
▁Calv	-13411
▁Decl	-13412
▁Flip	-13413
▁Oslo	-13414
igrade	-13415
ourbon	-13416
▁11:00	-13417
▁2001.	-13418
▁cargo	-13419
▁clogs	-13420
▁dusty	-13421
▁fiber	-13422
▁forkl	-13423
▁frogs	-13424
▁inbox	-13425
▁lingu	-13426
▁pupil	-13427
akening	-13428
akhstan	-13429
ammable	-13430
animous	-13431
apegoat	-13432
ategory	-13433
blooded	-13434
burgers	-13435
ceptive	-13436
cipline	-13437
codiles	-13438
dressed	-13439
ectives	-13440
endance	-13441
erosene	-13442
fecture	-13443
feeding	-13444
ficient	-13445
forties	-13446
husband	-13447
idences	-13448
ildered	-13449
illance	-13450
ishable	-13451
itional	-13452
members	-13453
mperial	-13454
mstrong	-13455
natural	-13456
nighter	-13457
ologise	-13458
oppable	-13459
otonous	-13460
pronoun	-13461
reation	-13462
ricaded	-13463
righted	-13464
riminal	-13465
rorists	-13466
tenance	-13467
usioned	-13468
▁10:00.	-13469
▁11:00.	-13470
▁Adoles	-13471
▁Amster	-13472
▁Appear	-13473
▁Applic	-13474
▁Arabia	-13475
▁Athens	-13476
▁Barack	-13477
▁Basque	-13478
▁Buenos	-13479
▁Callas	-13480
▁Cancer	-13481
▁Chavez	-13482
▁Checks	-13483
▁Coming	-13484
▁Defend	-13485
▁Demand	-13486
▁Discon	-13487
▁Double	-13488
▁Dublin	-13489
▁Except	-13490
▁Family	-13491
▁Flight	-13492
▁Fruits	-13493
▁Giants	-13494
▁Google	-13495
▁Greene	-13496
▁Halley	-13497
▁Hunger	-13498
▁Invite	-13499
hells	-13500
jamin	-13501
ublai	-13502
▁Coal	-13503
▁Polk	-13504
▁Yale	-13505
▁palm	-13506
▁rosy	-13507
▁sulf	-13508
ipedia	-13509
ursion	-13510
writer	-13511
▁1975.	-13512
▁1985.	-13513
▁1988.	-13514
▁5:00.	-13515
▁Dazai	-13516
▁Delhi	-13517
▁Linux	-13518
▁Parks	-13519
▁Quant	-13520
▁Visit	-13521
▁cycle	-13522
▁foggy	-13523
▁hiber	-13524
▁noses	-13525
▁pears	-13526
▁plead	-13527
▁recip	-13528
▁rural	-13529
▁seeks	-13530
▁tipsy	-13531
respond	-13532
▁Koalas	-13533
▁Kublai	-13534
▁Lemons	-13535
▁Manger	-13536
▁Marika	-13537
▁Milton	-13538
▁Mumbai	-13539
▁Muslim	-13540
▁Nearly	-13541
▁Onions	-13542
▁Orange	-13543
▁Origin	-13544
▁Poyang	-13545
▁Pretty	-13546
▁Public	-13547
▁Really	-13548
▁Recess	-13549
▁Remind	-13550
▁Rumors	-13551
▁Safety	-13552
▁Sahara	-13553
▁Salmon	-13554
▁Scores	-13555
▁Sidney	-13556
▁Soviet	-13557
▁Square	-13558
▁Stones	-13559
▁Strong	-13560
▁Switch	-13561
▁Thirty	-13562
▁Tigers	-13563
▁Wilson	-13564
▁Within	-13565
▁Wonder	-13566
▁abated	-13567
▁aching	-13568
▁adjour	-13569
▁admits	-13570
▁adored	-13571
▁alarms	-13572
▁alibis	-13573
▁allies	-13574
▁angles	-13575
▁annoys	-13576
▁anthem	-13577
▁ballon	-13578
▁bedrag	-13579
▁births	-13580
▁blanks	-13581
▁blinds	-13582
▁bloody	-13583
▁boards	-13584
▁booked	-13585
▁brands	-13586
▁breach	-13587
▁bronze	-13588
▁builds	-13589
▁busier	-13590
▁buyers	-13591
▁cables	-13592
▁carrot	-13593
▁casual	-13594
▁catchy	-13595
▁ceased	-13596
▁cellar	-13597
▁chafed	-13598
▁cheats	-13599
pox	-13600
infl	-13601
▁97.	-13602
▁Fah	-13603
ijuan	-13604
▁$10.	-13605
▁Comb	-13606
▁Gulf	-13607
▁Navy	-13608
▁gulp	-13609
▁poop	-13610
emaker	-13611
ijuana	-13612
ingham	-13613
▁1933.	-13614
▁1941.	-13615
▁Bells	-13616
▁Climb	-13617
▁Heavy	-13618
▁brisk	-13619
▁clams	-13620
▁graff	-13621
▁grams	-13622
abiding	-13623
elected	-13624
▁Center	-13625
▁Colomb	-13626
▁Fahren	-13627
▁Ghosts	-13628
▁Person	-13629
▁absorb	-13630
▁chapel	-13631
▁chases	-13632
▁clause	-13633
▁cloned	-13634
▁combat	-13635
▁confer	-13636
▁contem	-13637
▁cooing	-13638
▁copied	-13639
▁corpse	-13640
▁costly	-13641
▁curric	-13642
▁daises	-13643
▁decade	-13644
▁deemed	-13645
▁define	-13646
▁delete	-13647
▁denies	-13648
▁dental	-13649
▁detour	-13650
▁devise	-13651
▁devoid	-13652
▁disill	-13653
▁divine	-13654
▁diving	-13655
▁doomed	-13656
▁dormit	-13657
▁endure	-13658
▁entail	-13659
▁enters	-13660
▁entree	-13661
▁evange	-13662
▁exceed	-13663
▁exiled	-13664
▁faking	-13665
▁famine	-13666
▁firing	-13667
▁firmly	-13668
▁fished	-13669
▁flatly	-13670
▁flimsy	-13671
▁flirts	-13672
▁floats	-13673
▁flowed	-13674
▁foiled	-13675
▁freaky	-13676
▁frustr	-13677
▁gamble	-13678
▁ganged	-13679
▁gazing	-13680
▁gender	-13681
▁gently	-13682
▁guided	-13683
▁guinea	-13684
▁headqu	-13685
▁hearty	-13686
▁heroin	-13687
▁humble	-13688
▁hypnot	-13689
▁images	-13690
▁imagin	-13691
▁immort	-13692
▁inches	-13693
▁infant	-13694
▁insect	-13695
▁invade	-13696
▁ironic	-13697
▁issued	-13698
▁jailed	-13699
▁Burj	-13700
▁synt	-13701
▁tuba	-13702
▁yoga	-13703
Thanks	-13704
icitis	-13705
▁Champ	-13706
▁Owing	-13707
▁Prize	-13708
▁Sweet	-13709
▁Syria	-13710
▁amput	-13711
▁flaws	-13712
▁folks	-13713
▁frail	-13714
▁lunar	-13715
▁Bigger	-13716
▁Eleven	-13717
▁Heaven	-13718
▁System	-13719
▁Texans	-13720
▁Ticket	-13721
▁alleys	-13722
▁bikini	-13723
▁bustle	-13724
▁comedy	-13725
▁decode	-13726
▁dozing	-13727
▁ducked	-13728
▁elicit	-13729
▁juggle	-13730
▁kidnap	-13731
▁kisses	-13732
▁levels	-13733
▁lining	-13734
▁loaned	-13735
▁locals	-13736
▁locate	-13737
▁longed	-13738
▁loosen	-13739
▁lotion	-13740
▁maiden	-13741
▁majest	-13742
▁malice	-13743
▁maniac	-13744
▁marine	-13745
▁marked	-13746
▁marvel	-13747
▁meddle	-13748
▁medium	-13749
▁melons	-13750
▁metals	-13751
▁meteor	-13752
▁milked	-13753
▁mirage	-13754
▁mixing	-13755
▁mopped	-13756
▁mosque	-13757
▁mouths	-13758
▁mugged	-13759
▁multim	-13760
▁neatly	-13761
▁ninjas	-13762
▁obtain	-13763
▁olives	-13764
▁overem	-13765
▁overth	-13766
▁parted	-13767
▁pastor	-13768
▁pebble	-13769
▁peeked	-13770
▁perple	-13771
▁pester	-13772
▁pickle	-13773
▁piling	-13774
▁pliers	-13775
▁pooped	-13776
▁popped	-13777
▁prawns	-13778
▁prayer	-13779
▁preocc	-13780
▁primes	-13781
▁prompt	-13782
▁pumped	-13783
▁pushes	-13784
▁radios	-13785
▁reader	-13786
▁recite	-13787
▁relies	-13788
▁revolt	-13789
▁ridden	-13790
▁riddle	-13791
▁risers	-13792
▁rocker	-13793
▁rotted	-13794
▁rubble	-13795
▁ruling	-13796
▁sanded	-13797
▁sawing	-13798
▁scenes	-13799
impy	-13800
lifa	-13801
▁axe	-13802
track	-13803
urais	-13804
▁Glad	-13805
▁Loch	-13806
▁Much	-13807
▁duke	-13808
▁soda	-13809
▁util	-13810
▁wimp	-13811
legged	-13812
▁1864.	-13813
▁1964,	-13814
▁Akita	-13815
▁Binge	-13816
▁Books	-13817
▁Osamu	-13818
▁hubby	-13819
▁waxed	-13820
fourths	-13821
lifting	-13822
▁Buckle	-13823
▁Garlic	-13824
▁Hakata	-13825
▁Skiing	-13826
[...]
