<unk>	0
<s>	0
</s>	0
▁e	-0
▁a	-1
▁d	-2
er	-3
▁p	-4
ar	-5
▁c	-6
▁l	-7
en	-8
st	-9
ue	-10
os	-11
▁s	-12
▁m	-13
▁de	-14
▁t	-15
om	-16
▁q	-17
as	-18
do	-19
an	-20
▁T	-21
on	-22
es	-23
un	-24
or	-25
▁h	-26
▁n	-27
▁que	-28
▁Tom	-29
▁E	-30
▁est	-31
▁es	-32
re	-33
▁en	-34
▁v	-35
▁un	-36
ab	-37
▁la	-38
ci	-39
▁¿	-40
▁el	-41
in	-42
ad	-43
te	-44
▁no	-45
▁f	-46
▁N	-47
ía	-48
ien	-49
al	-50
▁M	-51
la	-52
▁con	-53
to	-54
▁se	-55
ra	-56
ui	-57
ro	-58
ta	-59
le	-60
▁No	-61
▁b	-62
▁El	-63
▁al	-64
ch	-65
▁ha	-66
▁L	-67
▁g	-68
ado	-69
▁su	-70
am	-71
ón	-72
go	-73
de	-74
ás	-75
▁me	-76
ir	-77
▁S	-78
▁com	-79
ol	-80
ic	-81
▁par	-82
▁mu	-83
▁una	-84
ie	-85
ero	-86
▁lo	-87
mp	-88
is	-89
ué	-90
▁Est	-91
aba	-92
di	-93
ente	-94
▁por	-95
▁está	-96
▁le	-97
oy	-98
▁y	-99
▁o	-100
ando	-101
▁É	-102
da	-103
▁Él	-104
▁A	-105
lo	-106
▁Mar	-107
res	-108
▁hab	-109
ri	-110
▁re	-111
ec	-112
▁P	-113
uer	-114
mos	-115
▁di	-116
▁te	-117
▁in	-118
ust	-119
ti	-120
▁Mary	-121
▁para	-122
jo	-123
▁mi	-124
cu	-125
▁los	-126
▁Es	-127
▁cu	-128
▁to	-129
vi	-130
ada	-131
▁qui	-132
▁vi	-133
dad	-134
▁Ella	-135
▁hac	-136
▁tu	-137
▁más	-138
▁C	-139
▁pue	-140
▁D	-141
▁Me	-142
tr	-143
▁per	-144
▁H	-145
▁ten	-146
▁las	-147
ca	-148
tar	-149
▁cas	-150
se	-151
ran	-152
▁tien	-153
gu	-154
▁i	-155
▁La	-156
era	-157
me	-158
co	-159
ción	-160
mo	-161
ma	-162
▁si	-163
▁po	-164
cho	-165
▁gust	-166
▁qué	-167
▁des	-168
▁tr	-169
ana	-170
iemp	-171
▁ver	-172
▁pro	-173
mi	-174
sta	-175
gun	-176
▁é	-177
ent	-178
▁ac	-179
▁hacer	-180
bre	-181
▁pre	-182
ste	-183
▁j	-184
▁ve	-185
▁Y	-186
▁muy	-187
li	-188
és	-189
án	-190
Qui	-191
vo	-192
▁del	-193
▁hi	-194
dos	-195
añ	-196
▁li	-197
eces	-198
bi	-199
lar	-200
qu	-201
▁sab	-202
amos	-203
us	-204
▁él	-205
▁pas	-206
mente	-207
▁comp	-208
Qué	-209
ora	-210
▁tiene	-211
▁pe	-212
ay	-213
▁r	-214
quí	-215
los	-216
ve	-217
ías	-218
▁casa	-219
tos	-220
▁co	-221
▁ir	-222
▁fue	-223
ap	-224
ver	-225
▁ex	-226
▁lle	-227
dar	-228
▁traba	-229
che	-230
▁an	-231
gar	-232
io	-233
▁ser	-234
▁V	-235
▁estaba	-236
▁esta	-237
▁tan	-238
▁aquí	-239
▁ay	-240
tes	-241
▁Yo	-242
▁fa	-243
▁como	-244
que	-245
▁he	-246
vor	-247
▁esc	-248
▁Ten	-249
én	-250
▁De	-251
▁ap	-252
ber	-253
▁esp	-254
▁nue	-255
▁favor	-256
▁cam	-257
▁son	-258
▁sal	-259
ten	-260
▁Mi	-261
iempo	-262
▁eso	-263
emos	-264
▁algo	-265
pi	-266
tra	-267
erm	-268
▁quier	-269
▁tiempo	-270
Cu	-271
ico	-272
des	-273
iendo	-274
ens	-275
▁gusta	-276
mas	-277
▁sol	-278
▁so	-279
uen	-280
▁Estoy	-281
der	-282
ño	-283
ecesi	-284
▁pr	-285
ble	-286
qui	-287
▁mis	-288
dr	-289
▁ni	-290
ce	-291
ante	-292
ano	-293
ga	-294
ica	-295
▁estu	-296
si	-297
cia	-298
▁To	-299
ños	-300
cion	-301
oso	-302
▁este	-303
tu	-304
▁ayu	-305
▁bien	-306
▁car	-307
▁Qui	-308
▁vez	-309
zo	-310
tas	-311
▁buen	-312
tó	-313
▁deci	-314
▁nada	-315
za	-316
▁ab	-317
ún	-318
▁todo	-319
adre	-320
▁mucho	-321
▁res	-322
▁lib	-323
▁can	-324
ja	-325
fi	-326
ter	-327
jar	-328
las	-329
sto	-330
▁Los	-331
▁enc	-332
▁as	-333
▁puedo	-334
▁cre	-335
▁ah	-336
▁pa	-337
▁ca	-338
▁era	-339
je	-340
Por	-341
ónde	-342
▁U	-343
unca	-344
▁tar	-345
añana	-346
▁quer	-347
▁Se	-348
ómo	-349
▁ch	-350
▁va	-351
▁imp	-352
▁B	-353
▁¡	-354
▁ven	-355
▁estar	-356
▁pregun	-357
dió	-358
▁esto	-359
ados	-360
▁cor	-361
▁lla	-362
▁ella	-363
ia	-364
▁dos	-365
▁trabajo	-366
ara	-367
▁Tengo	-368
▁hablar	-369
▁ar	-370
inero	-371
ido	-372
▁cuando	-373
▁sus	-374
▁quiero	-375
▁man	-376
▁puede	-377
▁ami	-378
▁dinero	-379
▁Quiero	-380
ren	-381
Cuán	-382
▁dijo	-383
▁du	-384
▁mañana	-385
ombre	-386
▁pi	-387
rar	-388
▁yo	-389
▁Lo	-390
▁Le	-391
das	-392
eron	-393
▁Tomás	-394
▁ti	-395
▁pero	-396
jor	-397
▁J	-398
lan	-399
▁tengo	-400
▁fuer	-401
ión	-402
va	-403
▁tra	-404
aría	-405
▁hay	-406
▁Un	-407
▁ci	-408
ino	-409
▁Si	-410
▁Te	-411
ros	-412
▁much	-413
▁estoy	-414
▁au	-415
iempre	-416
▁mejor	-417
▁men	-418
▁haber	-419
▁día	-420
▁ba	-421
amente	-422
▁En	-423
▁mal	-424
▁Ellos	-425
ost	-426
ece	-427
▁Por	-428
▁libro	-429
▁F	-430
cup	-431
almente	-432
▁Este	-433
▁pu	-434
▁ro	-435
▁todos	-436
▁deber	-437
ven	-438
▁estudi	-439
cil	-440
reo	-441
son	-442
▁mí	-443
oc	-444
tado	-445
▁cer	-446
ranc	-447
▁gran	-448
▁poco	-449
▁esper	-450
▁Su	-451
▁proble	-452
um	-453
▁decir	-454
▁necesi	-455
▁desp	-456
tros	-457
▁tom	-458
adie	-459
▁ent	-460
masi	-461
▁franc	-462
du	-463
▁cos	-464
▁herm	-465
▁vol	-466
▁están	-467
▁demasi	-468
tro	-469
▁años	-470
▁person	-471
▁cal	-472
ed	-473
fer	-474
▁quiere	-475
▁verdad	-476
ru	-477
cin	-478
▁emp	-479
ita	-480
▁Esta	-481
iento	-482
par	-483
▁dis	-484
▁nos	-485
▁francés	-486
▁encon	-487
lí	-488
jos	-489
ió	-490
▁María	-491
able	-492
▁Creo	-493
▁hace	-494
▁tarde	-495
▁padre	-496
▁demasiado	-497
▁había	-498
ras	-499
so	-500
▁sabe	-501
▁ju	-502
ina	-503
▁solo	-504
uel	-505
Pue	-506
il	-507
gl	-508
▁sin	-509
▁be	-510
▁ll	-511
ba	-512
ento	-513
▁hizo	-514
▁ust	-515
po	-516
▁sobre	-517
tor	-518
pa	-519
endo	-520
▁tres	-521
den	-522
▁antes	-523
▁am	-524
aron	-525
vía	-526
▁algun	-527
ac	-528
▁fe	-529
▁ahora	-530
gos	-531
rió	-532
▁O	-533
▁escri	-534
cio	-535
▁resp	-536
▁lu	-537
gui	-538
▁noche	-539
▁estado	-540
oston	-541
▁Boston	-542
guien	-543
▁quería	-544
▁ayudar	-545
▁hora	-546
▁sé	-547
▁comer	-548
gas	-549
ío	-550
▁Eso	-551
▁nuest	-552
ienes	-553
▁pens	-554
orm	-555
aré	-556
ice	-557
▁Hay	-558
▁siempre	-559
▁nunca	-560
ál	-561
ort	-562
▁Al	-563
▁tenía	-564
▁pri	-565
Est	-566
▁encontr	-567
▁R	-568
osotros	-569
enta	-570
▁toda	-571
jó	-572
be	-573
▁ma	-574
jer	-575
▁mo	-576
▁perro	-577
▁hombre	-578
▁estás	-579
dido	-580
▁reg	-581
▁sem	-582
▁mes	-583
▁auto	-584
▁segu	-585
Cómo	-586
tal	-587
▁ingl	-588
▁ga	-589
erto	-590
▁Pue	-591
▁ese	-592
gua	-593
dí	-594
no	-595
▁vida	-596
idad	-597
apa	-598
iene	-599
xi	-600
▁días	-601
▁ra	-602
Dónde	-603
▁prof	-604
lla	-605
▁inglés	-606
Quién	-607
▁nuevo	-608
▁hasta	-609
ciente	-610
gó	-611
▁usted	-612
ame	-613
▁rec	-614
▁Necesi	-615
ciones	-616
uela	-617
▁Las	-618
anas	-619
▁llam	-620
ró	-621
▁inter	-622
▁hoy	-623
tras	-624
uest	-625
ermin	-626
cha	-627
pe	-628
▁coche	-629
les	-630
▁gente	-631
zar	-632
ida	-633
▁esa	-634
Te	-635
dó	-636
dio	-637
▁hecho	-638
▁mismo	-639
ña	-640
▁Todos	-641
▁Ha	-642
▁llev	-643
▁problema	-644
dría	-645
leg	-646
▁gustaría	-647
gún	-648
▁or	-649
▁Esp	-650
▁cab	-651
▁dif	-652
Cuál	-653
▁madre	-654
ul	-655
▁He	-656
▁ya	-657
▁exp	-658
▁puer	-659
▁Esto	-660
ono	-661
▁habita	-662
im	-663
ció	-664
lti	-665
▁Sé	-666
▁pol	-667
▁semana	-668
No	-669
▁Par	-670
car	-671
liz	-672
▁Soy	-673
ena	-674
▁pes	-675
ciendo	-676
▁cono	-677
▁bo	-678
▁fin	-679
▁tú	-680
▁termin	-681
▁Pens	-682
undo	-683
bol	-684
▁plan	-685
bo	-686
▁Ya	-687
aban	-688
▁parece	-689
ís	-690
▁quieres	-691
▁habitación	-692
▁Sol	-693
onto	-694
▁Com	-695
ués	-696
tido	-697
▁otra	-698
▁I	-699
dia	-700
día	-701
▁min	-702
▁Nunca	-703
encia	-704
▁pasado	-705
▁puerta	-706
rante	-707
omb	-708
uso	-709
éis	-710
▁ne	-711
▁op	-712
▁así	-713
▁comprar	-714
▁debería	-715
▁ocup	-716
▁cómo	-717
▁quedar	-718
rado	-719
▁Deber	-720
▁ide	-721
▁saber	-722
▁escuela	-723
ario	-724
▁dónde	-725
cias	-726
tamente	-727
▁nadie	-728
ús	-729
▁ú	-730
gue	-731
van	-732
▁cosas	-733
▁quién	-734
lig	-735
▁oí	-736
ones	-737
▁bus	-738
▁prim	-739
▁apren	-740
▁has	-741
▁escu	-742
▁profes	-743
vir	-744
▁mundo	-745
▁amigos	-746
ores	-747
▁mon	-748
▁ol	-749
▁mar	-750
ili	-751
▁clas	-752
udad	-753
▁tienes	-754
migo	-755
ícil	-756
▁difícil	-757
▁ciudad	-758
sa	-759
▁sen	-760
cina	-761
▁Pensé	-762
▁niños	-763
▁dar	-764
▁vas	-765
rr	-766
▁voy	-767
▁feliz	-768
▁pal	-769
▁cin	-770
ápi	-771
▁Tu	-772
▁veces	-773
uerdo	-774
zó	-775
vis	-776
unto	-777
▁equi	-778
▁puedes	-779
▁hacerlo	-780
▁fie	-781
Cuándo	-782
▁dejar	-783
ales	-784
▁Cu	-785
tió	-786
▁allí	-787
▁fuera	-788
▁año	-789
▁hor	-790
▁ayuda	-791
▁menos	-792
▁mujer	-793
ían	-794
▁fr	-795
gado	-796
▁soy	-797
▁tus	-798
▁llegar	-799
té	-800
▁"	-801
ará	-802
tir	-803
erte	-804
▁niño	-805
▁habla	-806
▁otro	-807
▁Necesito	-808
rec	-809
▁habl	-810
▁sabía	-811
▁últi	-812
▁entr	-813
▁idea	-814
▁may	-815
▁hu	-816
▁uno	-817
▁dio	-818
▁pien	-819
▁tele	-820
▁Solo	-821
osi	-822
▁die	-823
▁pon	-824
▁G	-825
nos	-826
▁ob	-827
▁mir	-828
▁agua	-829
▁amigo	-830
▁buena	-831
oh	-832
osa	-833
▁empe	-834
▁acer	-835
dente	-836
▁cambi	-837
▁seguro	-838
▁ayer	-839
▁Voy	-840
▁visto	-841
▁her	-842
▁Está	-843
▁condu	-844
▁pronto	-845
ólo	-846
▁Di	-847
▁sue	-848
ár	-849
lic	-850
▁us	-851
▁vis	-852
▁olvi	-853
▁sent	-854
▁Nos	-855
▁tren	-856
▁comida	-857
▁conmigo	-858
▁bi	-859
▁na	-860
cado	-861
▁después	-862
antes	-863
ohn	-864
dado	-865
▁nin	-866
▁John	-867
▁persona	-868
ur	-869
orta	-870
▁caf	-871
▁rápi	-872
▁desde	-873
▁volver	-874
lé	-875
▁nosotros	-876
▁Ah	-877
▁ag	-878
mb	-879
▁vuel	-880
▁nombre	-881
▁personas	-882
▁conse	-883
▁lun	-884
Puedo	-885
ré	-886
cas	-887
▁escuch	-888
vió	-889
▁ahí	-890
▁Eres	-891
▁temp	-892
▁vino	-893
▁fiesta	-894
▁alguien	-895
▁hermano	-896
▁fam	-897
▁conti	-898
▁café	-899
▁Nadie	-900
▁cui	-901
iente	-902
▁hici	-903
▁tener	-904
▁levan	-905
▁fá	-906
rad	-907
De	-908
▁Hab	-909
▁alguna	-910
ces	-911
udo	-912
▁cul	-913
▁sufi	-914
▁mayor	-915
▁famili	-916
▁contigo	-917
▁lugar	-918
▁haciendo	-919
uesta	-920
▁interes	-921
Me	-922
oria	-923
pren	-924
▁discu	-925
▁Q	-926
zón	-927
▁casi	-928
▁entre	-929
▁minu	-930
▁conoc	-931
Es	-932
▁Des	-933
▁cans	-934
▁carta	-935
▁durante	-936
▁encontrar	-937
▁ún	-938
▁Jap	-939
▁leer	-940
▁dice	-941
▁invi	-942
▁Tenemos	-943
▁profesor	-944
bes	-945
▁sor	-946
▁Japón	-947
▁err	-948
▁mom	-949
▁tam	-950
▁podía	-951
▁suficiente	-952
demos	-953
▁Ahora	-954
ocup	-955
▁libros	-956
jas	-957
ote	-958
sti	-959
ere	-960
eres	-961
▁les	-962
▁Todo	-963
▁salir	-964
▁1	-965
▁pres	-966
icía	-967
▁inc	-968
▁clase	-969
▁ocu	-970
▁cama	-971
▁peque	-972
▁sea	-973
arme	-974
ome	-975
▁z	-976
▁ad	-977
▁fo	-978
▁Con	-979
▁pad	-980
▁palab	-981
▁nad	-982
▁pie	-983
llos	-984
▁gan	-985
▁hist	-986
▁muchos	-987
ne	-988
▁mie	-989
entes	-990
▁tanto	-991
▁todas	-992
▁grande	-993
▁enfer	-994
▁podría	-995
alo	-996
▁acerca	-997
▁visi	-998
Cuánto	-999
▁cuenta	-1000
▁momento	-1001
▁fal	-1002
el	-1003
anos	-1004
▁jue	-1005
▁cuán	-1006
onde	-1007
▁preocup	-1008
icos	-1009
ér	-1010
▁porque	-1011
bir	-1012
iste	-1013
▁Ese	-1014
▁Hoy	-1015
▁Cuando	-1016
▁padres	-1017
▁Tú	-1018
▁via	-1019
▁diez	-1020
eci	-1021
▁hermana	-1022
zco	-1023
fono	-1024
▁come	-1025
▁cerca	-1026
▁ellos	-1027
▁Tienes	-1028
▁problemas	-1029
▁vie	-1030
davía	-1031
▁creo	-1032
▁fácil	-1033
▁jo	-1034
guir	-1035
jado	-1036
▁telé	-1037
▁enten	-1038
▁televis	-1039
ortun	-1040
▁ense	-1041
▁rápido	-1042
Po	-1043
▁bueno	-1044
gn	-1045
gra	-1046
▁acci	-1047
▁lunes	-1048
▁todavía	-1049
isa	-1050
mple	-1051
▁teléfono	-1052
dir	-1053
▁enf	-1054
▁pla	-1055
▁pasó	-1056
▁hijo	-1057
▁policía	-1058
quier	-1059
▁mucha	-1060
▁Vi	-1061
Estás	-1062
ám	-1063
cer	-1064
▁sido	-1065
▁horas	-1066
▁realmente	-1067
bién	-1068
▁vay	-1069
▁eres	-1070
▁Deberías	-1071
▁Fue	-1072
▁vivir	-1073
▁pudo	-1074
▁tomar	-1075
▁Ay	-1076
▁sec	-1077
▁gustan	-1078
▁familia	-1079
▁extra	-1080
▁import	-1081
▁In	-1082
▁dorm	-1083
▁encan	-1084
▁Estaba	-1085
▁cada	-1086
▁joven	-1087
▁necesita	-1088
▁ta	-1089
ecto	-1090
▁vent	-1091
▁acuerdo	-1092
▁jun	-1093
▁reun	-1094
▁jugar	-1095
▁muchas	-1096
▁historia	-1097
vos	-1098
▁trabajar	-1099
Sab	-1100
▁os	-1101
tent	-1102
▁inf	-1103
Tienes	-1104
▁venir	-1105
▁Estamos	-1106
▁pasa	-1107
eras	-1108
▁inten	-1109
▁cosa	-1110
▁puso	-1111
ale	-1112
tando	-1113
▁pelí	-1114
▁Espero	-1115
▁país	-1116
▁pelícu	-1117
bió	-1118
ger	-1119
por	-1120
▁bast	-1121
▁dejó	-1122
▁tuvo	-1123
▁vive	-1124
▁gra	-1125
entro	-1126
ari	-1127
cir	-1128
▁Esa	-1129
adas	-1130
▁contra	-1131
▁siento	-1132
Quieres	-1133
can	-1134
arte	-1135
guna	-1136
via	-1137
icas	-1138
▁qu	-1139
dico	-1140
▁lar	-1141
▁mano	-1142
▁tempran	-1143
▁gu	-1144
▁ban	-1145
▁accidente	-1146
gan	-1147
▁fl	-1148
Puedes	-1149
leta	-1150
▁cual	-1151
▁murió	-1152
▁Siempre	-1153
olor	-1154
▁mesa	-1155
osible	-1156
▁donde	-1157
▁nuestro	-1158
▁ocupado	-1159
▁aprender	-1160
▁bol	-1161
▁cinco	-1162
▁estaban	-1163
▁nuestra	-1164
▁temprano	-1165
▁menudo	-1166
▁televisión	-1167
▁ley	-1168
▁comen	-1169
tón	-1170
idos	-1171
▁gato	-1172
▁respon	-1173
▁alm	-1174
▁mús	-1175
▁nadar	-1176
▁pasar	-1177
▁hubi	-1178
▁pregunta	-1179
▁consi	-1180
▁Re	-1181
▁llo	-1182
▁parte	-1183
arse	-1184
▁Todavía	-1185
▁bastante	-1186
▁Pre	-1187
▁fun	-1188
lado	-1189
orma	-1190
quiera	-1191
▁dormir	-1192
▁también	-1193
tivo	-1194
▁beb	-1195
drá	-1196
▁Mu	-1197
▁arre	-1198
tura	-1199
▁jap	-1200
alidad	-1201
zado	-1202
▁pelig	-1203
▁pidió	-1204
▁camino	-1205
▁tienen	-1206
▁ofi	-1207
▁pró	-1208
cando	-1209
▁última	-1210
▁sí	-1211
▁estudiar	-1212
▁llor	-1213
▁viene	-1214
ientras	-1215
▁minutos	-1216
año	-1217
▁rom	-1218
▁zapa	-1219
▁fuerte	-1220
Has	-1221
cic	-1222
pon	-1223
▁dic	-1224
▁próxi	-1225
00	-1226
dé	-1227
if	-1228
▁camin	-1229
▁pin	-1230
▁dicho	-1231
▁estación	-1232
erta	-1233
▁pelo	-1234
▁razón	-1235
▁lado	-1236
▁Parece	-1237
át	-1238
▁cansado	-1239
▁Ayer	-1240
▁conf	-1241
▁creer	-1242
▁miedo	-1243
▁parec	-1244
pen	-1245
▁enseñ	-1246
tin	-1247
▁rep	-1248
▁dese	-1249
ría	-1250
arto	-1251
▁bar	-1252
▁dije	-1253
▁equivo	-1254
▁preguntó	-1255
▁Una	-1256
▁fui	-1257
legio	-1258
▁sola	-1259
verdad	-1260
▁cabe	-1261
▁sorpren	-1262
ea	-1263
ral	-1264
▁af	-1265
▁colegio	-1266
abas	-1267
▁pap	-1268
llo	-1269
ves	-1270
▁alto	-1271
▁tipo	-1272
drías	-1273
cep	-1274
▁pá	-1275
uelo	-1276
▁importante	-1277
ientes	-1278
▁hijos	-1279
▁intent	-1280
▁zapatos	-1281
dor	-1282
▁mé	-1283
▁fum	-1284
▁ventana	-1285
▁han	-1286
▁rob	-1287
▁tal	-1288
▁ter	-1289
▁vio	-1290
▁agrad	-1291
▁fu	-1292
tran	-1293
na	-1294
cost	-1295
▁frío	-1296
cicleta	-1297
▁hablando	-1298
▁dom	-1299
▁apar	-1300
▁música	-1301
▁aque	-1302
▁Nuest	-1303
br	-1304
loj	-1305
▁ár	-1306
chos	-1307
▁ano	-1308
▁limp	-1309
ito	-1310
▁debe	-1311
▁reloj	-1312
▁película	-1313
cios	-1314
sión	-1315
▁Ven	-1316
▁tri	-1317
lares	-1318
▁oficina	-1319
▁estudiantes	-1320
tí	-1321
ist	-1322
siera	-1323
▁mientras	-1324
ll	-1325
▁oír	-1326
éj	-1327
tan	-1328
▁capa	-1329
▁foto	-1330
▁importa	-1331
▁vo	-1332
taba	-1333
▁ido	-1334
taron	-1335
▁prop	-1336
▁error	-1337
▁punto	-1338
▁compró	-1339
▁esperar	-1340
con	-1341
Sabes	-1342
▁extran	-1343
▁prepar	-1344
▁trabaj	-1345
▁reunión	-1346
▁salu	-1347
▁acost	-1348
▁juntos	-1349
olver	-1350
▁algún	-1351
▁cabeza	-1352
▁bicicleta	-1353
ge	-1354
ya	-1355
var	-1356
illo	-1357
omos	-1358
▁ech	-1359
▁ojos	-1360
▁prob	-1361
▁unos	-1362
▁estamos	-1363
▁esperando	-1364
anto	-1365
uido	-1366
▁edad	-1367
▁seis	-1368
▁perder	-1369
ayun	-1370
▁tenemos	-1371
▁escribir	-1372
▁mor	-1373
▁corr	-1374
▁medi	-1375
▁reci	-1376
erra	-1377
▁gol	-1378
▁sólo	-1379
▁domin	-1380
▁tenis	-1381
ion	-1382
rob	-1383
mero	-1384
▁nie	-1385
▁hice	-1386
▁Puede	-1387
▁entender	-1388
per	-1389
▁nú	-1390
ormi	-1391
▁Son	-1392
▁manz	-1393
▁secre	-1394
▁árbol	-1395
▁podemos	-1396
▁Fui	-1397
▁bes	-1398
▁atra	-1399
▁hacia	-1400
▁len	-1401
▁val	-1402
diendo	-1403
miento	-1404
▁nueva	-1405
▁único	-1406
▁anoche	-1407
▁primera	-1408
▁deberías	-1409
▁Po	-1410
▁aún	-1411
▁homb	-1412
Hay	-1413
▁dó	-1414
▁dij	-1415
▁llegó	-1416
▁prest	-1417
▁Puedes	-1418
gió	-1419
▁avi	-1420
▁Quer	-1421
▁misma	-1422
▁buscando	-1423
▁ri	-1424
mbre	-1425
vidad	-1426
▁direc	-1427
▁sueño	-1428
▁viejo	-1429
▁estuvo	-1430
▁Estados	-1431
▁canción	-1432
fe	-1433
gi	-1434
▁da	-1435
▁col	-1436
gando	-1437
▁Tiene	-1438
▁media	-1439
▁compañ	-1440
▁esposa	-1441
cido	-1442
jero	-1443
trás	-1444
usto	-1445
▁Lle	-1446
▁Per	-1447
ación	-1448
bamos	-1449
▁dormi	-1450
▁escon	-1451
▁ganas	-1452
▁fueron	-1453
▁desayun	-1454
tad	-1455
▁ce	-1456
tera	-1457
▁caja	-1458
▁diver	-1459
▁dolor	-1460
Está	-1461
atro	-1462
▁queda	-1463
▁verte	-1464
▁Unidos	-1465
▁hue	-1466
▁río	-1467
uerra	-1468
▁acab	-1469
▁Puedo	-1470
▁difer	-1471
▁visitar	-1472
viendo	-1473
▁chico	-1474
gen	-1475
ador	-1476
▁dej	-1477
▁autob	-1478
sas	-1479
▁cen	-1480
▁cons	-1481
ustral	-1482
▁calle	-1483
▁palabra	-1484
▁Na	-1485
llas	-1486
▁pan	-1487
▁conducir	-1488
▁2	-1489
▁dist	-1490
▁hote	-1491
▁verano	-1492
▁cualquier	-1493
oma	-1494
▁sa	-1495
▁Sab	-1496
▁avión	-1497
▁enfad	-1498
▁hermos	-1499
▁número	-1500
▁pensar	-1501
▁aver	-1502
▁bajo	-1503
▁conven	-1504
▁Ac	-1505
guas	-1506
▁aleg	-1507
racias	-1508
▁fumar	-1509
▁ace	-1510
▁sac	-1511
▁Sólo	-1512
▁anim	-1513
▁oído	-1514
▁llave	-1515
▁ningún	-1516
▁necesito	-1517
▁hos	-1518
▁blan	-1519
▁lleva	-1520
▁pagar	-1521
▁resul	-1522
▁tienda	-1523
▁dólares	-1524
▁respuesta	-1525
▁doc	-1526
▁Aquí	-1527
▁leche	-1528
▁orden	-1529
▁autobús	-1530
▁Era	-1531
▁gen	-1532
▁ocur	-1533
▁usar	-1534
▁chica	-1535
▁cuarto	-1536
▁estuvi	-1537
ustralia	-1538
▁funcion	-1539
▁Australia	-1540
Al	-1541
▁Estu	-1542
▁noti	-1543
▁confi	-1544
▁hotel	-1545
▁lejos	-1546
▁interesante	-1547
."	-1548
eo	-1549
▁Ch	-1550
erno	-1551
iver	-1552
▁bebé	-1553
▁pudi	-1554
▁comple	-1555
▁manera	-1556
▁hubiera	-1557
yo	-1558
vas	-1559
pital	-1560
▁cost	-1561
▁pueda	-1562
▁hospital	-1563
años	-1564
▁cám	-1565
▁aten	-1566
▁cree	-1567
▁médico	-1568
▁perdido	-1569
En	-1570
▁az	-1571
▁br	-1572
▁Déj	-1573
▁tre	-1574
▁Estás	-1575
▁cocin	-1576
▁estos	-1577
▁terminar	-1578
rá	-1579
▁vaca	-1580
▁vest	-1581
▁pueden	-1582
▁Gracias	-1583
cri	-1584
man	-1585
úpi	-1586
▁Debes	-1587
▁capaz	-1588
▁emple	-1589
▁salió	-1590
lá	-1591
▁mío	-1592
ordar	-1593
tener	-1594
▁oscu	-1595
▁será	-1596
▁quedó	-1597
bido	-1598
▁pedir	-1599
▁cierto	-1600
▁parque	-1601
▁algunas	-1602
▁Nosotros	-1603
▁cri	-1604
▁deb	-1605
gamos	-1606
uesto	-1607
▁acon	-1608
▁estúpi	-1609
▁Quisiera	-1610
edes	-1611
▁vista	-1612
▁algunos	-1613
ali	-1614
iso	-1615
one	-1616
▁haga	-1617
▁hija	-1618
▁ropa	-1619
▁cabal	-1620
adamente	-1621
▁iba	-1622
▁Para	-1623
▁manos	-1624
▁cámara	-1625
▁Debería	-1626
▁preguntas	-1627
ír	-1628
jal	-1629
guió	-1630
▁cap	-1631
▁esté	-1632
ientos	-1633
▁guerra	-1634
▁permi	-1635
▁poner	-1636
▁quien	-1637
Le	-1638
▁do	-1639
▁dir	-1640
adien	-1641
▁Comp	-1642
▁acep	-1643
▁cara	-1644
▁inte	-1645
▁libre	-1646
▁salud	-1647
▁regalo	-1648
▁encanta	-1649
▁canadien	-1650
▁dec	-1651
▁Algun	-1652
▁correc	-1653
▁univer	-1654
▁enfermo	-1655
qué	-1656
inta	-1657
jalá	-1658
damente	-1659
▁muerte	-1660
▁Alguien	-1661
▁Navidad	-1662
▁té	-1663
▁gui	-1664
▁jar	-1665
▁luz	-1666
▁pier	-1667
▁suce	-1668
▁solía	-1669
▁cumple	-1670
▁acostum	-1671
▁ninguna	-1672
▁vacaciones	-1673
lu	-1674
▁Tok	-1675
▁juego	-1676
▁listo	-1677
▁realidad	-1678
Tom	-1679
▁dere	-1680
▁mole	-1681
▁desper	-1682
▁conozco	-1683
bli	-1684
tis	-1685
graf	-1686
ular	-1687
▁ele	-1688
▁gri	-1689
mento	-1690
▁most	-1691
▁Había	-1692
▁doctor	-1693
▁hambre	-1694
▁oportun	-1695
inci	-1696
▁bor	-1697
▁cru	-1698
▁evi	-1699
torio	-1700
tiendo	-1701
▁beber	-1702
▁calor	-1703
▁tocar	-1704
Cuántos	-1705
▁lengua	-1706
▁consejo	-1707
▁hombres	-1708
▁pequeño	-1709
▁posible	-1710
▁ustedes	-1711
ini	-1712
▁bon	-1713
tamos	-1714
▁duro	-1715
▁tuvi	-1716
▁forma	-1717
▁intelig	-1718
▁pregunto	-1719
có	-1720
cos	-1721
▁fi	-1722
▁cie	-1723
▁Uste	-1724
▁caus	-1725
▁vaya	-1726
▁Tokio	-1727
▁sabes	-1728
▁secreto	-1729
ló	-1730
olu	-1731
eció	-1732
eros	-1733
remos	-1734
▁haya	-1735
▁perf	-1736
▁pude	-1737
▁Ojalá	-1738
▁despi	-1739
▁prome	-1740
▁perdió	-1741
▁perros	-1742
tri	-1743
▁ade	-1744
▁descu	-1745
▁vuelta	-1746
▁oportunidad	-1747
▁acá	-1748
uerzo	-1749
▁malo	-1750
▁niña	-1751
▁somb	-1752
▁Vamos	-1753
▁flores	-1754
▁bai	-1755
▁enam	-1756
▁largo	-1757
▁siquiera	-1758
▁cumpleaños	-1759
▁sie	-1760
entos	-1761
▁tomó	-1762
▁cerve	-1763
▁hagas	-1764
▁viaje	-1765
▁aconse	-1766
▁u	-1767
Con	-1768
ensa	-1769
▁abo	-1770
▁veo	-1771
▁vos	-1772
▁Deja	-1773
▁llen	-1774
▁rico	-1775
▁vamos	-1776
▁cantar	-1777
▁llover	-1778
▁suerte	-1779
▁terminado	-1780
dida	-1781
ería	-1782
onés	-1783
▁exac	-1784
▁exam	-1785
▁crees	-1786
▁culpa	-1787
▁medio	-1788
ñas	-1789
amás	-1790
ueva	-1791
tarme	-1792
▁conci	-1793
▁escal	-1794
▁enamor	-1795
▁entrar	-1796
▁regres	-1797
▁japonés	-1798
adu	-1799
▁Mis	-1800
▁tío	-1801
▁encu	-1802
▁banco	-1803
gué	-1804
ído	-1805
▁Pas	-1806
dedor	-1807
▁ruido	-1808
▁explic	-1809
stos	-1810
▁edi	-1811
cidad	-1812
ramos	-1813
uerda	-1814
▁abri	-1815
▁ment	-1816
iencia	-1817
▁monta	-1818
▁novia	-1819
▁otros	-1820
▁volvió	-1821
▁cerveza	-1822
▁cuidado	-1823
▁eng	-1824
▁cena	-1825
▁unas	-1826
▁palabras	-1827
▁pensando	-1828
▁estudiante	-1829
tio	-1830
tbol	-1831
▁agu	-1832
▁har	-1833
▁pod	-1834
▁conta	-1835
▁nieve	-1836
▁cocina	-1837
▁extraño	-1838
▁próximo	-1839
▁K	-1840
men	-1841
▁ho	-1842
arlo	-1843
▁allá	-1844
▁arro	-1845
▁orgu	-1846
▁poder	-1847
▁equipo	-1848
▁hiciste	-1849
▁parecía	-1850
▁encontra	-1851
ici	-1852
▁sos	-1853
▁van	-1854
▁nego	-1855
▁llama	-1856
▁conver	-1857
▁quieras	-1858
▁compañía	-1859
Cre	-1860
don	-1861
tud	-1862
▁rela	-1863
▁pájar	-1864
▁tarea	-1865
▁asunto	-1866
yó	-1867
dando	-1868
▁clar	-1869
urante	-1870
▁Esper	-1871
▁falta	-1872
▁contar	-1873
dré	-1874
mon	-1875
onces	-1876
▁Hace	-1877
▁cuatro	-1878
▁cuándo	-1879
▁trabaja	-1880
▁asi	-1881
▁hum	-1882
▁amor	-1883
▁vari	-1884
▁diccion	-1885
▁mujeres	-1886
Quer	-1887
gnif	-1888
▁abi	-1889
▁abr	-1890
▁cay	-1891
▁eno	-1892
▁llu	-1893
▁anci	-1894
dieron	-1895
▁almor	-1896
▁examen	-1897
▁universi	-1898
▁nove	-1899
▁edifi	-1900
▁famos	-1901
▁limpi	-1902
▁Déjame	-1903
▁princi	-1904
▁decidió	-1905
▁canadiense	-1906
▁extranjero	-1907
▁Tuve	-1908
▁bibli	-1909
▁conoce	-1910
▁llamar	-1911
▁puesto	-1912
▁conseguir	-1913
acio	-1914
▁apa	-1915
▁const	-1916
▁justo	-1917
▁piano	-1918
▁resta	-1919
▁vestido	-1920
▁bibliote	-1921
▁equivocado	-1922
ire	-1923
stas	-1924
utado	-1925
▁bote	-1926
▁lista	-1927
▁vuest	-1928
▁piensa	-1929
▁pequeña	-1930
▁decisión	-1931
zas	-1932
▁acu	-1933
▁idi	-1934
tarse	-1935
▁Pien	-1936
amento	-1937
▁gatos	-1938
▁guitar	-1939
▁montón	-1940
▁tenido	-1941
▁orgullos	-1942
dín	-1943
eta	-1944
vio	-1945
rero	-1946
▁Haz	-1947
▁ima	-1948
▁éxi	-1949
▁alre	-1950
▁biblioteca	-1951
▁trabajando	-1952
▁diccionario	-1953
▁fú	-1954
▁rad	-1955
media	-1956
▁opin	-1957
▁pele	-1958
▁matar	-1959
▁única	-1960
▁entien	-1961
▁fútbol	-1962
▁jardín	-1963
▁signif	-1964
▁Nuestro	-1965
ablemente	-1966
▁entiendo	-1967
anza	-1968
roso	-1969
▁eran	-1970
▁carne	-1971
▁fuego	-1972
▁éxito	-1973
▁dentro	-1974
▁empezó	-1975
▁inmedia	-1976
▁primero	-1977
▁abs	-1978
▁mer	-1979
fiero	-1980
▁cuch	-1981
▁golpe	-1982
▁seguir	-1983
▁estabas	-1984
til	-1985
▁Cas	-1986
▁Sus	-1987
▁vivo	-1988
▁clases	-1989
▁lluvia	-1990
▁computado	-1991
tic	-1992
▁dur	-1993
▁Dame	-1994
▁guar	-1995
▁situ	-1996
Podrías	-1997
▁cuánto	-1998
▁llevar	-1999
▁primer	-2000
▁errores	-2001
▁exactamente	-2002
▁restaurante	-2003
0.	-2004
rso	-2005
▁"¿	-2006
fico	-2007
▁ases	-2008
▁cora	-2009
▁mala	-2010
▁frente	-2011
▁muerto	-2012
▁caminar	-2013
▁leyendo	-2014
▁edificio	-2015
▁sombrero	-2016
▁preguntar	-2017
bu	-2018
ese	-2019
fri	-2020
ios	-2021
chas	-2022
▁bra	-2023
▁sería	-2024
▁Mañana	-2025
▁treinta	-2026
▁acostumb	-2027
▁atención	-2028
▁encontró	-2029
▁escuchar	-2030
▁favorito	-2031
▁alrededor	-2032
gro	-2033
illa	-2034
▁Tra	-2035
▁due	-2036
▁gal	-2037
▁béis	-2038
▁loco	-2039
▁cenar	-2040
▁camisa	-2041
▁béisbol	-2042
▁pasando	-2043
▁inteligente	-2044
pas	-2045
▁Ve	-2046
cial	-2047
lica	-2048
rada	-2049
tico	-2050
▁Sos	-2051
▁bal	-2052
▁baño	-2053
▁siete	-2054
▁blanco	-2055
▁llorar	-2056
▁abogado	-2057
▁jugando	-2058
▁quieren	-2059
▁concierto	-2060
?"	-2061
▁3	-2062
tre	-2063
▁Pon	-2064
▁ale	-2065
▁sitio	-2066
▁esperaba	-2067
▁paraguas	-2068
▁estudiando	-2069
pó	-2070
len	-2071
▁Casi	-2072
▁norm	-2073
▁exper	-2074
▁Pienso	-2075
▁conten	-2076
▁discul	-2077
▁decirle	-2078
▁dormido	-2079
▁guitarra	-2080
▁dirección	-2081
hi	-2082
amá	-2083
▁19	-2084
culo	-2085
▁Man	-2086
ancia	-2087
zando	-2088
▁aire	-2089
▁amar	-2090
▁caso	-2091
▁disf	-2092
▁peor	-2093
▁tran	-2094
▁propi	-2095
▁rompi	-2096
▁segun	-2097
▁mentir	-2098
▁peligro	-2099
▁sentido	-2100
▁animales	-2101
▁Ano	-2102
ridad	-2103
▁cayó	-2104
▁esca	-2105
▁taza	-2106
puesto	-2107
▁radio	-2108
▁regal	-2109
▁aconsejó	-2110
▁encontré	-2111
Ten	-2112
gin	-2113
▁lá	-2114
▁Deb	-2115
▁Que	-2116
▁mía	-2117
▁ren	-2118
diste	-2119
ienen	-2120
▁cuanto	-2121
▁almuerzo	-2122
▁necesitas	-2123
est	-2124
▁Ni	-2125
▁Dis	-2126
▁san	-2127
▁tor	-2128
tados	-2129
▁elec	-2130
▁comió	-2131
▁debes	-2132
▁despe	-2133
▁estas	-2134
▁hemos	-2135
▁impor	-2136
▁abuelo	-2137
▁pasada	-2138
▁vendrá	-2139
▁deberes	-2140
Eres	-2141
andon	-2142
▁admi	-2143
▁miró	-2144
▁suel	-2145
▁tras	-2146
▁final	-2147
▁morir	-2148
▁piensas	-2149
▁Realmente	-2150
▁responder	-2151
▁situación	-2152
rí	-2153
▁Rec	-2154
▁ene	-2155
▁lin	-2156
▁abrir	-2157
▁barco	-2158
▁llamó	-2159
▁llegue	-2160
cen	-2161
▁lí	-2162
segu	-2163
▁tro	-2164
▁dest	-2165
▁bailar	-2166
▁estará	-2167
▁consider	-2168
▁estúpido	-2169
▁completamente	-2170
dic	-2171
caso	-2172
gres	-2173
lidad	-2174
▁Odio	-2175
▁irme	-2176
▁rato	-2177
▁Están	-2178
▁ganar	-2179
▁haría	-2180
▁rompió	-2181
▁siendo	-2182
▁opinión	-2183
gir	-2184
tur	-2185
▁As	-2186
raba	-2187
▁Sal	-2188
▁emb	-2189
▁igu	-2190
cción	-2191
▁taxi	-2192
▁arreg	-2193
▁entró	-2194
▁perió	-2195
▁conoci	-2196
▁dijiste	-2197
tá	-2198
cto	-2199
zos	-2200
uera	-2201
▁anti	-2202
▁ladr	-2203
▁pedí	-2204
▁París	-2205
▁digas	-2206
▁produ	-2207
▁Compré	-2208
▁descan	-2209
▁japones	-2210
▁recordar	-2211
▁resolver	-2212
▁je	-2213
▁dem	-2214
▁ins	-2215
uerto	-2216
▁Acab	-2217
▁aero	-2218
▁ello	-2219
▁ocul	-2220
▁playa	-2221
▁sentó	-2222
▁Quería	-2223
▁dispar	-2224
▁minuto	-2225
▁pienso	-2226
▁hermosa	-2227
▁ayudarte	-2228
▁intentar	-2229
▁universidad	-2230
ín	-2231
cel	-2232
eme	-2233
esa	-2234
stim	-2235
tación	-2236
▁Somos	-2237
▁empie	-2238
▁especi	-2239
▁triste	-2240
▁último	-2241
▁Co	-2242
drás	-2243
tuvo	-2244
vado	-2245
▁inv	-2246
rible	-2247
▁lago	-2248
▁pase	-2249
▁peso	-2250
▁vaso	-2251
▁aerop	-2252
▁alcan	-2253
▁atrás	-2254
▁llega	-2255
▁neces	-2256
▁papel	-2257
▁sopor	-2258
▁terminó	-2259
▁peligroso	-2260
▁suficientemente	-2261
vó	-2262
ond	-2263
aran	-2264
▁ado	-2265
▁Fran	-2266
▁abur	-2267
▁boca	-2268
▁desa	-2269
▁haré	-2270
▁jamás	-2271
▁meses	-2272
▁tradu	-2273
▁vayas	-2274
▁vecin	-2275
▁cambiar	-2276
▁empezar	-2277
▁invierno	-2278
▁imposible	-2279
ori	-2280
usi	-2281
uego	-2282
▁Lond	-2283
▁sala	-2284
▁asust	-2285
▁viven	-2286
▁Muchos	-2287
▁Londres	-2288
▁grandes	-2289
▁mayoría	-2290
▁montaña	-2291
▁princip	-2292
▁divertido	-2293
▁aeropuerto	-2294
▁intentando	-2295
bí	-2296
min	-2297
▁Pr	-2298
▁Aún	-2299
▁def	-2300
▁voz	-2301
quina	-2302
vimos	-2303
▁actu	-2304
▁cine	-2305
▁pena	-2306
▁mensa	-2307
▁casado	-2308
▁comido	-2309
▁venido	-2310
omp	-2311
guno	-2312
Crees	-2313
▁Como	-2314
▁Debo	-2315
▁China	-2316
▁acaba	-2317
▁aquel	-2318
▁dejes	-2319
▁habría	-2320
▁huevos	-2321
▁abandon	-2322
▁ocupada	-2323
▁próxima	-2324
▁cuchillo	-2325
mát	-2326
uro	-2327
▁Am	-2328
ervi	-2329
resa	-2330
tica	-2331
▁cli	-2332
Puede	-2333
lices	-2334
▁Desp	-2335
▁alim	-2336
▁apro	-2337
▁culp	-2338
▁cump	-2339
▁debo	-2340
▁envi	-2341
▁Encon	-2342
▁pieza	-2343
Cuántas	-2344
▁llaves	-2345
▁manzanas	-2346
▁nuestros	-2347
▁paciente	-2348
úb	-2349
dan	-2350
bles	-2351
▁bil	-2352
pongo	-2353
▁borra	-2354
▁abrigo	-2355
▁entonces	-2356
áb	-2357
tén	-2358
orte	-2359
▁Dej	-2360
dados	-2361
érica	-2362
Querés	-2363
onozco	-2364
▁averi	-2365
▁estre	-2366
▁viajar	-2367
▁Prefiero	-2368
▁importar	-2369
▁respecto	-2370
▁escritorio	-2371
Tú	-2372
▁An	-2373
▁of	-2374
ecer	-2375
orme	-2376
rido	-2377
tiva	-2378
medad	-2379
▁polí	-2380
▁Hemos	-2381
▁Tenía	-2382
▁abrió	-2383
▁corre	-2384
▁fotos	-2385
▁somos	-2386
cionado	-2387
▁Estaré	-2388
▁cuesta	-2389
▁Después	-2390
▁corriendo	-2391
ka	-2392
▁5	-2393
ches	-2394
omas	-2395
▁fru	-2396
▁cien	-2397
▁carro	-2398
▁causa	-2399
▁silla	-2400
▁Anoche	-2401
▁compar	-2402
▁manzana	-2403
▁comprado	-2404
gía	-2405
esia	-2406
▁Can	-2407
▁Emp	-2408
▁fre	-2409
unque	-2410
▁deba	-2411
▁diga	-2412
▁prom	-2413
▁prue	-2414
▁tuve	-2415
▁lleno	-2416
▁nervi	-2417
▁pobre	-2418
▁satis	-2419
▁amable	-2420
▁corazón	-2421
▁siguien	-2422
▁hermanos	-2423
▁quedarme	-2424
Se	-2425
gü	-2426
▁Ap	-2427
▁dev	-2428
▁irse	-2429
▁reco	-2430
Alguna	-2431
▁clima	-2432
▁depor	-2433
▁duele	-2434
▁presi	-2435
▁sigue	-2436
▁venga	-2437
▁chicos	-2438
▁contin	-2439
▁felices	-2440
▁hiciera	-2441
▁partido	-2442
▁pescado	-2443
▁mantener	-2444
▁noticias	-2445
▁recuerdo	-2446
Lo	-2447
Vas	-2448
arle	-2449
enas	-2450
▁púb	-2451
tería	-2452
▁jefe	-2453
▁ocho	-2454
▁pris	-2455
▁Usted	-2456
▁bille	-2457
▁cielo	-2458
▁engañ	-2459
▁pensó	-2460
▁senti	-2461
▁trató	-2462
mientos	-2463
▁afuera	-2464
▁detrás	-2465
▁viendo	-2466
▁llevaba	-2467
▁mensaje	-2468
▁ocurrió	-2469
▁queremos	-2470
▁má	-2471
▁igl	-2472
▁Dime	-2473
▁hone	-2474
▁rojo	-2475
▁viol	-2476
▁Sabía	-2477
▁brazo	-2478
▁serio	-2479
▁torta	-2480
▁comien	-2481
▁olvidó	-2482
▁simple	-2483
▁Debemos	-2484
▁Francia	-2485
▁cocinar	-2486
▁mirando	-2487
▁caliente	-2488
▁desayuno	-2489
▁enfermedad	-2490
To	-2491
ura	-2492
ctor	-2493
▁Ser	-2494
▁Sin	-2495
▁ama	-2496
▁Quiz	-2497
▁cuál	-2498
▁incl	-2499
▁mane	-2500
▁vein	-2501
▁evitar	-2502
▁molest	-2503
▁querés	-2504
▁derecho	-2505
▁diciendo	-2506
▁escribió	-2507
bos	-2508
áis	-2509
lido	-2510
▁fir	-2511
▁odi	-2512
▁vac	-2513
▁ves	-2514
▁Mira	-2515
▁caro	-2516
▁inst	-2517
▁absolu	-2518
▁compré	-2519
▁impres	-2520
▁gracias	-2521
▁iglesia	-2522
▁comiendo	-2523
▁domingos	-2524
mó	-2525
ví	-2526
ánd	-2527
tate	-2528
ueve	-2529
▁gru	-2530
▁señ	-2531
damos	-2532
▁Cada	-2533
▁alta	-2534
▁Acabo	-2535
▁Estos	-2536
▁Nueva	-2537
▁decep	-2538
▁leído	-2539
▁parar	-2540
▁trata	-2541
▁cartas	-2542
▁quiera	-2543
▁reglas	-2544
▁compren	-2545
▁contento	-2546
▁correcto	-2547
▁funciona	-2548
▁siguiente	-2549
bas	-2550
lico	-2551
▁pueb	-2552
▁solu	-2553
▁toma	-2554
▁común	-2555
▁estés	-2556
▁saben	-2557
▁correr	-2558
▁cuidar	-2559
▁dejado	-2560
▁lastim	-2561
▁resfri	-2562
▁anciano	-2563
▁pudiera	-2564
▁favorita	-2565
▁periódico	-2566
▁deberíamos	-2567
Ya	-2568
entó	-2569
ferir	-2570
▁enci	-2571
▁sacó	-2572
▁amiga	-2573
▁excep	-2574
▁negro	-2575
▁prisa	-2576
▁prote	-2577
▁disfru	-2578
▁espera	-2579
▁novela	-2580
▁profun	-2581
▁abierta	-2582
▁confiar	-2583
▁domingo	-2584
▁intentó	-2585
▁semanas	-2586
▁necesario	-2587
gre	-2588
ork	-2589
▁Cor	-2590
▁ata	-2591
▁pun	-2592
Tiene	-2593
ierra	-2594
▁cole	-2595
▁futu	-2596
▁piso	-2597
▁sale	-2598
ilidad	-2599
▁habló	-2600
▁novio	-2601
▁tarta	-2602
▁verme	-2603
▁empleo	-2604
▁almorzar	-2605
▁oy	-2606
rate	-2607
tero	-2608
▁Nin	-2609
▁ign	-2610
▁mem	-2611
▁posi	-2612
▁Apren	-2613
▁Ellas	-2614
▁haces	-2615
▁traje	-2616
▁pueblo	-2617
▁siguió	-2618
▁Encontr	-2619
▁Supongo	-2620
▁noticia	-2621
▁significa	-2622
Ha	-2623
▁k	-2624
▁gr	-2625
▁tí	-2626
melo	-2627
Acaso	-2628
jeros	-2629
▁York	-2630
▁ahor	-2631
▁desc	-2632
▁duer	-2633
▁mara	-2634
▁seas	-2635
▁contó	-2636
▁demás	-2637
▁llevó	-2638
▁Algunos	-2639
▁asiento	-2640
▁estaría	-2641
▁arreglar	-2642
▁quedarse	-2643
▁Oí	-2644
ques	-2645
vido	-2646
▁emo	-2647
▁esf	-2648
▁pic	-2649
▁pop	-2650
▁sáb	-2651
▁capi	-2652
▁cuad	-2653
▁mate	-2654
rieron	-2655
▁asegu	-2656
▁ayudó	-2657
▁sospe	-2658
▁retras	-2659
eramente	-2660
▁América	-2661
▁comenzó	-2662
▁llegado	-2663
eb	-2664
ez	-2665
sar	-2666
ciar	-2667
teri	-2668
▁cha	-2669
▁gor	-2670
▁mil	-2671
▁arri	-2672
▁sonr	-2673
▁vale	-2674
miendo	-2675
▁Estas	-2676
▁asist	-2677
▁conte	-2678
▁futuro	-2679
▁segura	-2680
▁Lamento	-2681
▁caballo	-2682
▁decirme	-2683
▁gustaba	-2684
▁mostrar	-2685
▁pensaba	-2686
▁borracho	-2687
▁convencer	-2688
▁lloviendo	-2689
mar	-2690
mán	-2691
▁Ju	-2692
▁em	-2693
▁iz	-2694
Para	-2695
úcar	-2696
▁bas	-2697
▁mue	-2698
▁tir	-2699
cioso	-2700
▁Escu	-2701
▁casó	-2702
▁Traba	-2703
▁pesar	-2704
▁prima	-2705
▁quedé	-2706
vamente	-2707
▁azúcar	-2708
▁helado	-2709
▁maravi	-2710
▁precio	-2711
▁propio	-2712
▁puente	-2713
▁compras	-2714
▁izquier	-2715
▁ayudarme	-2716
▁entiende	-2717
▁encontrado	-2718
▁Necesitamos	-2719
eto	-2720
uni	-2721
dose	-2722
once	-2723
▁ref	-2724
▁apre	-2725
▁esos	-2726
▁vini	-2727
▁campo	-2728
▁depen	-2729
▁nació	-2730
▁plane	-2731
▁distin	-2732
▁idioma	-2733
▁perten	-2734
▁pescar	-2735
▁varias	-2736
▁presidente	-2737
aña	-2738
dón	-2739
▁nu	-2740
date	-2741
sito	-2742
tada	-2743
▁Les	-2744
▁Qué	-2745
▁edu	-2746
▁fra	-2747
▁mad	-2748
lante	-2749
▁Dese	-2750
▁Nada	-2751
▁daño	-2752
▁inoc	-2753
▁sino	-2754
▁torm	-2755
uerdas	-2756
▁compr	-2757
▁marido	-2758
▁sentía	-2759
▁averigu	-2760
▁dientes	-2761
▁durmiendo	-2762
▁orgulloso	-2763
Hab	-2764
chi	-2765
enes	-2766
gina	-2767
ecido	-2768
entar	-2769
▁comi	-2770
▁idio	-2771
▁coger	-2772
▁ignor	-2773
▁larga	-2774
▁pared	-2775
▁suelo	-2776
▁super	-2777
▁correo	-2778
▁propia	-2779
▁siente	-2780
▁aceptar	-2781
▁matemát	-2782
▁enfadado	-2783
▁estuviera	-2784
gon	-2785
mpa	-2786
vera	-2787
▁Lla	-2788
▁sui	-2789
zaron	-2790
▁Deci	-2791
▁ante	-2792
▁apoy	-2793
▁bebe	-2794
▁camp	-2795
▁gana	-2796
▁hará	-2797
▁obje	-2798
▁proy	-2799
▁Perdí	-2800
▁frecu	-2801
▁naran	-2802
▁parti	-2803
▁pensé	-2804
▁buenos	-2805
▁pájaro	-2806
▁Algunas	-2807
▁Conozco	-2808
▁escrito	-2809
madamente	-2810
▁soportar	-2811
▁enamorado	-2812
▁trabajado	-2813
dés	-2814
ine	-2815
reí	-2816
gico	-2817
ible	-2818
▁aba	-2819
▁pos	-2820
terna	-2821
▁Dios	-2822
▁carr	-2823
▁cita	-2824
▁fres	-2825
Podría	-2826
▁bolsa	-2827
▁corba	-2828
▁igual	-2829
▁incen	-2830
▁recha	-2831
▁repar	-2832
▁silen	-2833
▁tenga	-2834
▁famoso	-2835
▁perdon	-2836
▁público	-2837
▁sentado	-2838
▁necesitaba	-2839
▁acostumbrado	-2840
▁go	-2841
stre	-2842
▁amo	-2843
▁bri	-2844
queta	-2845
tante	-2846
tario	-2847
▁Prob	-2848
▁arma	-2849
▁azul	-2850
▁paci	-2851
▁supi	-2852
▁Solía	-2853
▁encen	-2854
▁paseo	-2855
▁segui	-2856
▁verlo	-2857
▁viste	-2858
▁buenas	-2859
▁contro	-2860
▁sintió	-2861
▁decirte	-2862
▁mejores	-2863
▁perfecto	-2864
▁tormenta	-2865
▁diferente	-2866
▁experiencia	-2867
inó	-2868
tom	-2869
tán	-2870
▁dé	-2871
▁cho	-2872
▁Hice	-2873
▁cier	-2874
▁esas	-2875
▁sali	-2876
▁veía	-2877
cionar	-2878
▁detal	-2879
▁ingen	-2880
▁suici	-2881
▁abuela	-2882
▁conocer	-2883
▁encuent	-2884
▁haberte	-2885
▁informa	-2886
▁limpiar	-2887
▁contacto	-2888
▁hicieron	-2889
▁preocupado	-2890
jes	-2891
▁So	-2892
eral	-2893
erro	-2894
jada	-2895
▁Tal	-2896
▁dul	-2897
ferta	-2898
grafo	-2899
illas	-2900
▁Euro	-2901
▁acus	-2902
▁toca	-2903
biendo	-2904
▁espal	-2905
osotras	-2906
▁bonita	-2907
▁herido	-2908
▁oferta	-2909
▁perfec	-2910
▁botella	-2911
▁constru	-2912
▁olvidar	-2913
▁Desearía	-2914
▁permitir	-2915
▁vosotros	-2916
▁matemáticas	-2917
ser	-2918
▁Res	-2919
▁tot	-2920
▁usa	-2921
lando	-2922
▁Debe	-2923
▁bara	-2924
▁dado	-2925
▁golf	-2926
▁negó	-2927
▁color	-2928
▁debajo	-2929
▁descub	-2930
▁jugado	-2931
▁prueba	-2932
▁corbata	-2933
▁decidido	-2934
▁prometió	-2935
▁proyecto	-2936
▁tratando	-2937
▁agradable	-2938
▁diferencia	-2939
▁totalmente	-2940
▁información	-2941
▁inmediatamente	-2942
adá	-2943
cur	-2944
fas	-2945
nas	-2946
vil	-2947
poco	-2948
▁for	-2949
▁rar	-2950
▁Algo	-2951
▁flor	-2952
▁sopa	-2953
▁aprob	-2954
▁ayude	-2955
▁luego	-2956
▁march	-2957
▁valor	-2958
▁Europa	-2959
▁apenas	-2960
▁imagin	-2961
▁puedas	-2962
▁levantó	-2963
▁satisfe	-2964
▁tranqui	-2965
▁terrible	-2966
▁Deberíamos	-2967
▁verdaderamente	-2968
mió	-2969
▁is	-2970
late	-2971
star	-2972
▁Ale	-2973
▁Uno	-2974
▁sup	-2975
dimos	-2976
▁Dile	-2977
▁cerc	-2978
▁mamá	-2979
fortun	-2980
▁autom	-2981
▁claro	-2982
▁liber	-2983
▁nueve	-2984
▁otras	-2985
▁quise	-2986
▁compra	-2987
▁encima	-2988
▁planes	-2989
▁veinte	-2990
▁estadouni	-2991
▁maravillos	-2992
▁sorprendió	-2993
ama	-2994
▁Ba	-2995
edir	-2996
▁trá	-2997
iones	-2998
▁ejer	-2999
▁tuyo	-3000
▁Escri	-3001
▁andar	-3002
▁enter	-3003
▁hacen	-3004
▁junto	-3005
Alguien	-3006
▁Podría	-3007
▁cambio	-3008
▁sentir	-3009
▁Pareces	-3010
▁empieza	-3011
▁enferma	-3012
▁repente	-3013
▁mintiendo	-3014
▁sentimientos	-3015
▁Ll	-3016
eran	-3017
eric	-3018
tame	-3019
▁fan	-3020
▁pob	-3021
▁poe	-3022
▁rey	-3023
▁sof	-3024
tivos	-3025
▁bolí	-3026
▁fras	-3027
▁sorp	-3028
lación	-3029
▁abajo	-3030
▁botón	-3031
▁menor	-3032
▁alemán	-3033
▁cerrar	-3034
▁confun	-3035
▁enseñó	-3036
▁hablan	-3037
▁llegué	-3038
▁nuevos	-3039
▁parado	-3040
▁prefer	-3041
▁tengas	-3042
▁aquella	-3043
▁carrera	-3044
▁continu	-3045
▁enemigo	-3046
▁Queremos	-3047
▁discurso	-3048
▁fotograf	-3049
▁quedarte	-3050
▁silencio	-3051
▁películas	-3052
▁primavera	-3053
Eso	-3054
ona	-3055
cada	-3056
▁Amb	-3057
▁bos	-3058
▁cán	-3059
▁paz	-3060
▁sob	-3061
stado	-3062
tente	-3063
vando	-3064
▁Aque	-3065
▁cubi	-3066
▁feli	-3067
▁muse	-3068
▁revi	-3069
virtió	-3070
▁paste	-3071
▁resto	-3072
▁ejerci	-3073
▁lentes	-3074
▁tomado	-3075
▁haberlo	-3076
▁despierto	-3077
▁sorprendido	-3078
cl	-3079
ór	-3080
nes	-3081
rio	-3082
▁oc	-3083
▁ru	-3084
icul	-3085
radu	-3086
▁Has	-3087
taste	-3088
▁char	-3089
▁ganó	-3090
▁lavar	-3091
▁mitad	-3092
▁quitó	-3093
▁verde	-3094
▁Estuve	-3095
▁pelota	-3096
▁vuelto	-3097
▁Ustedes	-3098
▁hacerte	-3099
▁olvides	-3100
▁pájaros	-3101
▁tampoco	-3102
dra	-3103
nea	-3104
▁jó	-3105
apar	-3106
eren	-3107
▁Tan	-3108
▁bur	-3109
dónde	-3110
inado	-3111
tista	-3112
venes	-3113
▁trai	-3114
▁guapa	-3115
▁hacía	-3116
▁humor	-3117
▁menti	-3118
▁miemb	-3119
▁multi	-3120
▁premi	-3121
▁suena	-3122
▁Nuestra	-3123
▁enojado	-3124
▁jóvenes	-3125
▁pintura	-3126
▁intención	-3127
▁seguridad	-3128
".	-3129
▁«	-3130
▁ef	-3131
ecía	-3132
rrir	-3133
▁ago	-3134
▁raz	-3135
monos	-3136
penas	-3137
▁Toma	-3138
▁cuer	-3139
▁hamb	-3140
▁mill	-3141
▁papá	-3142
▁roto	-3143
▁sepa	-3144
▁Éste	-3145
▁darle	-3146
▁llena	-3147
▁obser	-3148
feriría	-3149
▁Apenas	-3150
▁idiota	-3151
▁ladrón	-3152
▁llueve	-3153
▁normal	-3154
▁dijeron	-3155
▁escapar	-3156
▁popular	-3157
▁precios	-3158
▁prisión	-3159
▁conocido	-3160
▁culpable	-3161
▁despacio	-3162
▁negocios	-3163
▁olvidado	-3164
▁escuchando	-3165
:3	-3166
ok	-3167
000	-3168
ací	-3169
aso	-3170
mor	-3171
sos	-3172
ísi	-3173
Uste	-3174
ioto	-3175
oces	-3176
▁Fin	-3177
▁sir	-3178
icado	-3179
mania	-3180
tarte	-3181
▁deli	-3182
▁quin	-3183
▁sonó	-3184
▁bolsi	-3185
▁grupo	-3186
▁queso	-3187
▁recor	-3188
▁vieja	-3189
tamento	-3190
▁Canadá	-3191
▁bosque	-3192
▁buscar	-3193
licación	-3194
▁avergon	-3195
▁conocía	-3196
▁decidir	-3197
▁memoria	-3198
▁querías	-3199
▁respons	-3200
▁segundo	-3201
▁sobrevi	-3202
▁árboles	-3203
▁Alemania	-3204
▁medicina	-3205
▁sorpresa	-3206
▁ordenador	-3207
▁resfriado	-3208
▁computador	-3209
▁rápidamente	-3210
lub	-3211
▁Hu	-3212
▁cl	-3213
inas	-3214
pado	-3215
▁bom	-3216
▁hie	-3217
▁oro	-3218
▁soñ	-3219
jando	-3220
raron	-3221
▁club	-3222
▁dedo	-3223
▁deja	-3224
▁Kioto	-3225
▁brome	-3226
▁cuest	-3227
▁gustó	-3228
▁hablo	-3229
▁habrá	-3230
▁hayas	-3231
▁maest	-3232
▁tonto	-3233
▁Espera	-3234
▁escucha	-3235
▁máquina	-3236
▁sientes	-3237
▁tráfico	-3238
▁multitud	-3239
▁prestado	-3240
▁esperanza	-3241
▁izquierda	-3242
▁paciencia	-3243
lir	-3244
ses	-3245
ñec	-3246
▁10	-3247
gada	-3248
mido	-3249
▁Así	-3250
▁oyó	-3251
ables	-3252
cionó	-3253
letas	-3254
▁arru	-3255
▁luna	-3256
▁odia	-3257
▁paso	-3258
▁tema	-3259
▁temo	-3260
▁Discu	-3261
▁gafas	-3262
▁museo	-3263
▁muñec	-3264
▁recup	-3265
▁chicas	-3266
▁platos	-3267
▁escuchó	-3268
▁espalda	-3269
▁podrías	-3270
▁cambiado	-3271
▁recuerda	-3272
▁estábamos	-3273
▁finalmente	-3274
fr	-3275
cal	-3276
zca	-3277
▁Ab	-3278
▁cr	-3279
▁há	-3280
loso	-3281
▁Han	-3282
▁aus	-3283
▁pis	-3284
▁tía	-3285
ienta	-3286
▁abra	-3287
▁digo	-3288
▁raro	-3289
▁reír	-3290
▁sofá	-3291
▁arroz	-3292
▁autor	-3293
▁quiso	-3294
▁vivía	-3295
▁alegro	-3296
▁diario	-3297
▁golpeó	-3298
▁mostró	-3299
▁cansada	-3300
▁casarse	-3301
▁volverá	-3302
▁nervioso	-3303
▁probable	-3304
▁solución	-3305
▁principio	-3306
▁Probablemente	-3307
olo	-3308
oro	-3309
uda	-3310
alla	-3311
ster	-3312
▁dan	-3313
▁dep	-3314
▁gas	-3315
▁mañ	-3316
▁ojo	-3317
▁uti	-3318
ernes	-3319
▁bajó	-3320
▁copi	-3321
▁duda	-3322
▁econ	-3323
▁hago	-3324
▁hubo	-3325
▁isla	-3326
▁Mucha	-3327
▁hielo	-3328
▁perdí	-3329
▁pocos	-3330
▁traer	-3331
▁cáncer	-3332
▁oscuro	-3333
▁premio	-3334
▁sencil	-3335
abilidad	-3336
▁sospech	-3337
▁viernes	-3338
▁adelante	-3339
▁interesa	-3340
▁soldados	-3341
▁profesora	-3342
▁w	-3343
gla	-3344
▁Ol	-3345
▁zo	-3346
arás	-3347
añol	-3348
selo	-3349
zada	-3350
▁ast	-3351
▁dro	-3352
▁log	-3353
▁pul	-3354
ático	-3355
▁Será	-3356
▁agar	-3357
▁mapa	-3358
cional	-3359
vieron	-3360
▁Todas	-3361
▁acomp	-3362
▁chino	-3363
▁renun	-3364
▁supon	-3365
mamente	-3366
▁culpar	-3367
▁estáis	-3368
▁pastel	-3369
▁trampa	-3370
▁tratar	-3371
▁español	-3372
▁llamada	-3373
▁tuviera	-3374
▁vuestro	-3375
▁Encontré	-3376
▁llorando	-3377
▁escaleras	-3378
▁japoneses	-3379
▁preparado	-3380
▁preguntaba	-3381
▁necesitamos	-3382
ete	-3383
pos	-3384
uir	-3385
mado	-3386
ándo	-3387
▁Hac	-3388
▁apu	-3389
▁asp	-3390
ectos	-3391
timos	-3392
▁Esos	-3393
▁Lleg	-3394
▁paró	-3395
▁pone	-3396
aremos	-3397
bierno	-3398
ándose	-3399
▁cigar	-3400
▁colec	-3401
▁corto	-3402
▁darme	-3403
▁recom	-3404
▁servi	-3405
▁yenes	-3406
bilidad	-3407
▁estuve	-3408
▁madera	-3409
▁pierna	-3410
▁honesto	-3411
▁mañanas	-3412
▁sucedió	-3413
▁Recuerdo	-3414
▁esconder	-3415
▁especial	-3416
▁bolígrafo	-3417
▁caminando	-3418
▁pertenece	-3419
▁interesado	-3420
fortunadamente	-3421
▁profundamente	-3422
tró	-3423
▁Pa	-3424
▁ur	-3425
icen	-3426
jera	-3427
ment	-3428
ápiz	-3429
▁Cam	-3430
▁mas	-3431
▁ton	-3432
vesti	-3433
viste	-3434
▁desh	-3435
▁eras	-3436
▁form	-3437
▁irte	-3438
▁pare	-3439
▁perm	-3440
▁veré	-3441
ientas	-3442
▁Sería	-3443
▁deseo	-3444
▁dices	-3445
▁divor	-3446
▁juega	-3447
▁lápiz	-3448
▁tarje	-3449
▁tenés	-3450
▁terre	-3451
▁volun	-3452
Todavía	-3453
▁Tienen	-3454
▁alegra	-3455
▁opción	-3456
▁progra	-3457
▁sonrió	-3458
▁viento	-3459
▁cerrada	-3460
▁hermoso	-3461
▁promesa	-3462
▁verdadero	-3463
▁frecuencia	-3464
óma	-3465
:30.	-3466
gido	-3467
óvil	-3468
▁Cre	-3469
▁Mir	-3470
▁rev	-3471
▁tur	-3472
ertos	-3473
tador	-3474
▁casu	-3475
▁hábi	-3476
▁ofre	-3477
▁pusi	-3478
▁robó	-3479
dencia	-3480
ábamos	-3481
▁casas	-3482
▁darte	-3483
▁esqui	-3484
▁frase	-3485
▁fruta	-3486
▁grave	-3487
▁ideas	-3488
▁mante	-3489
▁Aunque	-3490
▁Escuch	-3491
▁americ	-3492
▁conocí	-3493
▁crimen	-3494
▁elegir	-3495
▁inform	-3496
▁robado	-3497
▁romper	-3498
▁sangre	-3499
▁varios	-3500
▁conocen	-3501
▁dificul	-3502
▁interru	-3503
▁manejar	-3504
▁negocio	-3505
▁permiso	-3506
▁sonrisa	-3507
▁comenzar	-3508
▁comporta	-3509
▁inocente	-3510
▁viviendo	-3511
▁desayunar	-3512
▁cualquiera	-3513
▁satisfecho	-3514
▁normalmente	-3515
El	-3516
▁á	-3517
cie	-3518
fón	-3519
déis	-3520
gues	-3521
inar	-3522
inos	-3523
leto	-3524
stro	-3525
telo	-3526
▁Tus	-3527
▁ali	-3528
▁ens	-3529
▁exi	-3530
▁fon	-3531
▁reh	-3532
terra	-3533
▁Vuel	-3534
▁alar	-3535
▁male	-3536
▁rica	-3537
anoche	-3538
quilla	-3539
▁Ambos	-3540
▁Habla	-3541
▁Hasta	-3542
▁Quizá	-3543
▁broma	-3544
▁condi	-3545
▁sentí	-3546
▁solas	-3547
▁suele	-3548
▁venta	-3549
▁expres	-3550
▁hables	-3551
▁manten	-3552
▁nativo	-3553
▁partir	-3554
▁vender	-3555
▁vivido	-3556
▁idiomas	-3557
▁mentira	-3558
▁cantante	-3559
▁chaqueta	-3560
▁correcta	-3561
▁discutir	-3562
▁hermanas	-3563
▁incendio	-3564
▁ventanas	-3565
▁ejercicio	-3566
▁respondió	-3567
▁dificultad	-3568
▁medianoche	-3569
▁escribiendo	-3570
▁explicación	-3571
gri	-3572
ira	-3573
▁Os	-3574
bede	-3575
güen	-3576
rios	-3577
▁Bus	-3578
▁Iré	-3579
▁aje	-3580
▁ind	-3581
stico	-3582
tiene	-3583
▁Ital	-3584
▁apun	-3585
▁bebi	-3586
▁fábr	-3587
▁rara	-3588
▁roja	-3589
cación	-3590
▁amaba	-3591
▁casar	-3592
▁dicen	-3593
▁ducha	-3594
▁linda	-3595
▁reali	-3596
▁separ	-3597
Podemos	-3598
▁centro	-3599
▁cuerda	-3600
▁fiebre	-3601
▁países	-3602
▁depende	-3603
▁desapar	-3604
▁entrada	-3605
▁escribe	-3606
▁excepto	-3607
▁recibir	-3608
▁resultó	-3609
▁aburrido	-3610
▁descanso	-3611
▁averiguar	-3612
▁conductor	-3613
▁empleados	-3614
▁probablemente	-3615
ha	-3616
cis	-3617
ial	-3618
ton	-3619
▁20	-3620
▁Va	-3621
guen	-3622
tual	-3623
▁Vay	-3624
▁cir	-3625
▁das	-3626
▁ater	-3627
▁boda	-3628
▁docu	-3629
▁echó	-3630
▁tuya	-3631
▁velo	-3632
aporte	-3633
ermina	-3634
▁Ingla	-3635
▁amist	-3636
▁bella	-3637
▁cortó	-3638
▁línea	-3639
▁mirar	-3640
▁vuelo	-3641
▁apagar	-3642
▁casada	-3643
▁cuerpo	-3644
▁cuidad	-3645
▁enferm	-3646
▁asesina	-3647
▁bienven	-3648
▁espacio	-3649
▁investi	-3650
▁querría	-3651
▁terremo	-3652
▁encantan	-3653
▁billetera	-3654
▁consiguió	-3655
▁resultado	-3656
▁Finalmente	-3657
▁Inglaterra	-3658
▁aprendiendo	-3659
jé	-3660
Él	-3661
ác	-3662
▁Ex	-3663
▁pl	-3664
daba	-3665
dera	-3666
ello	-3667
pira	-3668
▁lan	-3669
▁piz	-3670
▁Reci	-3671
▁artí	-3672
▁cola	-3673
▁diri	-3674
▁mató	-3675
▁modo	-3676
▁pies	-3677
tieron	-3678
▁acabó	-3679
▁ambos	-3680
▁bajar	-3681
▁carre	-3682
▁cogió	-3683
▁comun	-3684
▁guste	-3685
▁lágri	-3686
▁mente	-3687
▁Compar	-3688
▁Italia	-3689
▁caball	-3690
▁fuiste	-3691
▁habías	-3692
▁pintar	-3693
▁página	-3694
▁sueños	-3695
▁sábado	-3696
▁acompañ	-3697
▁afortun	-3698
▁capital	-3699
▁haberme	-3700
▁parecen	-3701
▁pedirle	-3702
▁piernas	-3703
▁despedir	-3704
▁muchacho	-3705
▁nuestras	-3706
▁ocupados	-3707
▁bromeando	-3708
▁canciones	-3709
▁encuentro	-3710
▁preocupes	-3711
▁casualidad	-3712
▁posibilidad	-3713
fa	-3714
uj	-3715
wi	-3716
erg	-3717
fic	-3718
rac	-3719
▁Sí	-3720
aste	-3721
brir	-3722
quer	-3723
▁Vas	-3724
▁bañ	-3725
▁irá	-3726
árcel	-3727
▁Buen	-3728
▁cuel	-3729
▁pron	-3730
▁cargo	-3731
▁casti	-3732
▁choco	-3733
▁dedos	-3734
▁extre	-3735
▁pocas	-3736
▁reser	-3737
▁salvo	-3738
▁verdu	-3739
▁cambió	-3740
▁descri	-3741
▁fantas	-3742
▁hablas	-3743
▁maleta	-3744
▁tierra	-3745
▁Ninguno	-3746
▁acordar	-3747
▁cumplir	-3748
▁deporte	-3749
▁derecha	-3750
▁explicó	-3751
▁hablado	-3752
▁incluso	-3753
▁llegará	-3754
▁recuper	-3755
entemente	-3756
▁apareció	-3757
▁japonesa	-3758
▁impresion	-3759
▁oscuridad	-3760
▁pasaporte	-3761
▁consciente	-3762
▁comportamiento	-3763
coh	-3764
div	-3765
guí	-3766
imo	-3767
ing	-3768
entí	-3769
oría	-3770
▁cob	-3771
▁den	-3772
▁lab	-3773
▁pér	-3774
▁rum	-3775
dense	-3776
zamos	-3777
▁Vivo	-3778
▁avis	-3779
▁besó	-3780
▁daré	-3781
▁faci	-3782
▁míos	-3783
▁odio	-3784
▁suyo	-3785
Adónde	-3786
▁cerró	-3787
▁deten	-3788
▁gusto	-3789
▁podrá	-3790
▁techo	-3791
▁vimos	-3792
lamente	-3793
▁agrada	-3794
▁bonito	-3795
▁camión	-3796
▁constr	-3797
▁corrió	-3798
▁costum	-3799
▁cárcel	-3800
▁pantal	-3801
▁vuelva	-3802
▁muebles	-3803
▁ocultar	-3804
▁revista	-3805
▁robaron	-3806
▁política	-3807
▁Necesitas	-3808
▁propuesta	-3809
▁fácilmente	-3810
▁importaría	-3811
Os	-3812
ase	-3813
ejo	-3814
orn	-3815
stó	-3816
▁Ar	-3817
▁ja	-3818
Esto	-3819
dame	-3820
onos	-3821
rame	-3822
▁arm	-3823
▁urg	-3824
biste	-3825
olvió	-3826
tidad	-3827
▁Hubo	-3828
▁arte	-3829
▁esco	-3830
▁pren	-3831
▁ries	-3832
▁Ésta	-3833
▁útil	-3834
▁alcoh	-3835
▁doble	-3836
▁enemi	-3837
▁excel	-3838
▁gradu	-3839
▁natur	-3840
▁prohi	-3841
▁propó	-3842
▁retir	-3843
▁solos	-3844
▁trozo	-3845
▁Muchas	-3846
▁enorme	-3847
▁noches	-3848
▁perman	-3849
▁salido	-3850
▁lenguas	-3851
▁llamado	-3852
▁pérdida	-3853
▁recibió	-3854
▁sabemos	-3855
▁vuestra	-3856
▁explicar	-3857
▁galletas	-3858
▁mediodía	-3859
▁chocolate	-3860
▁facilidad	-3861
▁inmediato	-3862
▁necesitan	-3863
▁distinguir	-3864
▁simplemente	-3865
La	-3866
ye	-3867
éc	-3868
óm	-3869
apá	-3870
deo	-3871
lló	-3872
óme	-3873
▁Qu	-3874
esas	-3875
game	-3876
osas	-3877
saka	-3878
tito	-3879
▁Pol	-3880
▁Tam	-3881
▁mur	-3882
▁web	-3883
Usted	-3884
entas	-3885
jeras	-3886
quete	-3887
table	-3888
▁Hici	-3889
▁alum	-3890
▁anda	-3891
▁comí	-3892
▁indi	-3893
▁ocas	-3894
▁pegó	-3895
Necesi	-3896
olveré	-3897
uestas	-3898
uestos	-3899
▁2:30.	-3900
▁Inten	-3901
▁Osaka	-3902
▁Tenés	-3903
▁calce	-3904
▁costó	-3905
▁debía	-3906
▁dieta	-3907
▁dulce	-3908
▁encar	-3909
▁hambr	-3910
▁jugue	-3911
▁peces	-3912
▁subió	-3913
▁vivió	-3914
amiento	-3915
▁Intent	-3916
▁entero	-3917
▁ingenu	-3918
▁llamas	-3919
▁partes	-3920
▁piedra	-3921
▁quejar	-3922
▁sabido	-3923
▁teatro	-3924
▁acabado	-3925
▁correos	-3926
▁destino	-3927
▁enseñar	-3928
▁ninguno	-3929
▁trabajó	-3930
▁alcanzar	-3931
▁cometido	-3932
▁deberían	-3933
▁murieron	-3934
▁dispuesto	-3935
▁encuentra	-3936
▁invitados	-3937
▁televisor	-3938
▁escondiendo	-3939
▁extremadamente	-3940
su	-3941
dul	-3942
ord	-3943
ric	-3944
▁30	-3945
cens	-3946
idió	-3947
▁eli	-3948
▁haz	-3949
▁mej	-3950
▁pez	-3951
▁sed	-3952
tines	-3953
▁Dejé	-3954
▁Olvi	-3955
▁beso	-3956
▁desi	-3957
▁post	-3958
▁reme	-3959
▁mover	-3960
▁prefi	-3961
▁trans	-3962
Conoces	-3963
eratura	-3964
▁animal	-3965
▁aproxi	-3966
▁ascens	-3967
▁basura	-3968
▁cientí	-3969
▁declar	-3970
▁entera	-3971
▁fresco	-3972
▁hechos	-3973
▁invitó	-3974
▁parada	-3975
▁quince	-3976
▁vuelve	-3977
▁cometer	-3978
▁delante	-3979
▁disparó	-3980
▁emocion	-3981
▁extraña	-3982
▁fábrica	-3983
▁partici	-3984
▁prestar	-3985
▁tarjeta	-3986
▁tomando	-3987
▁volveré	-3988
▁bolsillo	-3989
▁lágrimas	-3990
▁pregunté	-3991
▁proteger	-3992
▁Estábamos	-3993
▁asesinato	-3994
▁compraste	-3995
▁discusión	-3996
▁educación	-3997
▁excelente	-3998
▁felicidad	-3999
▁interrump	-4000
▁propósito	-4001
▁temperatura	-4002
Re	-4003
▁6	-4004
▁8	-4005
abe	-4006
chó	-4007
dre	-4008
xto	-4009
char	-4010
ista	-4011
lada	-4012
oluc	-4013
▁Más	-4014
▁Trá	-4015
▁afi	-4016
▁aho	-4017
▁iré	-4018
▁juz	-4019
ciosa	-4020
ermer	-4021
ámame	-4022
▁Haré	-4023
▁Mamá	-4024
▁alér	-4025
▁geme	-4026
▁mone	-4027
▁nomb	-4028
▁Dicen	-4029
▁armas	-4030
▁deman	-4031
▁echar	-4032
▁estan	-4033
▁exist	-4034
▁hable	-4035
▁hogar	-4036
▁obede	-4037
▁Fuimos	-4038
▁Tierra	-4039
▁arriba	-4040
▁cruzar	-4041
▁duerme	-4042
▁ganado	-4043
▁llueva	-4044
▁pasará	-4045
▁tendrá	-4046
▁tenías	-4047
▁visita	-4048
▁adentro	-4049
▁asistir	-4050
▁conoces	-4051
▁involuc	-4052
▁quedaré	-4053
▁recomen	-4054
▁supiera	-4055
tivamente	-4056
▁gobierno	-4057
▁supermer	-4058
▁necesidad	-4059
▁Preferiría	-4060
mé	-4061
▁Á	-4062
Son	-4063
fac	-4064
lle	-4065
nic	-4066
oló	-4067
omo	-4068
pre	-4069
umo	-4070
zan	-4071
▁bu	-4072
arde	-4073
imos	-4074
llar	-4075
vent	-4076
▁Dos	-4077
▁cla	-4078
▁hun	-4079
stitu	-4080
▁Papá	-4081
▁adop	-4082
▁apla	-4083
▁atro	-4084
▁dibu	-4085
▁diré	-4086
▁doce	-4087
▁obli	-4088
▁repu	-4089
▁sens	-4090
Quiere	-4091
dentes	-4092
dremos	-4093
gieron	-4094
▁Jamás	-4095
▁Sabes	-4096
▁acaso	-4097
▁ciego	-4098
▁contr	-4099
▁harto	-4100
▁hojas	-4101
▁incor	-4102
▁moder	-4103
▁pizza	-4104
▁podés	-4105
▁trajo	-4106
▁Cuanto	-4107
▁Termin	-4108
▁aunque	-4109
▁famosa	-4110
▁gratis	-4111
▁muñeca	-4112
▁preten	-4113
▁solici	-4114
▁tenían	-4115
▁vecino	-4116
▁debemos	-4117
▁ocurrir	-4118
▁querían	-4119
▁recoger	-4120
▁quisiera	-4121
▁levantarse	-4122
▁supermercado	-4123
▁absolutamente	-4124
cí	-4125
izo	-4126
rea	-4127
yos	-4128
▁Dí	-4129
▁Gu	-4130
▁ví	-4131
Ella	-4132
ceso	-4133
drez	-4134
just	-4135
taré	-4136
▁eje	-4137
▁fri	-4138
▁hon	-4139
▁sur	-4140
arios	-4141
esper	-4142
rarse	-4143
Cuáles	-4144
gación	-4145
reíble	-4146
▁Mejor	-4147
▁autos	-4148
▁compe	-4149
▁luces	-4150
▁pasat	-4151
▁sacar	-4152
▁volar	-4153
eración	-4154
▁Pregún	-4155
▁Siento	-4156
▁antigu	-4157
▁barato	-4158
▁cuello	-4159
▁genial	-4160
▁ajedrez	-4161
▁casados	-4162
▁esquina	-4163
▁haberle	-4164
▁jugador	-4165
▁saberlo	-4166
mplemente	-4167
▁absoluto	-4168
▁detalles	-4169
▁acostumbr	-4170
▁convertir	-4171
▁descubrir	-4172
▁mentiroso	-4173
▁preparando	-4174
óp	-4175
úa	-4176
ula	-4177
▁Ob	-4178
▁at	-4179
gaba	-4180
sten	-4181
tida	-4182
▁alf	-4183
Están	-4184
jamos	-4185
stola	-4186
úrate	-4187
▁Llev	-4188
▁Perm	-4189
▁cerr	-4190
▁comb	-4191
▁dejé	-4192
▁dura	-4193
▁fría	-4194
▁once	-4195
▁paga	-4196
▁sánd	-4197
diente	-4198
licado	-4199
sación	-4200
tarios	-4201
éramos	-4202
▁Llevo	-4203
▁atras	-4204
▁cance	-4205
▁corta	-4206
▁fondo	-4207
▁gordo	-4208
▁llevo	-4209
▁metro	-4210
▁recon	-4211
▁triun	-4212
iamente	-4213
▁Discul	-4214
▁anillo	-4215
▁blanca	-4216
▁drogas	-4217
▁enseña	-4218
▁esposo	-4219
▁estaré	-4220
▁fuimos	-4221
▁habían	-4222
▁listos	-4223
▁mirada	-4224
▁sentar	-4225
▁viejos	-4226
▁También	-4227
▁Tuvimos	-4228
▁andando	-4229
▁ayudara	-4230
▁general	-4231
▁levanté	-4232
▁mayores	-4233
▁pistola	-4234
▁tuvimos	-4235
▁vecinos	-4236
▁consegui	-4237
▁deseando	-4238
▁naranjas	-4239
▁verduras	-4240
▁caballero	-4241
▁costumbre	-4242
▁cuidadoso	-4243
▁fotografía	-4244
▁profesores	-4245
▁Simplemente	-4246
Tu	-4247
pé	-4248
ban	-4249
col	-4250
eas	-4251
iza	-4252
lad	-4253
leb	-4254
tín	-4255
val	-4256
▁Dé	-4257
▁ór	-4258
ariz	-4259
garé	-4260
▁Veo	-4261
▁lee	-4262
▁uso	-4263
diera	-4264
orias	-4265
▁Cual	-4266
▁Esas	-4267
▁Pasé	-4268
▁alma	-4269
▁caer	-4270
▁débi	-4271
▁inde	-4272
▁menú	-4273
▁repe	-4274
▁vege	-4275
güenza	-4276
▁alqui	-4277
▁apres	-4278
▁arrep	-4279
▁bolso	-4280
▁ejemp	-4281
▁espec	-4282
▁inven	-4283
▁meter	-4284
▁motor	-4285
▁respe	-4286
▁vacía	-4287
▁Pronto	-4288
▁Quizás	-4289
▁confer	-4290
▁fingió	-4291
▁fuerza	-4292
▁merece	-4293
▁sándwi	-4294
▁vengas	-4295
▁Pensaba	-4296
▁alcohol	-4297
▁cartera	-4298
▁control	-4299
▁impidió	-4300
▁maestro	-4301
▁pareces	-4302
▁pareció	-4303
▁regalos	-4304
▁segunda	-4305
▁vistazo	-4306
▁atrapado	-4307
▁cuidados	-4308
▁levantar	-4309
▁recibido	-4310
▁confianza	-4311
▁contestar	-4312
▁estrellas	-4313
▁necesitar	-4314
▁población	-4315
▁terremoto	-4316
▁avergonzado	-4317
▁computadora	-4318
ho	-4319
▁4	-4320
▁W	-4321
aló	-4322
ivo	-4323
roe	-4324
ror	-4325
▁cá	-4326
Pien	-4327
ices	-4328
▁Cui	-4329
▁che	-4330
▁vin	-4331
monio	-4332
tillo	-4333
ísimo	-4334
ómago	-4335
▁Acep	-4336
▁adul	-4337
▁aman	-4338
▁baja	-4339
▁desn	-4340
▁huel	-4341
▁pasé	-4342
▁ridí	-4343
▁robo	-4344
adores	-4345
ología	-4346
▁Según	-4347
▁bomba	-4348
▁creía	-4349
▁depar	-4350
▁huevo	-4351
▁matri	-4352
▁nariz	-4353
▁papas	-4354
▁pelea	-4355
▁piens	-4356
▁plato	-4357
▁poema	-4358
▁siste	-4359
▁sonar	-4360
▁Cierra	-4361
▁arries	-4362
▁cuadro	-4363
▁distra	-4364
▁empeor	-4365
▁ingres	-4366
▁limpia	-4367
▁montar	-4368
▁oscure	-4369
▁pedido	-4370
▁salvar	-4371
▁teoría	-4372
▁Podemos	-4373
▁amistad	-4374
▁estudio	-4375
▁hicimos	-4376
▁llamaré	-4377
▁quedado	-4378
▁artículo	-4379
▁cantando	-4380
▁comienzo	-4381
▁estómago	-4382
▁miembros	-4383
▁objetivo	-4384
▁preocupa	-4385
ormalmente	-4386
▁descubrió	-4387
▁distancia	-4388
▁empezando	-4389
▁increíble	-4390
▁dormitorio	-4391
▁preguntarle	-4392
cé	-4393
pu	-4394
sé	-4395
▁7	-4396
ack	-4397
apo	-4398
cti	-4399
cía	-4400
▁Li	-4401
cito	-4402
dito	-4403
▁Ado	-4404
▁inú	-4405
▁lic	-4406
▁tem	-4407
gados	-4408
▁Desa	-4409
▁Dije	-4410
▁Jack	-4411
▁cabo	-4412
▁cast	-4413
▁duró	-4414
▁gros	-4415
▁ileg	-4416
▁serp	-4417
cuenta	-4418
iempos	-4419
▁Hablo	-4420
▁Hazlo	-4421
▁Lleva	-4422
▁Sigue	-4423
▁bebió	-4424
▁calma	-4425
▁derro	-4426
▁diría	-4427
▁envió	-4428
▁malas	-4429
▁plata	-4430
▁rehus	-4431
▁saltó	-4432
▁texto	-4433
▁turno	-4434
▁utili	-4435
▁adelan	-4436
▁cortar	-4437
▁dejara	-4438
▁descon	-4439
▁despre	-4440
▁dieron	-4441
▁durmió	-4442
▁esperó	-4443
▁fracas	-4444
▁harías	-4445
▁mismos	-4446
▁picnic	-4447
▁triunf	-4448
▁Aprendí	-4449
▁Jackson	-4450
▁Policía	-4451
▁Quédate	-4452
▁cabello	-4453
▁estudia	-4454
▁levanta	-4455
▁naranja	-4456
▁novelas	-4457
entamente	-4458
▁escritor	-4459
▁hubieras	-4460
▁programa	-4461
▁relación	-4462
▁convenció	-4463
▁descansar	-4464
▁preferido	-4465
▁diferentes	-4466
▁respuestas	-4467
▁sospechoso	-4468
▁mantequilla	-4469
▁responsable	-4470
elo	-4471
eso	-4472
uén	-4473
vel	-4474
▁CD	-4475
▁rí	-4476
caba	-4477
irar	-4478
tale	-4479
tina	-4480
▁lav	-4481
▁leí	-4482
▁niñ	-4483
dario	-4484
dicos	-4485
didos	-4486
tiste	-4487
turas	-4488
▁Incl	-4489
▁demo	-4490
▁impa	-4491
▁obra	-4492
▁pagó	-4493
ámonos	-4494
▁Creía	-4495
▁India	-4496
▁adecu	-4497
▁banda	-4498
▁dando	-4499
▁desma	-4500
▁gritó	-4501
▁herir	-4502
▁metió	-4503
▁razon	-4504
▁suger	-4505
▁testi	-4506
cciones	-4507
robable	-4508
▁España	-4509
▁Llegué	-4510
▁Perdón	-4511
▁Vuelve	-4512
▁arregl	-4513
▁entren	-4514
▁habido	-4515
▁millas	-4516
▁mister	-4517
▁motivo	-4518
▁olvidé	-4519
▁presen	-4520
▁servir	-4521
▁sueldo	-4522
▁tímido	-4523
▁Volveré	-4524
▁cigarri	-4525
▁detener	-4526
▁esquiar	-4527
▁hacemos	-4528
▁ingenuo	-4529
▁mantuvo	-4530
▁seguros	-4531
▁sistema	-4532
▁caballos	-4533
▁cantidad	-4534
▁cubierta	-4535
▁devolver	-4536
▁esfuerzo	-4537
▁estrella	-4538
▁hablante	-4539
▁horrible	-4540
▁incorrec	-4541
▁llegaron	-4542
▁montañas	-4543
▁cincuenta	-4544
▁estuviste	-4545
▁comprender	-4546
▁convencido	-4547
▁improbable	-4548
▁matrimonio	-4549
▁pantalones	-4550
▁pasatiempo	-4551
▁Normalmente	-4552
▁extranjeros	-4553
ck	-4554
ave	-4555
ola	-4556
rón	-4557
uji	-4558
▁hé	-4559
dens	-4560
geno	-4561
grad	-4562
ismo	-4563
omía	-4564
paje	-4565
talo	-4566
▁San	-4567
▁bre	-4568
▁pañ	-4569
Tenés	-4570
ctura	-4571
garon	-4572
illos	-4573
tales	-4574
▁Dudo	-4575
▁Roma	-4576
▁Toda	-4577
▁avan	-4578
▁bail	-4579
▁debí	-4580
▁divi	-4581
▁real	-4582
▁suya	-4583
denses	-4584
mentos	-4585
ortuna	-4586
terior	-4587
▁canta	-4588
▁celeb	-4589
▁emerg	-4590
▁huele	-4591
▁lloró	-4592
ológico	-4593
▁Decidí	-4594
▁agarró	-4595
▁atrope	-4596
▁cierta	-4597
▁curios	-4598
▁debido	-4599
▁dejaré	-4600
▁detuvo	-4601
▁llevas	-4602
▁nuevas	-4603
▁produc	-4604
▁regist	-4605
▁sonido	-4606
▁admitió	-4607
▁hubiese	-4608
▁ofreció	-4609
▁rechazó	-4610
▁termina	-4611
Realmente	-4612
▁comienza	-4613
▁completo	-4614
▁empezado	-4615
▁equipaje	-4616
▁pequeños	-4617
▁profundo	-4618
▁servicio	-4619
▁valiente	-4620
▁carretera	-4621
▁despertar	-4622
▁escuchado	-4623
▁orgullosa	-4624
▁prohibido	-4625
▁violencia	-4626
▁equivocada	-4627
▁resultados	-4628
▁perfectamente	-4629
▁estadounidense	-4630
▁estadounidenses	-4631
gí	-4632
ene	-4633
ocí	-4634
usa	-4635
uél	-4636
vés	-4637
aces	-4638
capa	-4639
dial	-4640
ende	-4641
gica	-4642
jate	-4643
triz	-4644
▁ape	-4645
▁der	-4646
▁doy	-4647
▁tos	-4648
Podés	-4649
gaste	-4650
moslo	-4651
taria	-4652
testo	-4653
tubre	-4654
ítate	-4655
▁Empe	-4656
▁Fuji	-4657
▁Plan	-4658
▁dise	-4659
▁fren	-4660
▁habi	-4661
▁jugo	-4662
▁leyó	-4663
▁prac	-4664
▁rodi	-4665
tonces	-4666
émonos	-4667
▁desor	-4668
▁entra	-4669
▁monte	-4670
▁revis	-4671
▁sepas	-4672
▁suave	-4673
▁trago	-4674
▁Mantén	-4675
▁adónde	-4676
▁colina	-4677
▁defini	-4678
▁dispon	-4679
▁hombro	-4680
▁pareja	-4681
▁querer	-4682
▁regaló	-4683
▁riesgo	-4684
▁través	-4685
▁Incluso	-4686
▁abierto	-4687
▁conduce	-4688
▁conoció	-4689
▁fortuna	-4690
▁hablaba	-4691
▁hacerme	-4692
▁informe	-4693
▁permite	-4694
▁remedio	-4695
▁suceder	-4696
▁ayudarle	-4697
▁castillo	-4698
▁elección	-4699
▁escalera	-4700
▁estúpida	-4701
▁invitado	-4702
▁nosotras	-4703
▁poniendo	-4704
▁regresar	-4705
▁saliendo	-4706
▁supuesto	-4707
▁traducir	-4708
▁ayudarnos	-4709
▁decepcion	-4710
▁accidentes	-4711
▁afortunado	-4712
▁agradecido	-4713
▁calcetines	-4714
▁levantarme	-4715
▁nuevamente	-4716
▁significado	-4717
▁conversación	-4718
▁trabajadores	-4719
.»	-4720
ke	-4721
Com	-4722
Que	-4723
chu	-4724
ior	-4725
uta	-4726
▁Da	-4727
▁Mé	-4728
▁Sa	-4729
lina	-4730
rará	-4731
tali	-4732
éctr	-4733
éter	-4734
▁flo	-4735
▁gar	-4736
bería	-4737
ciado	-4738
ertas	-4739
rasil	-4740
stima	-4741
▁Come	-4742
▁acti	-4743
▁bomb	-4744
▁cuan	-4745
▁cuar	-4746
▁fuma	-4747
▁iría	-4748
▁suje	-4749
▁tomé	-4750
▁área	-4751
ciales	-4752
minist	-4753
undial	-4754
▁Comen	-4755
▁adver	-4756
▁curso	-4757
▁deben	-4758
▁dedic	-4759
▁estal	-4760
▁hagan	-4761
▁insul	-4762
▁pollo	-4763
▁resca	-4764
▁sonre	-4765
▁tanta	-4766
▁vemos	-4767
▁amigas	-4768
▁cintur	-4769
▁concen	-4770
▁contac	-4771
▁eléctr	-4772
▁embara	-4773
▁inútil	-4774
▁músico	-4775
▁podido	-4776
▁pronun	-4777
▁suéter	-4778
▁tenéis	-4779
▁toques	-4780
▁Escuché	-4781
▁Parecía	-4782
▁Vayamos	-4783
▁anciana	-4784
▁atraves	-4785
▁capitán	-4786
▁cercano	-4787
▁ejemplo	-4788
▁empresa	-4789
▁experim	-4790
▁guardar	-4791
▁iguales	-4792
▁molesta	-4793
▁piensan	-4794
▁podamos	-4795
▁pudimos	-4796
▁querido	-4797
▁seguido	-4798
▁asustado	-4799
▁consejos	-4800
▁deportes	-4801
▁enemigos	-4802
▁peligros	-4803
▁principi	-4804
▁quedamos	-4805
▁demasiada	-4806
▁disculpar	-4807
▁saludable	-4808
▁emergencia	-4809
▁lentamente	-4810
▁encontraste	-4811
▁últimamente	-4812
▁í	-4813
dez	-4814
ecé	-4815
jón	-4816
mir	-4817
▁18	-4818
▁Be	-4819
▁Ma	-4820
▁Ro	-4821
▁án	-4822
.000	-4823
arro	-4824
cida	-4825
erse	-4826
ezco	-4827
idas	-4828
itas	-4829
lida	-4830
osos	-4831
para	-4832
stes	-4833
toño	-4834
xico	-4835
▁dol	-4836
▁hir	-4837
▁mos	-4838
▁ore	-4839
▁ras	-4840
▁rin	-4841
Viste	-4842
darse	-4843
ergía	-4844
gante	-4845
guida	-4846
llado	-4847
ticas	-4848
ticos	-4849
zaste	-4850
▁Nací	-4851
▁abre	-4852
▁ansi	-4853
▁cose	-4854
▁efec	-4855
▁emba	-4856
▁just	-4857
▁naci	-4858
▁redu	-4859
▁rode	-4860
▁tomo	-4861
▁turi	-4862
Estáis	-4863
▁Consi	-4864
▁amena	-4865
▁apagó	-4866
▁batal	-4867
▁copia	-4868
▁creyó	-4869
▁cruel	-4870
▁debió	-4871
▁derra	-4872
▁débil	-4873
▁héroe	-4874
▁irnos	-4875
▁itali	-4876
▁llame	-4877
▁odian	-4878
▁otoño	-4879
▁pesca	-4880
▁provo	-4881
▁subir	-4882
▁trece	-4883
▁vende	-4884
Piensas	-4885
osición	-4886
▁Estuvo	-4887
▁Olvidé	-4888
▁Tráeme	-4889
▁aceptó	-4890
▁alarma	-4891
▁bebida	-4892
▁boleto	-4893
▁extrañ	-4894
▁habéis	-4895
▁mandar	-4896
▁quedes	-4897
▁recono	-4898
▁supone	-4899
▁vernos	-4900
▁vienes	-4901
▁Intenté	-4902
▁Llámame	-4903
▁armario	-4904
▁billete	-4905
▁consigo	-4906
▁contado	-4907
▁energía	-4908
▁funeral	-4909
▁interés	-4910
▁nombres	-4911
▁pensado	-4912
▁quedara	-4913
▁regresó	-4914
▁respeto	-4915
▁tendrás	-4916
▁tocando	-4917
▁vuelvas	-4918
▁Disculpe	-4919
▁Mientras	-4920
▁aquellos	-4921
▁ascensor	-4922
▁bebiendo	-4923
▁licencia	-4924
▁llegaste	-4925
▁quedaron	-4926
▁alimentar	-4927
▁disculpas	-4928
▁enseguida	-4929
▁fantasmas	-4930
▁ocultando	-4931
▁pasajeros	-4932
▁principal	-4933
▁zoológico	-4934
▁curiosidad	-4935
▁sorprender	-4936
▁canadienses	-4937
▁conferencia	-4938
▁departamento	-4939
..	-4940
3.	-4941
hí	-4942
wa	-4943
ñó	-4944
eno	-4945
leo	-4946
ria	-4947
Sabe	-4948
cera	-4949
orro	-4950
sist	-4951
vate	-4952
▁Ayú	-4953
▁Har	-4954
▁cel	-4955
▁cré	-4956
▁suf	-4957
donde	-4958
jiste	-4959
rando	-4960
taría	-4961
uelos	-4962
uidos	-4963
untos	-4964
▁Dale	-4965
▁cepi	-4966
▁hier	-4967
▁ibas	-4968
▁luce	-4969
▁mode	-4970
▁peda	-4971
▁piel	-4972
▁pose	-4973
▁romp	-4974
▁éste	-4975
enario	-4976
▁Hable	-4977
▁acabo	-4978
▁aguan	-4979
▁asomb	-4980
▁brill	-4981
▁depri	-4982
▁ellas	-4983
▁hecha	-4984
▁letra	-4985
▁mando	-4986
▁medic	-4987
▁nubes	-4988
▁primo	-4989
▁robar	-4990
▁éstos	-4991
▁Brasil	-4992
▁Hablar	-4993
▁aburri	-4994
▁acercó	-4995
▁diecis	-4996
▁esfuer	-4997
▁espejo	-4998
▁granja	-4999
▁iremos	-5000
▁lavado	-5001
▁limpio	-5002
▁llevan	-5003
▁rendir	-5004
▁salida	-5005
▁tareas	-5006
▁usando	-5007
▁alterna	-5008
▁artista	-5009
▁escribí	-5010
▁hacerse	-5011
▁nadando	-5012
▁octubre	-5013
▁paquete	-5014
▁queréis	-5015
▁relajar	-5016
▁retraso	-5017
▁urgente	-5018
▁vendría	-5019
▁viniera	-5020
▁abandonó	-5021
▁cansados	-5022
▁contrato	-5023
▁cuestión	-5024
▁esperado	-5025
▁gracioso	-5026
▁millones	-5027
▁personal	-5028
▁promesas	-5029
▁Esperemos	-5030
▁aprendido	-5031
▁compartir	-5032
▁conocemos	-5033
▁convirtió	-5034
▁despedido	-5035
▁escenario	-5036
▁impuestos	-5037
▁presentes	-5038
▁velocidad	-5039
▁verdadera	-5040
▁volviendo	-5041
▁intentarlo	-5042
▁preocupada	-5043
▁apartamento	-5044
▁condiciones	-5045
9.	-5046
zz	-5047
Les	-5048
Nos	-5049
Ven	-5050
ala	-5051
fru	-5052
ler	-5053
séñ	-5054
▁Ad	-5055
▁Ne	-5056
▁ej	-5057
▁il	-5058
Este	-5059
argo	-5060
fica	-5061
éndo	-5062
▁Llo	-5063
▁Mué	-5064
▁Poc	-5065
▁Sen	-5066
▁don	-5067
▁fís	-5068
▁ori	-5069
▁ran	-5070
▁rue	-5071
calde	-5072
girió	-5073
lleza	-5074
pendo	-5075
rarme	-5076
uelto	-5077
viera	-5078
▁Sién	-5079
▁chan	-5080
▁huyó	-5081
▁miel	-5082
▁moda	-5083
▁prác	-5084
▁unir	-5085
▁viva	-5086
encias	-5087
ienten	-5088
ándome	-5089
▁Antes	-5090
▁Aquel	-5091
▁Condu	-5092
▁Prome	-5093
▁breve	-5094
▁conmo	-5095
▁decía	-5096
▁decír	-5097
▁encer	-5098
▁incon	-5099
▁lindo	-5100
▁llamo	-5101
▁lleve	-5102
▁niñas	-5103
▁oblig	-5104
▁regla	-5105
▁verle	-5106
▁Manten	-5107
▁Recibí	-5108
▁celoso	-5109
▁coches	-5110
▁conden	-5111
▁confes	-5112
▁consec	-5113
▁deshac	-5114
▁disfra	-5115
▁económ	-5116
▁espere	-5117
▁largas	-5118
▁pagado	-5119
▁pelear	-5120
▁perdón	-5121
▁quedan	-5122
▁rehusó	-5123
▁sabían	-5124
▁toalla	-5125
▁violín	-5126
▁visitó	-5127
▁Detesto	-5128
▁Estaban	-5129
▁alcalde	-5130
▁apuesto	-5131
▁belleza	-5132
▁haberse	-5133
▁inventó	-5134
▁parecer	-5135
▁ponerse	-5136
▁practic	-5137
▁prision	-5138
▁progres	-5139
▁puntual	-5140
▁suicidó	-5141
▁tiempos	-5142
▁concentr	-5143
▁enfadada	-5144
▁ocurrido	-5145
▁preparar	-5146
▁reciente	-5147
▁sentarme	-5148
▁automóvil	-5149
▁conversar	-5150
▁enfermera	-5151
▁impresión	-5152
▁productos	-5153
▁tranquilo	-5154
▁aprendiste	-5155
▁encontramos	-5156
▁maravilloso	-5157
Si	-5158
ei	-5159
fo	-5160
id	-5161
pl	-5162
▁9	-5163
adi	-5164
iró	-5165
lio	-5166
seg	-5167
tua	-5168
ual	-5169
diós	-5170
este	-5171
gase	-5172
gust	-5173
lesc	-5174
trón	-5175
zaba	-5176
▁100	-5177
▁Apa	-5178
▁Vis	-5179
▁Vol	-5180
▁ger	-5181
▁lig	-5182
▁pés	-5183
▁tes	-5184
Tengo	-5185
aleza	-5186
icago	-5187
iedad	-5188
ilóme	-5189
usión	-5190
éjame	-5191
▁Entr	-5192
▁Sois	-5193
▁adiv	-5194
▁deje	-5195
▁loca	-5196
▁melo	-5197
▁quem	-5198
▁tocó	-5199
quiere	-5200
siones	-5201
▁Desde	-5202
▁Perdo	-5203
▁Vimos	-5204
▁actor	-5205
▁arena	-5206
▁atrac	-5207
▁bello	-5208
▁comes	-5209
▁dejas	-5210
▁exten	-5211
▁norte	-5212
▁polvo	-5213
▁repor	-5214
▁salva	-5215
▁salvó	-5216
cientos	-5217
▁México	-5218
▁Pregun	-5219
▁alfomb	-5220
▁altura	-5221
▁ataque	-5222
▁charla	-5223
▁cierra	-5224
▁formas	-5225
▁herida	-5226
▁hábito	-5227
▁imagen	-5228
▁incapa	-5229
▁mintió	-5230
▁ordenó	-5231
▁pesado	-5232
▁probar	-5233
▁quejas	-5234
▁tempor	-5235
icamente	-5236
ualmente	-5237
▁Chicago	-5238
▁Hagamos	-5239
▁acusado	-5240
▁admitir	-5241
▁adolesc	-5242
▁agotado	-5243
▁agujero	-5244
▁antiguo	-5245
▁capaces	-5246
▁cometió	-5247
▁crédito	-5248
▁escalar	-5249
▁invitar	-5250
▁lástima	-5251
▁molesto	-5252
▁muertos	-5253
▁repetir	-5254
▁saliera	-5255
▁soldado	-5256
▁soltero	-5257
▁sugirió	-5258
▁tratado	-5259
▁últimos	-5260
ilómetros	-5261
▁cinturón	-5262
▁despertó	-5263
▁familiar	-5264
▁libertad	-5265
▁muchacha	-5266
▁pusieron	-5267
▁ridículo	-5268
▁sencillo	-5269
▁tuvieron	-5270
▁vinieron	-5271
▁visitado	-5272
▁capacidad	-5273
▁entendido	-5274
▁habilidad	-5275
▁intentado	-5276
▁vergüenza	-5277
▁Pregúntale	-5278
▁compañeros	-5279
▁invitación	-5280
Yo	-5281
gá	-5282
:00	-5283
abu	-5284
gia	-5285
igo	-5286
rás	-5287
tía	-5288
uér	-5289
ést	-5290
Estu	-5291
cero	-5292
eses	-5293
itos	-5294
mica	-5295
olar	-5296
umen	-5297
▁Mon	-5298
▁crí	-5299
▁fas	-5300
▁pub	-5301
Estoy	-5302
chila	-5303
denes	-5304
tones	-5305
toria	-5306
▁Conf	-5307
▁Vete	-5308
▁acor	-5309
▁adic	-5310
▁cima	-5311
▁elef	-5312
▁excu	-5313
▁moto	-5314
▁pelu	-5315
▁puse	-5316
▁rock	-5317
▁sano	-5318
▁supo	-5319
▁temb	-5320
endido	-5321
mienta	-5322
▁Enséñ	-5323
▁adiós	-5324
▁baile	-5325
▁cantó	-5326
▁diste	-5327
▁falda	-5328
▁firme	-5329
▁guapo	-5330
▁inver	-5331
▁perio	-5332
▁persu	-5333
▁pintó	-5334
▁ponga	-5335
▁regañ	-5336
▁salga	-5337
▁verla	-5338
▁votar	-5339
cientes	-5340
guieron	-5341
stituto	-5342
▁Disfru	-5343
▁Guerra	-5344
▁Quiere	-5345
▁apresu	-5346
▁brazos	-5347
▁cambia	-5348
▁chiste	-5349
▁dulces	-5350
▁gustas	-5351
▁ilegal	-5352
▁materi	-5353
▁vieron	-5354
▁íbamos	-5355
▁alumnos	-5356
▁aspecto	-5357
▁ciencia	-5358
▁estarás	-5359
▁gerente	-5360
▁mochila	-5361
▁plantas	-5362
▁razones	-5363
▁sonreír	-5364
▁vayamos	-5365
▁acuerdas	-5366
▁alérgico	-5367
▁divertir	-5368
▁economía	-5369
▁efectivo	-5370
▁quedando	-5371
▁abandonar	-5372
▁controlar	-5373
▁esfuerzos	-5374
▁estupendo	-5375
▁historias	-5376
▁presentar	-5377
▁renunciar	-5378
▁extranjera	-5379
▁kilómetros	-5380
▁importancia	-5381
▁importantes	-5382
▁inteligentes	-5383
Pre	-5384
pto	-5385
una	-5386
zon	-5387
íde	-5388
Esta	-5389
cara	-5390
drán	-5391
ecen	-5392
toso	-5393
vard	-5394
▁Ahí	-5395
▁Cal	-5396
▁Llé	-5397
▁Mer	-5398
▁Ver	-5399
▁mez	-5400
▁quí	-5401
culos	-5402
didas	-5403
ganta	-5404
quito	-5405
rioso	-5406
▁Coge	-5407
▁Cuén	-5408
▁Dijo	-5409
▁Llam	-5410
▁Tres	-5411
▁cone	-5412
▁dile	-5413
▁inun	-5414
▁juez	-5415
▁nave	-5416
▁pilo	-5417
▁reve	-5418
▁rota	-5419
▁teme	-5420
▁tiró	-5421
▁trán	-5422
inario	-5423
tantes	-5424
uestra	-5425
ulario	-5426
▁altos	-5427
▁besar	-5428
▁coser	-5429
▁culti	-5430
▁falle	-5431
▁gener	-5432
▁herra	-5433
▁junio	-5434
▁llamé	-5435
▁notas	-5436
▁organ	-5437
▁preci	-5438
▁secun	-5439
▁vacío	-5440
Debería	-5441
Quieren	-5442
entamos	-5443
oncesto	-5444
▁actuar	-5445
▁aterri	-5446
▁escena	-5447
▁espero	-5448
▁fascin	-5449
▁malent	-5450
▁rieron	-5451
▁tantos	-5452
▁tendré	-5453
▁terror	-5454
▁trenes	-5455
▁venden	-5456
▁Harvard	-5457
▁cercana	-5458
▁comprom	-5459
▁desocup	-5460
▁miembro	-5461
▁pañuelo	-5462
▁persuad	-5463
▁piscina	-5464
▁salario	-5465
▁talento	-5466
▁telefón	-5467
▁atrasado	-5468
▁dentista	-5469
▁desearía	-5470
▁desperté	-5471
▁encendió	-5472
▁entregar	-5473
▁obedecer	-5474
▁pidiendo	-5475
▁sándwich	-5476
▁teníamos	-5477
▁tránsito	-5478
▁Cualquier	-5479
▁colectivo	-5480
▁delicioso	-5481
▁levantado	-5482
▁razonable	-5483
▁reuniones	-5484
▁solicitud	-5485
▁trabajaba	-5486
▁apariencia	-5487
▁baloncesto	-5488
▁claramente	-5489
▁hambriento	-5490
▁impaciente	-5491
▁conduciendo	-5492
▁fotografías	-5493
▁maravillosa	-5494
▁decepcionado	-5495
▁aproximadamente	-5496
▁definitivamente	-5497
Va	-5498
hu	-5499
Rec	-5500
bio	-5501
brí	-5502
gel	-5503
ped	-5504
sic	-5505
▁Bi	-5506
▁TV	-5507
aras	-5508
brio	-5509
enda	-5510
guro	-5511
lera	-5512
tuve	-5513
ules	-5514
zcas	-5515
ñado	-5516
▁Gan	-5517
▁Pri	-5518
▁Pás	-5519
▁ara	-5520
▁far	-5521
▁fij	-5522
▁neg	-5523
▁océ	-5524
▁ses	-5525
Habla	-5526
bimos	-5527
curso	-5528
daron	-5529
dista	-5530
jeron	-5531
uroso	-5532
vamos	-5533
▁Bien	-5534
▁Tomé	-5535
▁Vine	-5536
▁afec	-5537
▁anun	-5538
▁cere	-5539
▁coma	-5540
▁mías	-5541
▁queb	-5542
▁quiz	-5543
▁regu	-5544
▁rosa	-5545
▁ruso	-5546
▁seme	-5547
▁simp	-5548
▁vago	-5549
▁vali	-5550
áticos	-5551
▁Sentí	-5552
▁Trata	-5553
▁Traté	-5554
▁acusó	-5555
▁adora	-5556
▁ajust	-5557
▁apoyo	-5558
▁archi	-5559
▁calvo	-5560
▁cerdo	-5561
▁colgó	-5562
▁fines	-5563
▁genio	-5564
▁honor	-5565
▁indic	-5566
▁nevar	-5567
▁oírte	-5568
▁refri	-5569
▁relig	-5570
▁ricos	-5571
▁rumor	-5572
▁señor	-5573
▁video	-5574
▁Estudi	-5575
▁acabar	-5576
▁confío	-5577
▁descar	-5578
▁encuen	-5579
▁fueras	-5580
▁gritar	-5581
▁juzgar	-5582
▁medida	-5583
▁poemas	-5584
▁pongas	-5585
▁puesta	-5586
▁ruidos	-5587
▁suspen	-5588
▁vienen	-5589
▁visité	-5590
viamente	-5591
▁asuntos	-5592
▁aumento	-5593
▁ausente	-5594
▁batalla	-5595
▁casarte	-5596
▁comunic	-5597
▁descono	-5598
▁fracaso	-5599
▁grosero	-5600
▁imagina	-5601
▁inclinó	-5602
▁lugares	-5603
▁preparó	-5604
▁reparar	-5605
▁seguida	-5606
▁viniste	-5607
▁volando	-5608
▁Entiendo	-5609
▁Entonces	-5610
▁alfombra	-5611
▁cerrados	-5612
▁desierto	-5613
▁desperdi	-5614
▁electrón	-5615
▁francesa	-5616
▁garganta	-5617
▁llamaste	-5618
▁llegamos	-5619
▁peleando	-5620
▁quejando	-5621
▁requiere	-5622
▁teniendo	-5623
▁cocinando	-5624
▁consecuen	-5625
▁planeando	-5626
▁recuerdas	-5627
▁naturaleza	-5628
▁seriamente	-5629
▁acostumbrada	-5630
dá	-5631
ju	-5632
ái	-5633
gor	-5634
güe	-5635
ima	-5636
net	-5637
ume	-5638
▁Pi	-5639
▁«¿	-5640
eliz	-5641
iete	-5642
mada	-5643
rito	-5644
rías	-5645
timi	-5646
uele	-5647
vada	-5648
vide	-5649
▁chu	-5650
▁exa	-5651
▁nor	-5652
▁plu	-5653
▁ron	-5654
▁sil	-5655
▁tec	-5656
▁tru	-5657
istas	-5658
licóp	-5659
rador	-5660
sequi	-5661
yeron	-5662
ífico	-5663
▁Admi	-5664
▁Aseg	-5665
▁Guar	-5666
▁Haga	-5667
▁apel	-5668
▁caca	-5669
▁carb	-5670
▁cuyo	-5671
▁flui	-5672
▁hoja	-5673
▁iban	-5674
▁iden	-5675
▁león	-5676
▁seré	-5677
Tienen	-5678
bieron	-5679
ionado	-5680
mentar	-5681
▁Adoro	-5682
▁Inter	-5683
▁Venga	-5684
▁cajón	-5685
▁captu	-5686
▁comas	-5687
▁creen	-5688
▁divir	-5689
▁dormí	-5690
▁dudas	-5691
▁fecha	-5692
▁gasta	-5693
▁gorda	-5694
▁llenó	-5695
▁móvil	-5696
▁negra	-5697
▁pasan	-5698
▁pesad	-5699
▁quede	-5700
▁ratón	-5701
▁rojas	-5702
▁sirve	-5703
▁trato	-5704
oración	-5705
▁Empezó	-5706
▁Ningún	-5707
▁Podéis	-5708
▁Veamos	-5709
▁apropi	-5710
▁azules	-5711
▁dijera	-5712
▁hierro	-5713
▁instru	-5714
▁olvida	-5715
▁postre	-5716
▁primos	-5717
▁recuer	-5718
▁sabías	-5719
▁saltar	-5720
▁tamaño	-5721
▁Aquella	-5722
▁Compren	-5723
▁Escribe	-5724
▁Estudio	-5725
▁Intenta	-5726
▁Pasamos	-5727
▁Trabajo	-5728
▁agradec	-5729
▁antigua	-5730
▁celular	-5731
▁desnudo	-5732
▁embargo	-5733
▁enfadar	-5734
▁enojada	-5735
▁estupen	-5736
▁experto	-5737
▁helicóp	-5738
▁imaginé	-5739
▁intento	-5740
▁llegues	-5741
▁mercado	-5742
▁nevando	-5743
▁obsequi	-5744
▁pasamos	-5745
▁secuest	-5746
▁soporto	-5747
▁trataba	-5748
▁órdenes	-5749
▁caluroso	-5750
▁ciudades	-5751
▁empleado	-5752
▁llamando	-5753
▁llamarme	-5754
▁mantiene	-5755
▁refriger	-5756
▁secundar	-5757
▁utilizar	-5758
▁vosotras	-5759
▁arrestado	-5760
▁ciudadano	-5761
▁compañero	-5762
▁comprarlo	-5763
▁fijamente	-5764
▁inocencia	-5765
▁instituto	-5766
▁perdiendo	-5767
▁adelantado	-5768
▁científico	-5769
▁compromiso	-5770
▁confundido	-5771
▁elecciones	-5772
▁alternativa	-5773
▁considerado	-5774
▁emocionante	-5775
?»	-5776
So	-5777
cam	-5778
dap	-5779
gal	-5780
ite	-5781
lor	-5782
moh	-5783
teó	-5784
▁Ci	-5785
▁Pe	-5786
▁vá	-5787
dias	-5788
dica	-5789
icia	-5790
into	-5791
mina	-5792
okka	-5793
ticu	-5794
íste	-5795
▁Ayu	-5796
▁Haw	-5797
▁Leí	-5798
▁apr	-5799
▁ego	-5800
▁mic	-5801
▁pen	-5802
▁ree	-5803
▁vir	-5804
arías	-5805
bulan	-5806
cados	-5807
cemos	-5808
ficos	-5809
pción	-5810
rarte	-5811
tural	-5812
ánico	-5813
▁Abre	-5814
▁Apre	-5815
▁Comí	-5816
▁Tuvo	-5817
▁Vale	-5818
▁astr	-5819
▁dime	-5820
▁exha	-5821
▁fila	-5822
▁humi	-5823
▁inci	-5824
▁infl	-5825
▁lava	-5826
▁meta	-5827
▁olor	-5828
▁past	-5829
▁plát	-5830
▁trae	-5831
▁uvas	-5832
▁vano	-5833
▁Asumo	-5834
▁Entra	-5835
▁Hablé	-5836
▁Hokka	-5837
▁Ponte	-5838
▁almoh	-5839
▁avent	-5840
▁causó	-5841
▁chist	-5842
▁creas	-5843
▁estro	-5844
▁estén	-5845
▁lados	-5846
▁líder	-5847
▁nivel	-5848
▁pasto	-5849
▁patin	-5850
▁queja	-5851
▁señal	-5852
▁tarda	-5853
▁tipos	-5854
▁usado	-5855
▁valla	-5856
▁venía	-5857
▁villa	-5858
Quiénes	-5859
▁actriz	-5860
▁aprobó	-5861
▁aprove	-5862
▁arranc	-5863
▁bebido	-5864
▁bromas	-5865
▁calles	-5866
▁coinci	-5867
▁confir	-5868
▁creció	-5869
▁cumpli	-5870
▁enviar	-5871
▁escapó	-5872
▁estric	-5873
▁física	-5874
▁ingeni	-5875
▁litera	-5876
▁marcha	-5877
▁martes	-5878
▁navide	-5879
▁obtuvo	-5880
▁orejas	-5881
▁pasara	-5882
▁planea	-5883
▁podéis	-5884
▁resist	-5885
▁suelen	-5886
▁tomará	-5887
piración	-5888
▁Podrías	-5889
▁ayudado	-5890
▁cerrado	-5891
▁descubi	-5892
▁directo	-5893
▁electri	-5894
▁guantes	-5895
▁humanos	-5896
▁incapaz	-5897
▁inesper	-5898
▁levanto	-5899
▁mejorar	-5900
▁sentada	-5901
▁suponía	-5902
▁testigo	-5903
Necesitas	-5904
▁Hokkaido	-5905
▁Nuestros	-5906
▁estacion	-5907
▁imaginar	-5908
▁llegaría	-5909
▁mostraré	-5910
▁perfecta	-5911
▁posición	-5912
▁Esperamos	-5913
▁asesinado	-5914
▁construyó	-5915
▁contrario	-5916
▁disfrutar	-5917
▁podríamos	-5918
▁preferida	-5919
▁profesion	-5920
▁bienvenido	-5921
▁documentos	-5922
▁formulario	-5923
▁participar	-5924
▁desapareció	-5925
▁dificultades	-5926
▁refrigerador	-5927
▁cuidadosamente	-5928
2.	-5929
Sí	-5930
Vi	-5931
sf	-5932
▁Z	-5933
Des	-5934
are	-5935
ilo	-5936
más	-5937
ney	-5938
ong	-5939
ude	-5940
uto	-5941
▁50	-5942
▁dí	-5943
ampi	-5944
cula	-5945
orra	-5946
rori	-5947
tari	-5948
uena	-5949
usia	-5950
▁Col	-5951
▁Eli	-5952
▁Fal	-5953
▁Via	-5954
▁Vos	-5955
▁caí	-5956
▁int	-5957
▁mín	-5958
▁sub	-5959
▁var	-5960
▁vea	-5961
▁zoo	-5962
▁Ésa	-5963
▁Ése	-5964
frica	-5965
ginas	-5966
laron	-5967
loque	-5968
stica	-5969
tidos	-5970
▁Enci	-5971
▁Esco	-5972
▁adap	-5973
▁ador	-5974
▁bebo	-5975
▁crea	-5976
▁dará	-5977
▁dejo	-5978
▁diam	-5979
▁dirá	-5980
▁jazz	-5981
▁jubi	-5982
▁luch	-5983
▁mira	-5984
▁movi	-5985
▁méto	-5986
▁nota	-5987
▁sole	-5988
▁uñas	-5989
ciedad	-5990
guemos	-5991
tróleo	-5992
ulares	-5993
ército	-5994
▁Algún	-5995
▁Bueno	-5996
▁Levan	-5997
▁absur	-5998
▁aplau	-5999
▁autén	-6000
▁bordo	-6001
▁calen	-6002
▁camar	-6003
▁corte	-6004
▁destr	-6005
▁ensal	-6006
▁escas	-6007
▁estad	-6008
▁extin	-6009
▁gasol	-6010
▁horne	-6011
▁mandó	-6012
▁marca	-6013
▁pizar	-6014
▁punta	-6015
▁sushi	-6016
▁temer	-6017
▁toque	-6018
▁tortu	-6019
▁tradi	-6020
▁vives	-6021
▁Contin	-6022
▁Llovió	-6023
▁Sencil	-6024
▁acceso	-6025
▁consul	-6026
▁crimin	-6027
▁demost	-6028
▁enfadó	-6029
▁explos	-6030
▁grados	-6031
▁incómo	-6032
▁metros	-6033
▁océano	-6034
▁pareci	-6035
▁placer	-6036
▁pobres	-6037
▁repent	-6038
▁reunir	-6039
▁siesta	-6040
▁sosten	-6041
▁sueles	-6042
▁Ayúdame	-6043
▁aliento	-6044
▁ambulan	-6045
▁aprendí	-6046
▁ayudará	-6047
▁calidad	-6048
▁colores	-6049
▁comiste	-6050
▁condujo	-6051
▁dejaría	-6052
▁escucho	-6053
▁estalló	-6054
▁fuertes	-6055
▁haremos	-6056
▁juguete	-6057
▁monedas	-6058
▁obtener	-6059
▁planeta	-6060
▁propios	-6061
▁páginas	-6062
▁recogió	-6063
▁Mantente	-6064
▁adecuado	-6065
▁amarilla	-6066
▁apellido	-6067
▁concurso	-6068
▁contener	-6069
▁cubierto	-6070
▁derechos	-6071
▁director	-6072
▁escondió	-6073
▁extraños	-6074
▁familias	-6075
▁lavadora	-6076
▁muriendo	-6077
▁olvidaré	-6078
▁opciones	-6079
▁petróleo	-6080
▁prefiero	-6081
▁presentó	-6082
▁producto	-6083
▁satisfac	-6084
▁sentados	-6085
▁sentarse	-6086
▁voluntad	-6087
▁agradecer	-6088
▁conocimos	-6089
▁construir	-6090
▁despierta	-6091
▁documento	-6092
▁empezaron	-6093
▁encantado	-6094
▁enseñarme	-6095
▁funcionar	-6096
▁estuvieron	-6097
▁periódicos	-6098
▁atentamente	-6099
▁comentarios	-6100
▁electrónico	-6101
▁electricidad	-6102
▁Sencillamente	-6103
▁responsabilidad	-6104
et	-6105
Lla	-6106
bla	-6107
rum	-6108
vís	-6109
íes	-6110
▁Or	-6111
▁Sh	-6112
▁iP	-6113
anda	-6114
dará	-6115
mpla	-6116
quía	-6117
stru	-6118
teme	-6119
tese	-6120
umar	-6121
▁Cen	-6122
▁Cer	-6123
▁Lin	-6124
▁Pón	-6125
▁cés	-6126
▁env	-6127
▁fer	-6128
▁imi	-6129
arnos	-6130
chera	-6131
ciera	-6132
ental	-6133
junto	-6134
lados	-6135
queza	-6136
tiles	-6137
uicio	-6138
usias	-6139
zados	-6140
▁Creí	-6141
▁Dejó	-6142
▁Hizo	-6143
▁Tome	-6144
▁Vive	-6145
▁afei	-6146
▁amas	-6147
▁ambi	-6148
▁atas	-6149
▁aula	-6150
▁bala	-6151
▁cach	-6152
▁choc	-6153
▁clás	-6154
▁cont	-6155
▁core	-6156
▁dete	-6157
▁gast	-6158
▁lími	-6159
▁mutu	-6160
▁poca	-6161
▁sube	-6162
▁tene	-6163
▁veas	-6164
▁vita	-6165
ciocho	-6166
currió	-6167
ecemos	-6168
tencia	-6169
táculo	-6170
▁Hawái	-6171
▁Llegó	-6172
▁Muést	-6173
▁Permí	-6174
▁admir	-6175
▁alivi	-6176
▁apete	-6177
▁botas	-6178
▁cabra	-6179
▁china	-6180
▁cruzó	-6181
▁cuida	-6182
▁deuda	-6183
▁dueño	-6184
▁escla	-6185
▁expli	-6186
▁falso	-6187
▁harás	-6188
▁impac	-6189
▁inqui	-6190
▁malos	-6191
▁mires	-6192
▁muere	-6193
▁muero	-6194
▁patio	-6195
▁pongo	-6196
▁refle	-6197
▁román	-6198
▁rosas	-6199
▁sabor	-6200
▁talla	-6201
▁tinta	-6202
▁vacas	-6203
▁veter	-6204
▁volví	-6205
Estabas	-6206
guiendo	-6207
icación	-6208
▁Tenéis	-6209
▁alguno	-6210
▁aparte	-6211
▁britán	-6212
▁ciento	-6213
▁conser	-6214
▁cristi	-6215
▁césped	-6216
▁dedicó	-6217
▁echado	-6218
▁enojar	-6219
▁excusa	-6220
▁existe	-6221
▁honest	-6222
▁humano	-6223
▁ignoró	-6224
▁juegos	-6225
▁jugaba	-6226
▁matado	-6227
▁memori	-6228
▁mordió	-6229
▁normas	-6230
▁ocurre	-6231
▁pasear	-6232
▁pesada	-6233
▁rostro	-6234
▁seguía	-6235
▁tejado	-6236
timiento	-6237
▁Bienven	-6238
▁Vivimos	-6239
▁aquello	-6240
▁asesino	-6241
▁callado	-6242
▁campana	-6243
▁casarme	-6244
▁divorci	-6245
▁entregó	-6246
▁esperan	-6247
▁estrope	-6248
▁gallina	-6249
▁hacerle	-6250
▁indepen	-6251
▁influen	-6252
▁llevaré	-6253
▁materna	-6254
▁mejilla	-6255
▁mentido	-6256
▁ocasión	-6257
▁picante	-6258
▁presión	-6259
▁pruebas	-6260
▁quedaba	-6261
▁regular	-6262
▁reserva	-6263
▁sábados	-6264
▁tendría	-6265
▁volumen	-6266
▁ayudaría	-6267
▁bailando	-6268
▁contarte	-6269
▁cuarenta	-6270
▁ensalada	-6271
▁entusias	-6272
▁estanque	-6273
▁infancia	-6274
▁llevarse	-6275
▁parecido	-6276
▁pimienta	-6277
▁político	-6278
▁sensible	-6279
▁sociedad	-6280
▁Asegúrate	-6281
▁alimentos	-6282
▁americano	-6283
▁autoridad	-6284
▁continuar	-6285
▁contratar	-6286
▁enamorada	-6287
▁escondido	-6288
▁estudiado	-6289
▁explosión	-6290
▁incidente	-6291
▁amabilidad	-6292
▁ambulancia	-6293
▁complicado	-6294
▁disponible	-6295
▁interesada	-6296
▁reputación	-6297
▁secundaria	-6298
▁sobrevivir	-6299
▁vecindario	-6300
▁encontraron	-6301
▁espectáculo	-6302
▁experimento	-6303
▁imaginación	-6304
▁medicamento	-6305
▁preocuparse	-6306
▁investigación	-6307
Los	-6308
amp	-6309
ash	-6310
dén	-6311
edí	-6312
esp	-6313
mba	-6314
món	-6315
ríe	-6316
úme	-6317
▁Fa	-6318
▁Há	-6319
Pens	-6320
dero	-6321
gura	-6322
lear	-6323
orno	-6324
poca	-6325
ueba	-6326
vino	-6327
▁Dev	-6328
▁Gen	-6329
▁Lim	-6330
▁Nad	-6331
▁Pro	-6332
▁act	-6333
▁amp	-6334
▁ató	-6335
▁cae	-6336
▁dañ	-6337
▁fla	-6338
▁fle	-6339
▁joy	-6340
▁oso	-6341
▁sig	-6342
▁sop	-6343
▁ése	-6344
adero	-6345
dores	-6346
drían	-6347
ender	-6348
raste	-6349
semos	-6350
taban	-6351
temos	-6352
trase	-6353
tribu	-6354
ídele	-6355
▁Apar	-6356
▁Deme	-6357
▁Fuer	-6358
▁Sabe	-6359
▁Tras	-6360
▁cero	-6361
▁daba	-6362
▁dama	-6363
▁echo	-6364
▁egoí	-6365
▁empu	-6366
▁gras	-6367
▁grie	-6368
▁humo	-6369
▁húme	-6370
▁mare	-6371
▁mezc	-6372
▁mono	-6373
▁muer	-6374
▁nací	-6375
▁quej	-6376
▁refu	-6377
▁test	-6378
▁vine	-6379
▁ésta	-6380
Cuánta	-6381
ancias	-6382
güedad	-6383
radora	-6384
tición	-6385
ármelo	-6386
árselo	-6387
▁Camin	-6388
▁Corrí	-6389
▁Quien	-6390
▁Suelo	-6391
▁Venid	-6392
▁abril	-6393
▁aguar	-6394
▁apoyó	-6395
▁atrap	-6396
▁barba	-6397
▁carga	-6398
▁cazar	-6399
▁concl	-6400
▁conge	-6401
▁costa	-6402
▁derri	-6403
▁engor	-6404
▁esquí	-6405
▁fasti	-6406
▁finan	-6407
▁fuese	-6408
▁lucía	-6409
▁oeste	-6410
▁pinta	-6411
▁podré	-6412
▁presu	-6413
▁quejó	-6414
▁quemó	-6415
▁recur	-6416
▁serás	-6417
▁sordo	-6418
▁tifón	-6419
▁época	-6420
mientas	-6421
olución	-6422
ticular	-6423
▁Déjalo	-6424
▁Planeo	-6425
▁adonde	-6426
▁arrojó	-6427
▁atrapó	-6428
▁camina	-6429
▁coraje	-6430
▁cómodo	-6431
▁déjame	-6432
▁enfren	-6433
▁hundió	-6434
▁incons	-6435
▁marchó	-6436
▁metido	-6437
▁modelo	-6438
▁ocurra	-6439
▁olvide	-6440
▁paliza	-6441
▁partió	-6442
▁pierde	-6443
▁piloto	-6444
▁quieto	-6445
▁saludó	-6446
▁sellos	-6447
▁sincer	-6448
▁vengan	-6449
inamente	-6450
▁Querría	-6451
▁acuerda	-6452
▁comidas	-6453
▁cosecha	-6454
▁dejaron	-6455
▁elegido	-6456
▁escolar	-6457
▁estampi	-6458
▁estudió	-6459
▁gemelos	-6460
▁gustado	-6461
▁melodía	-6462
▁miraron	-6463
▁oficial	-6464
▁ponerle	-6465
▁ponerte	-6466
▁privado	-6467
▁retrasó	-6468
▁sonando	-6469
Recuerdas	-6470
tualmente	-6471
▁Deberían	-6472
▁Enséñame	-6473
▁advirtió	-6474
▁amarillo	-6475
▁ayudando	-6476
▁botellas	-6477
▁disculpa	-6478
▁ejército	-6479
▁embajada	-6480
▁encender	-6481
▁entradas	-6482
▁exhausto	-6483
▁hablamos	-6484
▁intercam	-6485
▁martillo	-6486
▁obsequio	-6487
▁prefiere	-6488
▁presente	-6489
▁respirar	-6490
▁trabajan	-6491
▁turistas	-6492
▁vegetari	-6493
▁vuestros	-6494
▁dieciocho	-6495
▁izquierdo	-6496
▁mostrarte	-6497
▁muchísimo	-6498
▁permitido	-6499
▁sorprende	-6500
▁temporada	-6501
▁almorzando	-6502
▁americanos	-6503
▁arrepiento	-6504
▁embarazada	-6505
▁emocionado	-6506
▁encantaría	-6507
▁honestidad	-6508
▁particular	-6509
▁serpientes	-6510
▁convertirse	-6511
▁involucrado	-6512
▁habitaciones	-6513
▁herramientas	-6514
▁malentendido	-6515
▁instrucciones	-6516
▁recientemente	-6517
5.	-6518
xí	-6519
Ves	-6520
cén	-6521
neo	-6522
pue	-6523
▁Lu	-6524
▁ev	-6525
▁só	-6526
adme	-6527
cipe	-6528
eles	-6529
ezca	-6530
gáis	-6531
ific	-6532
isas	-6533
lena	-6534
rast	-6535
tara	-6536
▁Ade	-6537
▁Ali	-6538
▁Amo	-6539
▁Lee	-6540
▁Rep	-6541
▁dob	-6542
▁inm	-6543
▁jug	-6544
▁oxí	-6545
Ellos	-6546
abaco	-6547
adora	-6548
giero	-6549
intió	-6550
jante	-6551
prete	-6552
riera	-6553
steis	-6554
tuoso	-6555
uegos	-6556
yendo	-6557
▁Adiv	-6558
▁Asum	-6559
▁Clar	-6560
▁Juan	-6561
▁Pase	-6562
▁apuñ	-6563
▁cafe	-6564
▁conc	-6565
▁espa	-6566
▁grab	-6567
▁lujo	-6568
▁magn	-6569
▁mila	-6570
▁oper	-6571
▁opon	-6572
▁rogó	-6573
▁sobr	-6574
cieron	-6575
dición	-6576
▁Almor	-6577
▁Entre	-6578
▁Fumar	-6579
▁Haría	-6580
▁Llama	-6581
▁Murió	-6582
▁Rusia	-6583
▁Tradu	-6584
▁diera	-6585
▁ensay	-6586
▁hijas	-6587
▁inclu	-6588
▁indis	-6589
▁jaula	-6590
▁lento	-6591
▁obvio	-6592
▁pasas	-6593
▁pluma	-6594
▁revés	-6595
▁sabés	-6596
▁senté	-6597
▁sucio	-6598
▁telef	-6599
▁torre	-6600
▁vícti	-6601
▁éstas	-6602
alizado	-6603
entando	-6604
▁Regres	-6605
▁Tendré	-6606
▁apretó	-6607
▁apuntó	-6608
▁caminó	-6609
▁cargar	-6610
▁cerrad	-6611
▁cierre	-6612
▁comité	-6613
▁confía	-6614
▁engañó	-6615
▁estupi	-6616
▁exager	-6617
▁felici	-6618
▁indust	-6619
▁juicio	-6620
▁labios	-6621
▁millón	-6622
▁moneda	-6623
▁muerta	-6624
▁método	-6625
▁optimi	-6626
▁origin	-6627
▁oscura	-6628
▁pasaba	-6629
▁piense	-6630
▁planta	-6631
▁pospon	-6632
▁propor	-6633
▁quitar	-6634
▁repres	-6635
▁riendo	-6636
▁sombra	-6637
▁suceda	-6638
▁tabaco	-6639
▁tesoro	-6640
▁África	-6641
▁Hicimos	-6642
▁Primero	-6643
▁acostar	-6644
▁ahorrar	-6645
▁atrapar	-6646
▁bandera	-6647
▁chistes	-6648
▁cobarde	-6649
▁conejos	-6650
▁cuentas	-6651
▁cuántas	-6652
▁cuántos	-6653
▁decirlo	-6654
▁declaró	-6655
▁desarro	-6656
▁disgust	-6657
▁educado	-6658
▁escuché	-6659
▁furioso	-6660
▁guardia	-6661
▁hagamos	-6662
▁lamento	-6663
▁lección	-6664
▁maestra	-6665
▁oxígeno	-6666
▁partida	-6667
▁pasarme	-6668
▁pizarra	-6669
▁prendió	-6670
▁reducir	-6671
▁regrese	-6672
▁reporte	-6673
▁robando	-6674
▁rodilla	-6675
▁tomaron	-6676
▁vestida	-6677
▁Aprender	-6678
▁Esperaré	-6679
▁Hablemos	-6680
▁Internet	-6681
▁Limítate	-6682
▁almohada	-6683
▁aprendió	-6684
▁asientos	-6685
▁ausencia	-6686
▁caminaba	-6687
▁clientes	-6688
▁contrase	-6689
▁gasolina	-6690
▁llegarás	-6691
▁mentiras	-6692
▁momentos	-6693
▁pidieron	-6694
▁salieron	-6695
▁universo	-6696
▁volvería	-6697
▁Deberíais	-6698
▁Muéstrame	-6699
▁brillante	-6700
▁comprarle	-6701
▁comprarse	-6702
▁deprimido	-6703
▁evidencia	-6704
▁jugadores	-6705
▁naturales	-6706
▁necesites	-6707
▁perdieron	-6708
▁sonriendo	-6709
▁bienvenida	-6710
▁cigarrillo	-6711
▁comentario	-6712
▁diecisiete	-6713
▁encuentras	-6714
▁mutuamente	-6715
▁observando	-6716
▁permanecer	-6717
▁recomendar	-6718
▁descubierto	-6719
▁despertador	-6720
▁discutiendo	-6721
▁extranjeras	-6722
▁helicóptero	-6723
▁computadores	-6724
▁acostumbrarse	-6725
▁Afortunadamente	-6726
8.	-6727
Ah	-6728
Ay	-6729
cú	-6730
só	-6731
Sal	-6732
bar	-6733
bia	-6734
ché	-6735
cta	-6736
gil	-6737
gna	-6738
pic	-6739
tás	-6740
tér	-6741
ván	-6742
▁25	-6743
▁Ca	-6744
▁Go	-6745
▁Ta	-6746
▁añ	-6747
▁ge	-6748
▁ál	-6749
Hace	-6750
amas	-6751
blia	-6752
book	-6753
dras	-6754
galo	-6755
llan	-6756
ojos	-6757
uida	-6758
▁200	-6759
▁Sír	-6760
▁abe	-6761
▁hal	-6762
▁hom	-6763
▁loc	-6764
▁láp	-6765
▁nub	-6766
▁núm	-6767
▁pec	-6768
▁pus	-6769
▁ríe	-6770
0.000	-6771
cidos	-6772
mosle	-6773
rería	-6774
samos	-6775
tinas	-6776
tivas	-6777
▁Limp	-6778
▁atre	-6779
▁copa	-6780
▁diab	-6781
▁dipl	-6782
▁disp	-6783
▁fiar	-6784
▁iPad	-6785
▁lavó	-6786
▁limi	-6787
▁muro	-6788
▁osos	-6789
▁pago	-6790
▁pavo	-6791
▁pozo	-6792
▁prín	-6793
▁recu	-6794
▁saca	-6795
▁sacu	-6796
▁sang	-6797
▁sean	-6798
▁secó	-6799
▁sufr	-6800
▁tumb	-6801
▁unif	-6802
Pueden	-6803
Tenéis	-6804
abezas	-6805
dación	-6806
gnante	-6807
ington	-6808
landia	-6809
ración	-6810
sistió	-6811
éndose	-6812
▁Asumí	-6813
▁Empie	-6814
▁Hacía	-6815
▁Pocos	-6816
▁Podés	-6817
▁Salió	-6818
▁Tanto	-6819
▁Vengo	-6820
▁aclar	-6821
▁ascen	-6822
▁aspir	-6823
▁ayudé	-6824
▁balde	-6825
▁caído	-6826
▁clara	-6827
▁comía	-6828
▁conec	-6829
▁darse	-6830
▁desea	-6831
▁helad	-6832
▁locos	-6833
▁malga	-6834
▁norma	-6835
▁ofrec	-6836
▁persi	-6837
▁posee	-6838
▁vasos	-6839
▁viera	-6840
▁yendo	-6841
▁zorro	-6842
Queréis	-6843
▁Biblia	-6844
▁Busqué	-6845
▁Conocí	-6846
▁Dígame	-6847
▁Fueron	-6848
▁Pídele	-6849
▁acción	-6850
▁acondi	-6851
▁alegre	-6852
▁arrest	-6853
▁ayudes	-6854
▁collar	-6855
▁compre	-6856
▁desgra	-6857
▁eligió	-6858
▁estilo	-6859
▁fuente	-6860
▁gastos	-6861
▁harina	-6862
▁juegan	-6863
▁leerlo	-6864
▁maneja	-6865
▁miente	-6866
▁miraba	-6867
▁odiaba	-6868
▁opinas	-6869
▁organi	-6870
▁pálido	-6871
▁rápida	-6872
▁salgas	-6873
▁sirvió	-6874
▁subido	-6875
▁sujeto	-6876
▁talent	-6877
▁Mundial	-6878
▁Perdone	-6879
▁Sabemos	-6880
▁actitud	-6881
▁adultos	-6882
▁ansioso	-6883
▁aparcar	-6884
▁cigarro	-6885
▁cliente	-6886
▁cochera	-6887
▁confesó	-6888
▁costará	-6889
▁cultura	-6890
▁decente	-6891
▁egoísta	-6892
▁horario	-6893
▁intenta	-6894
▁lastimó	-6895
▁llamaba	-6896
▁llegara	-6897
▁lloverá	-6898
▁lápices	-6899
▁maletas	-6900
▁moderna	-6901
▁natural	-6902
▁números	-6903
▁pedirte	-6904
▁ponerme	-6905
▁propias	-6906
▁puertas	-6907
▁química	-6908
▁reconoc	-6909
▁regreso	-6910
▁sienten	-6911
▁soñando	-6912
▁superfi	-6913
▁tradujo	-6914
▁vueltas	-6915
ticamente	-6916
▁Siéntate	-6917
▁aburrida	-6918
▁anteojos	-6919
▁conjunto	-6920
▁cuestion	-6921
▁desesper	-6922
▁deshacer	-6923
▁enseñaré	-6924
▁estudias	-6925
▁funcionó	-6926
▁habitual	-6927
▁italiano	-6928
▁llevarme	-6929
▁misterio	-6930
▁necesite	-6931
▁perdonar	-6932
▁promedio	-6933
▁príncipe	-6934
▁pudieras	-6935
▁revistas	-6936
▁secretos	-6937
▁subestim	-6938
▁suminist	-6939
▁tengamos	-6940
▁triunfar	-6941
▁agradeció	-6942
▁amarillas	-6943
▁arrogante	-6944
▁bolsillos	-6945
▁condición	-6946
▁conocerte	-6947
▁decidiste	-6948
▁divertida	-6949
▁invitaron	-6950
▁mostrarme	-6951
▁muchachos	-6952
▁pronuncia	-6953
▁sensación	-6954
▁tendremos	-6955
▁antigüedad	-6956
▁construido	-6957
▁explicarlo	-6958
▁repugnante	-6959
▁sugerencia	-6960
▁científicos	-6961
▁encontrarte	-6962
▁preguntarte	-6963
▁profesional	-6964
▁construcción	-6965
▁impresionado	-6966
▁inconsciente	-6967
▁interesantes	-6968
▁frecuentemente	-6969
ip	-6970
op	-6971
amb	-6972
cra	-6973
ile	-6974
jen	-6975
lín	-6976
mig	-6977
ose	-6978
ovi	-6979
pio	-6980
sia	-6981
▁"¡	-6982
▁11	-6983
▁Af	-6984
▁Lá	-6985
▁ló	-6986
Comp	-6987
Pero	-6988
aria	-6989
cesa	-6990
coln	-6991
enme	-6992
gale	-6993
imen	-6994
ines	-6995
tear	-6996
tien	-6997
tora	-6998
▁197	-6999
▁201	-7000
▁Cru	-7001
▁Exp	-7002
▁agi	-7003
▁cad	-7004
▁fab	-7005
▁feo	-7006
▁jab	-7007
▁ove	-7008
▁pij	-7009
▁ros	-7010
▁sar	-7011
Sabés	-7012
Todos	-7013
caron	-7014
cimos	-7015
garse	-7016
ieron	-7017
inada	-7018
lista	-7019
tarlo	-7020
uiste	-7021
urgue	-7022
uélve	-7023
vante	-7024
árate	-7025
▁Cons	-7026
▁Cuen	-7027
▁Déje	-7028
▁Sali	-7029
▁Wash	-7030
▁arti	-7031
▁cana	-7032
▁chil	-7033
▁chir	-7034
▁creí	-7035
▁echa	-7036
▁gane	-7037
▁mudó	-7038
▁murm	-7039
▁neum	-7040
▁reac	-7041
▁rell	-7042
▁seca	-7043
▁sois	-7044
▁soli	-7045
▁supe	-7046
▁tiro	-7047
▁tími	-7048
▁zona	-7049
Habéis	-7050
tillas	-7051
ándote	-7052
▁Gener	-7053
▁Ponga	-7054
▁Sobre	-7055
▁atacó	-7056
▁borde	-7057
▁celos	-7058
▁cereb	-7059
▁conté	-7060
▁coste	-7061
▁crecí	-7062
▁cuidó	-7063
▁datos	-7064
▁gripe	-7065
▁intér	-7066
▁irres	-7067
▁lanzó	-7068
▁llego	-7069
▁lobos	-7070
▁logro	-7071
▁music	-7072
▁ocupa	-7073
▁prede	-7074
▁prést	-7075
▁reina	-7076
▁repro	-7077
▁rojos	-7078
▁salón	-7079
▁tales	-7080
▁tazas	-7081
▁tinto	-7082
▁tramp	-7083
▁tuyos	-7084
▁veloz	-7085
▁vivos	-7086
▁ángel	-7087
Ustedes	-7088
gámoslo	-7089
stieron	-7090
taremos	-7091
▁Esperé	-7092
▁aceite	-7093
▁actual	-7094
▁adulto	-7095
▁arrast	-7096
▁atento	-7097
▁cheque	-7098
▁cogido	-7099
▁cómoda	-7100
▁desmay	-7101
▁devuel	-7102
▁esperé	-7103
▁firmar	-7104
▁homici	-7105
▁letras	-7106
▁ligero	-7107
▁misión	-7108
▁mínimo	-7109
▁pintor	-7110
▁podías	-7111
▁pánico	-7112
▁quedas	-7113
▁rompec	-7114
▁sanguí	-7115
▁tantas	-7116
cionales	-7117
▁Cuidado	-7118
▁Escriba	-7119
▁Lincoln	-7120
▁Tendrás	-7121
▁alcanzó	-7122
▁alegría	-7123
▁apetito	-7124
▁aprobar	-7125
▁clásica	-7126
▁combust	-7127
▁complic	-7128
▁confuso	-7129
▁cortina	-7130
▁dejarlo	-7131
▁delgado	-7132
▁desmayó	-7133
▁detalle	-7134
▁dormida	-7135
▁emborra	-7136
▁entendí	-7137
▁exitoso	-7138
▁ganando	-7139
▁gastado	-7140
▁gatillo	-7141
▁haberla	-7142
▁lectura	-7143
▁llevará	-7144
▁lotería	-7145
▁navidad	-7146
▁olvidad	-7147
▁papeles	-7148
▁pasaste	-7149
▁patinar	-7150
▁pienses	-7151
▁poquito	-7152
▁prepara	-7153
▁quienes	-7154
▁sudando	-7155
▁tenedor	-7156
ariamente	-7157
▁Cuéntame	-7158
▁Esperaba	-7159
▁Juguemos	-7160
▁Llegamos	-7161
▁Teníamos	-7162
▁acciones	-7163
▁agradeci	-7164
▁ancianos	-7165
▁anterior	-7166
▁atravesó	-7167
▁cocinero	-7168
▁continuó	-7169
▁cruzando	-7170
▁cuaderno	-7171
▁detenido	-7172
▁disculpó	-7173
▁disfruta	-7174
▁divorcio	-7175
▁empiezan	-7176
▁estarías	-7177
▁expresar	-7178
▁extrañar	-7179
▁falleció	-7180
▁habíamos	-7181
▁hermosas	-7182
▁incómodo	-7183
▁insectos	-7184
▁juguetes	-7185
▁librería	-7186
▁linterna	-7187
▁llamadas	-7188
▁nerviosa	-7189
▁obligado	-7190
▁preciosa	-7191
▁progreso	-7192
▁quejarse	-7193
▁recursos	-7194
▁religión	-7195
▁resistir	-7196
▁resolvió	-7197
▁resuelto	-7198
▁segundos	-7199
▁sentamos	-7200
▁subiendo	-7201
▁trabajos	-7202
▁traicion	-7203
▁Tendremos	-7204
▁agradezco	-7205
▁auténtico	-7206
▁cafetería	-7207
▁comenzado	-7208
▁comercial	-7209
▁corriente	-7210
▁decírselo	-7211
▁describir	-7212
▁enseñando	-7213
▁hamburgue	-7214
▁pesadilla	-7215
▁políticos	-7216
▁quedarnos	-7217
▁siguiendo	-7218
▁traicionó	-7219
▁tranquila	-7220
▁vegetales	-7221
▁Washington	-7222
▁abandonado	-7223
▁comúnmente	-7224
▁conocieron	-7225
▁conseguido	-7226
▁contraseña	-7227
▁despertado	-7228
▁estacionar	-7229
▁estantería	-7230
▁incorrecto	-7231
▁intérprete	-7232
▁cigarrillos	-7233
▁preguntando	-7234
▁preocupados	-7235
▁desaparecido	-7236
▁directamente	-7237
▁rompecabezas	-7238
▁consecuencias	-7239
▁independiente	-7240
▁personalmente	-7241
ni	-7242
íz	-7243
Ese	-7244
ade	-7245
ang	-7246
bal	-7247
bum	-7248
dam	-7249
iga	-7250
ité	-7251
yas	-7252
íos	-7253
▁16	-7254
▁Oh	-7255
▁ub	-7256
ctur	-7257
dada	-7258
dios	-7259
dían	-7260
isis	-7261
mbol	-7262
oler	-7263
rete	-7264
rosa	-7265
ríbe	-7266
tará	-7267
tase	-7268
tete	-7269
tral	-7270
tulo	-7271
táis	-7272
uiza	-7273
▁199	-7274
▁aud	-7275
▁leo	-7276
▁och	-7277
▁oje	-7278
▁rió	-7279
▁sep	-7280
▁sho	-7281
Ahora	-7282
Enten	-7283
Vamos	-7284
ciona	-7285
dante	-7286
didad	-7287
geles	-7288
orado	-7289
ovilí	-7290
quite	-7291
venir	-7292
ómate	-7293
▁Deje	-7294
▁Dejá	-7295
▁Sigo	-7296
▁Vino	-7297
▁bici	-7298
▁bola	-7299
▁chis	-7300
▁circ	-7301
▁cura	-7302
▁eter	-7303
▁exám	-7304
▁firm	-7305
▁fron	-7306
▁gara	-7307
▁guía	-7308
▁jugó	-7309
▁locu	-7310
▁máxi	-7311
▁pesa	-7312
▁prin	-7313
▁repi	-7314
▁salí	-7315
▁seda	-7316
▁simi	-7317
▁sién	-7318
▁tela	-7319
▁usan	-7320
▁vehí	-7321
▁vole	-7322
▁voló	-7323
alizar	-7324
cierto	-7325
ección	-7326
onario	-7327
rantes	-7328
zación	-7329
ártelo	-7330
▁Dejar	-7331
▁Depen	-7332
▁Descu	-7333
▁Donde	-7334
▁Elige	-7335
▁Empez	-7336
▁Entré	-7337
▁Justo	-7338
▁Revis	-7339
▁Segun	-7340
▁actuó	-7341
▁agres	-7342
▁buscó	-7343
▁calcu	-7344
▁calif	-7345
▁cedió	-7346
▁coman	-7347
▁corté	-7348
▁culpo	-7349
▁daños	-7350
▁durar	-7351
▁ebrio	-7352
▁enmar	-7353
▁esfor	-7354
▁grifo	-7355
▁hablé	-7356
▁hayan	-7357
▁infan	-7358
▁leyes	-7359
▁magia	-7360
▁masco	-7361
▁mater	-7362
▁mudar	-7363
▁negar	-7364
▁poeta	-7365
▁quedo	-7366
▁sabia	-7367
▁seria	-7368
▁trigo	-7369
▁vayan	-7370
▁velas	-7371
▁veras	-7372
▁veros	-7373
▁vidas	-7374
▁vídeo	-7375
▁álbum	-7376
Tenemos	-7377
▁Iremos	-7378
▁Pueden	-7379
▁Vendré	-7380
▁astuto	-7381
▁aument	-7382
▁bancar	-7383
▁barata	-7384
▁ciervo	-7385
▁compor	-7386
▁conejo	-7387
▁fresca	-7388
▁frigor	-7389
▁frutas	-7390
▁guarda	-7391
▁libres	-7392
▁llaman	-7393
▁llegas	-7394
▁negros	-7395
▁niebla	-7396
▁noctur	-7397
▁pasaje	-7398
▁pedazo	-7399
▁podrás	-7400
▁podían	-7401
▁pésimo	-7402
▁recomp	-7403
▁sillas	-7404
▁tiende	-7405
▁timbre	-7406
▁trozos	-7407
▁vendió	-7408
▁verdes	-7409
amientos	-7410
cimiento	-7411
dimiento	-7412
▁Aprecio	-7413
▁aguanto	-7414
▁ahorros	-7415
▁arquite	-7416
▁asintió	-7417
▁astrona	-7418
▁bajando	-7419
▁batería	-7420
▁candida	-7421
▁charlar	-7422
▁conozca	-7423
▁contagi	-7424
▁cuantos	-7425
▁demanda	-7426
▁dominar	-7427
▁enamoró	-7428
▁fuerzas	-7429
▁heridos	-7430
▁ignorar	-7431
▁impedir	-7432
▁infeliz	-7433
▁llegada	-7434
▁llevara	-7435
▁ochenta	-7436
▁piedras	-7437
▁resulta	-7438
▁riqueza	-7439
▁sientas	-7440
▁soltera	-7441
▁termine	-7442
▁tijeras	-7443
▁traslad	-7444
▁ventaja	-7445
▁alquiler	-7446
▁aprobado	-7447
▁comprome	-7448
▁conducta	-7449
▁conseguí	-7450
▁contestó	-7451
▁cortinas	-7452
▁desagrad	-7453
▁desastre	-7454
▁desorden	-7455
▁desorien	-7456
▁disparar	-7457
▁esperara	-7458
▁extraord	-7459
▁exámenes	-7460
▁gustaban	-7461
▁heladera	-7462
▁insistió	-7463
▁intentes	-7464
▁ladrones	-7465
▁lamentar	-7466
▁lastimar	-7467
▁lenguaje	-7468
▁mencionó	-7469
▁pequeñas	-7470
▁princesa	-7471
▁realizar	-7472
▁respetar	-7473
▁salvajes	-7474
▁sucedido	-7475
▁trabajas	-7476
▁Estuvimos	-7477
▁audiencia	-7478
▁considera	-7479
▁despedida	-7480
▁difíciles	-7481
▁entiendes	-7482
▁estúpidas	-7483
▁informado	-7484
▁optimista	-7485
▁prefieres	-7486
▁pretendía	-7487
▁recomendó	-7488
▁reconocer	-7489
▁reconoció	-7490
▁serpiente	-7491
▁tentación	-7492
▁automovilí	-7493
▁considerar	-7494
▁decidieron	-7495
▁periodista	-7496
▁prisionero	-7497
▁solucionar	-7498
▁usualmente	-7499
▁voluntario	-7500
▁frigorífico	-7501
▁preocuparme	-7502
▁Generalmente	-7503
▁conocimiento	-7504
▁investigando	-7505
▁universitario	-7506
In	-7507
ki	-7508
má	-7509
th	-7510
ud	-7511
...	-7512
Soy	-7513
ate	-7514
ben	-7515
bie	-7516
cid	-7517
cié	-7518
dri	-7519
ell	-7520
jan	-7521
koh	-7522
ota	-7523
ple	-7524
rán	-7525
urr	-7526
▁ki	-7527
Vete	-7528
arán	-7529
erdo	-7530
lame	-7531
peta	-7532
stic	-7533
timo	-7534
udas	-7535
unta	-7536
usos	-7537
uérf	-7538
vale	-7539
zaje	-7540
▁198	-7541
▁500	-7542
▁Cin	-7543
▁Gre	-7544
▁Iba	-7545
▁Sea	-7546
▁Val	-7547
▁cír	-7548
▁elo	-7549
▁gim	-7550
▁inj	-7551
▁med	-7552
▁rio	-7553
▁tej	-7554
▁tic	-7555
▁usó	-7556
Creés	-7557
ampar	-7558
beros	-7559
camos	-7560
copio	-7561
daban	-7562
enefi	-7563
entir	-7564
gadas	-7565
genes	-7566
icías	-7567
lamos	-7568
manes	-7569
menta	-7570
ponde	-7571
rimió	-7572
segui	-7573
stras	-7574
tilla	-7575
trodu	-7576
venta	-7577
vento	-7578
ática	-7579
▁Face	-7580
▁Luna	-7581
▁Miré	-7582
▁Pero	-7583
▁Pres	-7584
▁Salí	-7585
▁abrí	-7586
▁alas	-7587
▁aqué	-7588
▁debi	-7589
▁dele	-7590
▁enfr	-7591
▁enve	-7592
▁gote	-7593
▁irre	-7594
▁lobo	-7595
▁pata	-7596
▁sost	-7597
▁suma	-7598
▁torn	-7599
▁vais	-7600
▁visa	-7601
Fuiste	-7602
Podéis	-7603
Vienes	-7604
giendo	-7605
kohama	-7606
sticas	-7607
érmelo	-7608
▁Acaba	-7609
▁Agrad	-7610
▁Conoc	-7611
▁Corea	-7612
▁Deben	-7613
▁Habrá	-7614
▁Llamé	-7615
▁Monte	-7616
▁Norte	-7617
▁Picas	-7618
▁Queda	-7619
▁Seguí	-7620
▁Suiza	-7621
▁agudo	-7622
▁apost	-7623
▁cajas	-7624
▁caras	-7625
▁ceder	-7626
▁ciega	-7627
▁cuero	-7628
▁desil	-7629
▁digan	-7630
▁disco	-7631
▁entré	-7632
▁explo	-7633
▁falsa	-7634
▁firmó	-7635
▁jabón	-7636
▁kilos	-7637
▁llora	-7638
▁local	-7639
▁logró	-7640
▁metas	-7641
▁miser	-7642
▁monos	-7643
▁ocurr	-7644
▁pares	-7645
▁perez	-7646
▁pides	-7647
▁pilló	-7648
▁previ	-7649
▁solar	-7650
▁tomas	-7651
▁tonta	-7652
▁viajó	-7653
▁Éstos	-7654
legados	-7655
tiremos	-7656
únmente	-7657
▁Acepto	-7658
▁Debido	-7659
▁Empecé	-7660
▁Perman	-7661
▁Siguió	-7662
▁Tómate	-7663
▁Vuelvo	-7664
▁acabas	-7665
▁acento	-7666
▁acudir	-7667
▁adicto	-7668
▁arruin	-7669
▁barrio	-7670
▁benefi	-7671
▁bloque	-7672
▁circun	-7673
▁cometa	-7674
▁cuánta	-7675
▁cálido	-7676
▁deseos	-7677
▁destru	-7678
▁diplom	-7679
▁evento	-7680
▁garaje	-7681
▁gimnas	-7682
▁húmedo	-7683
▁juntar	-7684
▁llores	-7685
▁nación	-7686
▁porqué	-7687
▁presta	-7688
▁prestó	-7689
▁quizás	-7690
▁recibí	-7691
▁reunió	-7692
▁señora	-7693
▁sienta	-7694
▁sucede	-7695
▁utiliz	-7696
▁veneno	-7697
▁vestir	-7698
▁viajes	-7699
▁videoj	-7700
▁viejas	-7701
▁Comimos	-7702
▁Debiste	-7703
▁Ocurrió	-7704
▁Prometo	-7705
▁Trabajé	-7706
▁apetece	-7707
▁aseguro	-7708
▁ayudaré	-7709
▁blancos	-7710
▁bonitas	-7711
▁campaña	-7712
▁caridad	-7713
▁casaron	-7714
▁comerme	-7715
▁contaré	-7716
▁cortado	-7717
▁cumplió	-7718
▁dejarte	-7719
▁dirigió	-7720
▁echarle	-7721
▁existen	-7722
▁famosos	-7723
▁fastidi	-7724
▁fiestas	-7725
▁injusto	-7726
▁interna	-7727
▁lavarro	-7728
▁medalla	-7729
▁merecía	-7730
▁milagro	-7731
▁mundial	-7732
▁oración	-7733
▁pasaron	-7734
▁pasaría	-7735
▁pierdas	-7736
▁puestos	-7737
▁pusiste	-7738
▁quiénes	-7739
▁recordó	-7740
▁reprodu	-7741
▁saludos	-7742
▁sesenta	-7743
▁superar	-7744
▁tiendas	-7745
▁trampas	-7746
▁vencido	-7747
▁Enciende	-7748
▁Facebook	-7749
▁Hablamos	-7750
▁Recuerda	-7751
▁Yokohama	-7752
▁abogados	-7753
▁alquilar	-7754
▁alérgica	-7755
▁amanecer	-7756
▁ayudarla	-7757
▁bomberos	-7758
▁cancelar	-7759
▁comieron	-7760
▁desemple	-7761
▁elefante	-7762
▁entraron	-7763
▁escuchas	-7764
▁exterior	-7765
▁fantasma	-7766
▁ingresos	-7767
▁interior	-7768
▁material	-7769
▁permitió	-7770
▁policías	-7771
▁predecir	-7772
▁primeros	-7773
▁probarlo	-7774
▁pudieron	-7775
▁recuperó	-7776
▁recurrir	-7777
▁sentaron	-7778
▁sospecha	-7779
▁telefone	-7780
▁tuvieras	-7781
▁atractiva	-7782
▁cambiando	-7783
▁deliciosa	-7784
▁demostrar	-7785
▁desgracia	-7786
▁eléctrica	-7787
▁empezaste	-7788
▁encuentre	-7789
▁esperamos	-7790
▁limpiando	-7791
▁operación	-7792
▁populares	-7793
▁presencia	-7794
▁recuerdos	-7795
▁visitarme	-7796
cionalmente	-7797
▁arreglarlo	-7798
▁asegurarme	-7799
▁ciudadanos	-7800
▁convertido	-7801
▁decisiones	-7802
▁desayunado	-7803
▁desocupado	-7804
▁empeorando	-7805
▁incorrecta	-7806
▁orgullosos	-7807
▁preferiría	-7808
▁suicidarse	-7809
▁trabajador	-7810
▁convencerle	-7811
▁convencerlo	-7812
▁encontrarme	-7813
▁encontrarás	-7814
▁preocuparte	-7815
▁tratamiento	-7816
▁trescientos	-7817
▁adolescentes	-7818
▁coincidencia	-7819
▁continuación	-7820
▁principiante	-7821
▁sorprendidos	-7822
▁acondicionado	-7823
▁sencillamente	-7824
▁increíblemente	-7825
cn	-7826
vé	-7827
áf	-7828
▁Ú	-7829
Han	-7830
amo	-7831
asa	-7832
cul	-7833
eré	-7834
kes	-7835
let	-7836
lga	-7837
lán	-7838
sal	-7839
use	-7840
▁bú	-7841
▁Án	-7842
▁óp	-7843
Reci	-7844
anah	-7845
bern	-7846
cate	-7847
dale	-7848
daré	-7849
días	-7850
enar	-7851
erio	-7852
laba	-7853
lete	-7854
logo	-7855
onia	-7856
rese	-7857
▁195	-7858
▁196	-7859
▁Exi	-7860
▁Fir	-7861
▁Lam	-7862
▁Leo	-7863
▁din	-7864
▁glo	-7865
▁ine	-7866
▁lea	-7867
▁mec	-7868
▁plá	-7869
▁reí	-7870
▁típ	-7871
▁vic	-7872
Encon	-7873
Oíste	-7874
Tomás	-7875
amelo	-7876
carse	-7877
coles	-7878
dales	-7879
gueme	-7880
ibles	-7881
lador	-7882
mpara	-7883
paron	-7884
quero	-7885
tátil	-7886
vados	-7887
▁Abrí	-7888
▁Agar	-7889
▁Atra	-7890
▁Dorm	-7891
▁Ense	-7892
▁Eran	-7893
▁Mirá	-7894
▁Pedí	-7895
▁Prué	-7896
▁Reco	-7897
▁alzó	-7898
▁ardu	-7899
▁bole	-7900
▁catá	-7901
▁cica	-7902
▁crió	-7903
▁dame	-7904
▁hilo	-7905
▁hipo	-7906
▁lata	-7907
▁leña	-7908
▁madu	-7909
▁masa	-7910
▁pian	-7911
▁pica	-7912
▁pide	-7913
▁rayo	-7914
▁rece	-7915
▁siga	-7916
▁tabu	-7917
▁tapa	-7918
▁tecn	-7919
▁técn	-7920
▁vete	-7921
▁vigi	-7922
Sabías	-7923
alista	-7924
anidad	-7925
aranti	-7926
fieres	-7927
tentos	-7928
tramos	-7929
tremos	-7930
áramos	-7931
▁Ambas	-7932
▁Apaga	-7933
▁Busco	-7934
▁Cinco	-7935
▁Enten	-7936
▁Extra	-7937
▁Juego	-7938
▁Jugar	-7939
▁Miles	-7940
▁Oímos	-7941
▁Pagué	-7942
▁Suena	-7943
▁Viene	-7944
▁ambas	-7945
▁busca	-7946
▁casco	-7947
▁chocó	-7948
▁crudo	-7949
▁dólar	-7950
▁enero	-7951
▁espan	-7952
▁grano	-7953
▁grito	-7954
▁hazlo	-7955
▁huérf	-7956
▁julio	-7957
▁manif	-7958
▁natal	-7959
▁nieva	-7960
▁opini	-7961
▁oírlo	-7962
▁paisa	-7963
▁pegar	-7964
▁quisi	-7965
▁rueda	-7966
▁sabio	-7967
▁sabrá	-7968
▁semáf	-7969
▁serán	-7970
▁sucia	-7971
▁temas	-7972
▁terri	-7973
▁toler	-7974
▁tumba	-7975
▁vigil	-7976
▁zanah	-7977
téntalo	-7978
tógrafo	-7979
ércoles	-7980
▁Disney	-7981
▁Estará	-7982
▁Llegar	-7983
▁Seguro	-7984
▁ayudas	-7985
▁carbón	-7986
▁chimen	-7987
▁comete	-7988
▁compla	-7989
▁crisis	-7990
▁critic	-7991
▁cálida	-7992
▁dibujo	-7993
▁duermo	-7994
▁escoba	-7995
▁estorn	-7996
▁estufa	-7997
▁gentil	-7998
▁guardó	-7999
▁gustar	-8000
▁hierba	-8001
▁huelga	-8002
▁identi	-8003
▁insegu	-8004
▁jurado	-8005
▁llenos	-8006
▁llovió	-8007
▁límite	-8008
▁máximo	-8009
▁public	-8010
▁puedan	-8011
▁puerto	-8012
▁reírme	-8013
▁sobras	-8014
▁solían	-8015
▁sufrió	-8016
▁tengan	-8017
▁tigres	-8018
▁trates	-8019
▁traído	-8020
▁veinti	-8021
ferirías	-8022
▁Depende	-8023
▁Dijeron	-8024
▁Escucha	-8025
▁Estabas	-8026
▁Segunda	-8027
▁absurdo	-8028
▁abuelos	-8029
▁arrojar	-8030
▁arruinó	-8031
▁cambios	-8032
▁canilla	-8033
▁castigo	-8034
▁cerebro	-8035
▁ceremon	-8036
▁convers	-8037
▁coreano	-8038
▁círculo	-8039
▁dejaste	-8040
▁escrita	-8041
▁esperes	-8042
▁estable	-8043
▁gustará	-8044
▁idiotas	-8045
▁interro	-8046
▁jugamos	-8047
▁llevado	-8048
▁lámpara	-8049
▁mareado	-8050
▁mataron	-8051
▁musical	-8052
▁médicos	-8053
▁parcial	-8054
▁precipi	-8055
▁presion	-8056
▁sincero	-8057
▁tercera	-8058
▁tristes	-8059
▁votaron	-8060
▁Vosotros	-8061
▁actuando	-8062
▁ayudarlo	-8063
▁cambiará	-8064
▁circunst	-8065
▁conmovió	-8066
▁cumplido	-8067
▁defectos	-8068
▁descubri	-8069
▁desierta	-8070
▁despegar	-8071
▁diamante	-8072
▁entreten	-8073
▁escuches	-8074
▁gimnasio	-8075
▁hablarle	-8076
▁infantil	-8077
▁justicia	-8078
▁llegando	-8079
▁llevamos	-8080
▁molestes	-8081
▁perderás	-8082
▁perdimos	-8083
▁pianista	-8084
▁portátil	-8085
▁posponer	-8086
▁profunda	-8087
▁quejarte	-8088
▁querrías	-8089
▁renunció	-8090
▁reservar	-8091
▁resultar	-8092
▁rodillas	-8093
▁sentarte	-8094
▁suicidio	-8095
▁supieras	-8096
▁tontería	-8097
▁vinieras	-8098
▁volviera	-8099
▁ahorrando	-8100
▁charlando	-8101
▁condenado	-8102
▁conociera	-8103
▁conociste	-8104
▁delegados	-8105
▁enseñarte	-8106
▁enterrado	-8107
▁entienden	-8108
▁esperanto	-8109
▁estuvimos	-8110
▁excepción	-8111
▁familiari	-8112
▁hirviendo	-8113
▁homicidio	-8114
▁humanidad	-8115
▁mejorando	-8116
▁memorizar	-8117
▁ocasiones	-8118
▁opiniones	-8119
▁peligrosa	-8120
▁persuadir	-8121
▁preparada	-8122
▁rechazado	-8123
▁romántico	-8124
▁siguieron	-8125
▁solamente	-8126
▁talentoso	-8127
▁Comúnmente	-8128
▁aumentando	-8129
▁demasiados	-8130
▁encuentres	-8131
▁entenderlo	-8132
▁escuchaste	-8133
▁funcionará	-8134
▁ignorancia	-8135
▁inundación	-8136
▁literatura	-8137
▁millonario	-8138
▁molestando	-8139
▁nacimiento	-8140
▁producción	-8141
▁tecnología	-8142
▁traducción	-8143
▁Encontramos	-8144
▁coleccionar	-8145
▁conseguiste	-8146
▁descripción	-8147
▁divirtiendo	-8148
▁encontrarlo	-8149
▁hambrientos	-8150
▁motocicleta	-8151
▁practicando	-8152
▁presupuesto	-8153
▁prisioneros	-8154
▁suficientes	-8155
▁veterinario	-8156
▁videojuegos	-8157
▁enfermedades	-8158
▁pensamientos	-8159
▁sorprendería	-8160
Di	-8161
Su	-8162
by	-8163
▁$	-8164
Aún	-8165
Esp	-8166
Lle	-8167
bel	-8168
fir	-8169
fle	-8170
gio	-8171
ias	-8172
ide	-8173
lec	-8174
mes	-8175
ock	-8176
pes	-8177
rau	-8178
tui	-8179
yen	-8180
▁15	-8181
▁At	-8182
▁Ce	-8183
▁Is	-8184
▁aé	-8185
▁có	-8186
▁pó	-8187
▁ín	-8188
abia	-8189
dalo	-8190
dora	-8191
efac	-8192
enso	-8193
enté	-8194
ficó	-8195
gida	-8196
gino	-8197
guar	-8198
ibol	-8199
iros	-8200
leti	-8201
mósf	-8202
onar	-8203
orre	-8204
seme	-8205
umir	-8206
zoso	-8207
▁193	-8208
▁Cay	-8209
▁Egi	-8210
▁Hol	-8211
▁Imp	-8212
▁Jes	-8213
▁Rel	-8214
▁Sha	-8215
▁Van	-8216
▁ben	-8217
▁buf	-8218
▁cub	-8219
▁cue	-8220
▁fué	-8221
▁mam	-8222
▁mul	-8223
▁num	-8224
▁pil	-8225
▁rem	-8226
▁teñ	-8227
▁ésa	-8228
▁órg	-8229
Conoc	-8230
Sobre	-8231
brero	-8232
chada	-8233
clear	-8234
dones	-8235
ersey	-8236
lenas	-8237
stres	-8238
tadas	-8239
tarle	-8240
teros	-8241
zador	-8242
íamos	-8243
ífica	-8244
▁Abra	-8245
▁Baja	-8246
▁Encu	-8247
▁Pasó	-8248
▁Seré	-8249
▁Siga	-8250
▁Trae	-8251
▁abro	-8252
▁apañ	-8253
▁cate	-8254
▁caza	-8255
▁coar	-8256
▁delf	-8257
▁dimi	-8258
▁dudo	-8259
▁elim	-8260
▁enco	-8261
▁fran	-8262
▁fumo	-8263
▁gira	-8264
▁hola	-8265
▁idén	-8266
▁incu	-8267
▁inus	-8268
▁irri	-8269
▁jura	-8270
▁leía	-8271
▁mata	-8272
▁notó	-8273
▁pida	-8274
▁pido	-8275
▁pira	-8276
▁tier	-8277
Estaba	-8278
Hablas	-8279
chando	-8280
ciosas	-8281
podría	-8282
terías	-8283
áblame	-8284
▁Corre	-8285
▁Dormí	-8286
▁Hacer	-8287
▁Ponlo	-8288
▁Segui	-8289
▁adqui	-8290
▁aguja	-8291
▁banca	-8292
▁casta	-8293
▁cebol	-8294
▁cueva	-8295
▁daría	-8296
▁decor	-8297
▁desaf	-8298
▁enojó	-8299
▁errón	-8300
▁grasa	-8301
▁harta	-8302
▁hirió	-8303
▁horno	-8304
▁hábil	-8305
▁impru	-8306
▁inevi	-8307
▁jarra	-8308
▁latín	-8309
▁lucha	-8310
▁micro	-8311
▁montó	-8312
▁oídos	-8313
▁probó	-8314
▁prohí	-8315
▁prove	-8316
▁rollo	-8317
▁saqué	-8318
▁según	-8319
▁sever	-8320
▁susur	-8321
▁tomes	-8322
ensible	-8323
iencias	-8324
mósfera	-8325
ortamos	-8326
▁Conver	-8327
▁Cuesta	-8328
▁Descan	-8329
▁Egipto	-8330
▁Espere	-8331
▁Estate	-8332
▁Lávate	-8333
▁Merece	-8334
▁Perdió	-8335
▁Pásame	-8336
▁adelga	-8337
▁además	-8338
▁alerta	-8339
▁alumno	-8340
▁amargo	-8341
▁arrodi	-8342
▁asesin	-8343
▁bastón	-8344
▁callar	-8345
▁carnet	-8346
▁chinos	-8347
▁crecer	-8348
▁defrau	-8349
▁diseño	-8350
▁dismin	-8351
▁efecto	-8352
▁empecé	-8353
▁filoso	-8354
▁gemelo	-8355
▁humana	-8356
▁indica	-8357
▁indign	-8358
▁jersey	-8359
▁juegas	-8360
▁jugará	-8361
▁juntas	-8362
▁largos	-8363
▁llames	-8364
▁lograr	-8365
▁mastic	-8366
▁médica	-8367
▁pijama	-8368
▁predic	-8369
▁rancho	-8370
▁recién	-8371
▁refugi	-8372
▁región	-8373
▁reprob	-8374
▁retiró	-8375
▁reveló	-8376
▁ruedas	-8377
▁saldrá	-8378
▁sucios	-8379
▁suelto	-8380
▁tocaba	-8381
▁tocado	-8382
▁vencer	-8383
▁éramos	-8384
ficiente	-8385
▁Dijiste	-8386
▁Hiciste	-8387
▁Intentó	-8388
▁Picasso	-8389
▁Quieren	-8390
▁aprecio	-8391
▁aprende	-8392
▁apuntes	-8393
▁apuñaló	-8394
▁archivo	-8395
▁besando	-8396
▁bonitos	-8397
▁buscaba	-8398
▁calefac	-8399
▁casamos	-8400
▁cheques	-8401
▁cientos	-8402
▁compone	-8403
▁cuantas	-8404
▁cuentes	-8405
▁deseaba	-8406
▁despegó	-8407
▁detecti	-8408
▁engañar	-8409
▁escriba	-8410
▁febrero	-8411
▁función	-8412
▁galleti	-8413
▁garanti	-8414
▁hablara	-8415
▁heridas	-8416
▁instrum	-8417
▁intenté	-8418
▁introdu	-8419
▁limpias	-8420
▁matarme	-8421
▁mientas	-8422
▁misteri	-8423
▁modales	-8424
▁muestra	-8425
▁nativos	-8426
▁nublado	-8427
▁ocurren	-8428
▁paredes	-8429
▁pedazos	-8430
▁pobreza	-8431
▁podrían	-8432
▁probado	-8433
▁prometo	-8434
▁pudiste	-8435
▁quedará	-8436
▁queráis	-8437
▁raqueta	-8438
▁reempla	-8439
▁rumores	-8440
▁sacerdo	-8441
▁utiliza	-8442
▁vendrás	-8443
▁Comparto	-8444
▁Gobierno	-8445
▁Hicieron	-8446
▁administ	-8447
▁adorable	-8448
▁alimento	-8449
▁antiguas	-8450
▁antiguos	-8451
▁aparecer	-8452
▁aspirina	-8453
▁aterrori	-8454
▁avergüen	-8455
▁ayudaros	-8456
▁ballenas	-8457
▁chimenea	-8458
▁comprara	-8459
▁contarle	-8460
▁contiene	-8461
▁contrató	-8462
▁contribu	-8463
▁criminal	-8464
▁empeorar	-8465
▁engañado	-8466
▁entendió	-8467
▁espaldas	-8468
▁estudios	-8469
▁explique	-8470
▁instante	-8471
▁interpre	-8472
▁llamaron	-8473
▁llevaron	-8474
▁maletero	-8475
▁parecían	-8476
▁peluquer	-8477
▁pensarlo	-8478
▁perdiste	-8479
▁petición	-8480
▁planeado	-8481
▁plátanos	-8482
▁préstamo	-8483
▁reconocí	-8484
▁relajado	-8485
▁uniforme	-8486
▁viniendo	-8487
▁voleibol	-8488
áticamente	-8489
▁Comprendo	-8490
▁Permítame	-8491
▁actividad	-8492
▁apropiado	-8493
▁asistente	-8494
▁asombroso	-8495
▁atmósfera	-8496
▁atrapados	-8497
▁borrachos	-8498
▁colección	-8499
▁comprarme	-8500
▁compraron	-8501
▁comprendo	-8502
▁condujera	-8503
▁creciendo	-8504
▁describió	-8505
▁elefantes	-8506
▁empezamos	-8507
▁estaremos	-8508
▁importaba	-8509
▁juramento	-8510
▁miércoles	-8511
▁pacientes	-8512
▁prometido	-8513
▁semejante	-8514
▁terminará	-8515
▁Bienvenido	-8516
▁Cualquiera	-8517
▁arrepentir	-8518
▁astronauta	-8519
▁británicos	-8520
▁comenzando	-8521
▁conciencia	-8522
▁consideran	-8523
▁demasiadas	-8524
▁entrenador	-8525
▁estaciones	-8526
▁fascinante	-8527
▁gravemente	-8528
▁levantarte	-8529
▁obviamente	-8530
▁preguntado	-8531
▁secretaria	-8532
▁sobrevivió	-8533
▁sucediendo	-8534
▁sándwiches	-8535
▁agradecerte	-8536
▁estampillas	-8537
▁interrumpir	-8538
▁antigüedades	-8539
▁concentrarme	-8540
▁desagradable	-8541
▁hamburguesas	-8542
▁correctamente	-8543
▁especialmente	-8544
▁presentimiento	-8545
4.	-8546
bó	-8547
ku	-8548
tn	-8549
Era	-8550
Esa	-8551
Pas	-8552
Vos	-8553
aca	-8554
die	-8555
dis	-8556
fía	-8557
ges	-8558
hue	-8559
iré	-8560
iva	-8561
lón	-8562
ron	-8563
tmo	-8564
tés	-8565
uló	-8566
▁17	-8567
▁Añ	-8568
▁Ga	-8569
▁Ka	-8570
▁Ti	-8571
▁Ze	-8572
▁bl	-8573
▁sh	-8574
Escu	-8575
abul	-8576
amar	-8577
bate	-8578
drio	-8579
gate	-8580
ifal	-8581
izon	-8582
llón	-8583
mail	-8584
mate	-8585
quen	-8586
uega	-8587
unté	-8588
vame	-8589
vará	-8590
vase	-8591
vidu	-8592
▁194	-8593
▁300	-8594
▁Ber	-8595
▁Die	-8596
▁Esc	-8597
▁Gol	-8598
▁Lea	-8599
▁Ren	-8600
▁Tar	-8601
▁det	-8602
▁fil	-8603
▁hip	-8604
▁imá	-8605
▁mol	-8606
▁nar	-8607
▁réc	-8608
▁tér	-8609
▁tún	-8610
▁viv	-8611
Hasta	-8612
Llama	-8613
abaña	-8614
cadas	-8615
daste	-8616
ernos	-8617
ganse	-8618
isión	-8619
jados	-8620
kespe	-8621
landa	-8622
ortal	-8623
rados	-8624
rista	-8625
seguí	-8626
sidad	-8627
tendo	-8628
titud	-8629
ético	-8630
▁Asia	-8631
▁Char	-8632
▁Cier	-8633
▁Cogí	-8634
▁Date	-8635
▁Gran	-8636
▁Hago	-8637
▁Most	-8638
▁Nara	-8639
▁Nevó	-8640
▁Olví	-8641
▁Park	-8642
▁Shin	-8643
▁Sost	-8644
▁Temo	-8645
▁Vini	-8646
▁ando	-8647
▁asco	-8648
▁baña	-8649
▁bebí	-8650
▁capí	-8651
▁chap	-8652
▁creó	-8653
▁fuga	-8654
▁insi	-8655
▁lees	-8656
▁mayo	-8657
▁maíz	-8658
▁mere	-8659
▁miré	-8660
▁nado	-8661
▁nega	-8662
▁obst	-8663
▁oigo	-8664
▁olfa	-8665
▁palo	-8666
▁pura	-8667
▁rana	-8668
▁risa	-8669
▁seco	-8670
▁soci	-8671
▁tasa	-8672
▁term	-8673
▁tome	-8674
▁topé	-8675
▁vela	-8676
▁Últi	-8677
Mañana	-8678
Sabéis	-8679
chemos	-8680
ciéndo	-8681
eciera	-8682
entate	-8683
grafos	-8684
iembre	-8685
ladora	-8686
torios	-8687
traste	-8688
állate	-8689
ándalo	-8690
ándole	-8691
ándolo	-8692
ísimas	-8693
▁Claro	-8694
▁Colón	-8695
▁Detén	-8696
▁Falta	-8697
▁Orden	-8698
▁Pocas	-8699
▁Resul	-8700
▁Saben	-8701
▁Viven	-8702
▁abras	-8703
▁aviso	-8704
▁buses	-8705
▁caros	-8706
▁clave	-8707
▁crema	-8708
▁desab	-8709
▁desan	-8710
▁deseó	-8711
▁devol	-8712
▁droga	-8713
▁empap	-8714
▁energ	-8715
▁entri	-8716
▁etern	-8717
▁excur	-8718
▁falló	-8719
▁fantá	-8720
▁gastó	-8721
▁grado	-8722
▁indef	-8723
▁intri	-8724
▁joyas	-8725
▁madru	-8726
▁marzo	-8727
▁mentí	-8728
▁metal	-8729
▁movió	-8730
▁oíste	-8731
▁pasta	-8732
▁pausa	-8733
▁pecho	-8734
▁podri	-8735
▁preca	-8736
▁ratas	-8737
▁redon	-8738
▁ritmo	-8739
▁robot	-8740
▁salgo	-8741
▁salía	-8742
▁soltó	-8743
▁soñar	-8744
▁sufre	-8745
▁suyos	-8746
▁tigre	-8747
▁tires	-8748
▁toman	-8749
▁travi	-8750
▁truco	-8751
▁verás	-8752
▁vesti	-8753
▁viaja	-8754
▁árabe	-8755
▁ópera	-8756
aración	-8757
ciencia	-8758
ización	-8759
▁Decile	-8760
▁Grecia	-8761
▁Pagaré	-8762
▁Piensa	-8763
▁almuer	-8764
▁andaba	-8765
▁aplica	-8766
▁arañas	-8767
▁bañera	-8768
▁besara	-8769
▁burlar	-8770
▁buscas	-8771
▁cabaña	-8772
▁cadena	-8773
▁cambie	-8774
▁corona	-8775
▁cortas	-8776
▁cortés	-8777
▁criado	-8778
▁cucara	-8779
▁decidí	-8780
▁descal	-8781
▁descui	-8782
▁echaré	-8783
▁entres	-8784
▁equili	-8785
▁espina	-8786
▁figura	-8787
▁fluido	-8788
▁fritas	-8789
▁futbol	-8790
▁gastar	-8791
▁gatito	-8792
▁graduó	-8793
▁gratui	-8794
▁grupos	-8795
▁indisp	-8796
▁injust	-8797
▁lament	-8798
▁ligera	-8799
▁limpió	-8800
▁lleves	-8801
▁locura	-8802
▁luchar	-8803
▁marrón	-8804
▁murmur	-8805
▁ocupar	-8806
▁pagará	-8807
▁puntos	-8808
▁refres	-8809
▁ruinas	-8810
▁récord	-8811
▁siguen	-8812
▁sobres	-8813
▁tomaré	-8814
▁traido	-8815
▁traiga	-8816
▁verlos	-8817
▁vidrio	-8818
▁únicos	-8819
kespeare	-8820
▁Abandon	-8821
▁Apuesto	-8822
▁Desayun	-8823
▁Empieza	-8824
▁Escocia	-8825
▁Estaría	-8826
▁Estudié	-8827
▁Jugamos	-8828
▁Sigamos	-8829
▁Terminé	-8830
▁aseguró	-8831
▁asistió	-8832
▁bufanda	-8833
▁cacahue	-8834
▁canasta	-8835
▁cavando	-8836
▁compens	-8837
▁confíes	-8838
▁dejando	-8839
▁efectos	-8840
▁estante	-8841
▁estatua	-8842
▁finales	-8843
▁florero	-8844
▁fluidez	-8845
▁fumando	-8846
▁hombros	-8847
▁horizon	-8848
▁hábitos	-8849
▁juegues	-8850
▁lavarse	-8851
▁llovido	-8852
▁matarte	-8853
▁materia	-8854
▁minifal	-8855
▁nuclear	-8856
▁objetos	-8857
▁orgullo	-8858
▁palacio	-8859
▁parezca	-8860
▁pollera	-8861
▁postura	-8862
▁produce	-8863
▁respira	-8864
▁riesgos	-8865
▁rodeado	-8866
▁salimos	-8867
▁servirá	-8868
▁sincera	-8869
▁soleado	-8870
▁sueltes	-8871
▁susurró	-8872
▁tardará	-8873
▁terminé	-8874
▁tomarte	-8875
▁tomaste	-8876
▁turista	-8877
▁Ángeles	-8878
Compraste	-8879
fortunado	-8880
▁Aquellos	-8881
▁aguantar	-8882
▁aliviado	-8883
▁aplaudió	-8884
▁asustada	-8885
▁celebrar	-8886
▁cepillar	-8887
▁coartada	-8888
▁cocinera	-8889
▁completa	-8890
▁confiado	-8891
▁conozcas	-8892
▁contenta	-8893
▁cordones	-8894
▁defender	-8895
▁desayuna	-8896
▁despreci	-8897
▁devolvió	-8898
▁disfrazó	-8899
▁distinta	-8900
▁divirtió	-8901
▁doctores	-8902
▁evidente	-8903
▁frontera	-8904
▁granjero	-8905
▁hablarte	-8906
▁imágenes	-8907
▁individu	-8908
▁inquieto	-8909
▁ladrando	-8910
▁molestar	-8911
▁original	-8912
▁pantalla	-8913
▁perezoso	-8914
▁pinturas	-8915
▁podremos	-8916
▁podíamos	-8917
▁precioso	-8918
▁presenta	-8919
▁previsto	-8920
▁quedarás	-8921
▁sabíamos	-8922
▁semáforo	-8923
▁signific	-8924
▁victoria	-8925
▁Hagámoslo	-8926
▁acostarme	-8927
▁atractivo	-8928
▁ceremonia	-8929
▁compraría	-8930
▁comprende	-8931
▁contentos	-8932
▁desconcer	-8933
▁dieciséis	-8934
▁económico	-8935
▁edificios	-8936
▁eléctrico	-8937
▁encargaré	-8938
▁encendida	-8939
▁estupenda	-8940
▁estupidez	-8941
▁estúpidos	-8942
▁expresión	-8943
▁funcionan	-8944
▁lleguemos	-8945
▁novelista	-8946
▁pastillas	-8947
▁políticas	-8948
▁practicar	-8949
▁propiedad	-8950
▁relajarme	-8951
▁represent	-8952
▁retrasado	-8953
▁sacerdote	-8954
▁sanguíneo	-8955
▁sentarnos	-8956
▁simpático	-8957
▁Comencemos	-8958
▁arreglando	-8959
▁arriesgado	-8960
▁bolígrafos	-8961
▁desperdici	-8962
▁divertimos	-8963
▁enamorados	-8964
▁encontraba	-8965
▁esperanzas	-8966
▁estuvieras	-8967
▁inesperado	-8968
▁influencia	-8969
▁intercambi	-8970
▁olvidadizo	-8971
▁pronunciar	-8972
▁telefónica	-8973
▁telefónico	-8974
▁terremotos	-8975
▁verdaderos	-8976
▁zanahorias	-8977
▁Shakespeare	-8978
▁atropellado	-8979
▁combustible	-8980
▁competencia	-8981
▁decepcionar	-8982
▁declaración	-8983
▁desconocido	-8984
▁despidieron	-8985
▁disculparme	-8986
▁equivocados	-8987
▁esperábamos	-8988
▁fluidamente	-8989
▁intenciones	-8990
▁presentarte	-8991
▁respiración	-8992
▁satisfechos	-8993
▁secuestrado	-8994
▁sorprendida	-8995
▁suministros	-8996
▁Últimamente	-8997
▁vegetarianos	-8998
▁Aparentemente	-8999
▁impresionante	-9000
▁internacional	-9001
▁circunstancias	-9002
▁repentinamente	-9003
▁automovilístico	-9004
",	-9005
Eh	-9006
ig	-9007
it	-9008
ky	-9009
sp	-9010
áy	-9011
ép	-9012
Las	-9013
Tra	-9014
bra	-9015
bri	-9016
cad	-9017
cla	-9018
cre	-9019
his	-9020
hua	-9021
lin	-9022
pin	-9023
ñar	-9024
▁Ko	-9025
▁on	-9026
:00.	-9027
Aquí	-9028
Ayer	-9029
Cree	-9030
Mira	-9031
bete	-9032
caño	-9033
cómo	-9034
dese	-9035
geré	-9036
hima	-9037
icto	-9038
mico	-9039
neas	-9040
oles	-9041
rota	-9042
tosa	-9043
trib	-9044
uras	-9045
valo	-9046
vero	-9047
vias	-9048
ñeta	-9049
▁Acu	-9050
▁Dás	-9051
▁Hal	-9052
▁Mán	-9053
▁Tai	-9054
▁Tur	-9055
▁Usu	-9056
▁apo	-9057
▁ave	-9058
▁bru	-9059
▁eri	-9060
▁eru	-9061
▁eti	-9062
▁hol	-9063
▁ina	-9064
▁inn	-9065
▁ira	-9066
Nunca	-9067
adura	-9068
arias	-9069
cisco	-9070
dirse	-9071
edero	-9072
ficas	-9073
gador	-9074
ganme	-9075
gerte	-9076
gimos	-9077
iforn	-9078
istro	-9079
izado	-9080
licos	-9081
maron	-9082
ocado	-9083
uelan	-9084
urope	-9085
vador	-9086
viles	-9087
ájate	-9088
ámalo	-9089
ómete	-9090
▁Andá	-9091
▁Bell	-9092
▁Cayó	-9093
▁Cost	-9094
▁Cruz	-9095
▁Desc	-9096
▁Ever	-9097
▁Hola	-9098
▁Invi	-9099
▁Mire	-9100
▁Pací	-9101
▁Sent	-9102
▁Sube	-9103
▁abol	-9104
▁abus	-9105
▁acum	-9106
▁agre	-9107
▁apas	-9108
▁arco	-9109
▁atar	-9110
▁calu	-9111
▁carn	-9112
▁casé	-9113
▁cenó	-9114
▁estr	-9115
▁fabr	-9116
▁fero	-9117
▁gall	-9118
▁giró	-9119
▁huir	-9120
▁paté	-9121
▁pisó	-9122
▁rama	-9123
▁remo	-9124
▁salv	-9125
▁show	-9126
▁some	-9127
▁soñó	-9128
▁unió	-9129
▁zumo	-9130
Entien	-9131
Quiero	-9132
Sigues	-9133
andona	-9134
ctores	-9135
iniste	-9136
olverá	-9137
quinas	-9138
ríbeme	-9139
streme	-9140
ñetazo	-9141
óstico	-9142
▁2013.	-9143
▁Alice	-9144
▁Atlán	-9145
▁Ayudé	-9146
▁Deseo	-9147
▁Huele	-9148
▁Marte	-9149
▁Nadar	-9150
▁Noche	-9151
▁Podía	-9152
▁Reino	-9153
▁Renun	-9154
▁Tarde	-9155
▁Tenga	-9156
▁absor	-9157
▁aburr	-9158
▁actúa	-9159
▁afuer	-9160
▁alfab	-9161
▁ancho	-9162
▁animó	-9163
▁blusa	-9164
▁bodas	-9165
▁burló	-9166
▁buzón	-9167
▁cable	-9168
▁campe	-9169
▁champ	-9170
▁colap	-9171
▁desac	-9172
▁desap	-9173
▁desta	-9174
▁dimos	-9175
▁empac	-9176
▁firma	-9177
▁frust	-9178
▁imper	-9179
▁inici	-9180
▁logra	-9181
▁mantu	-9182
▁maris	-9183
▁obten	-9184
▁orien	-9185
▁oveja	-9186
▁pagan	-9187
▁pelos	-9188
▁perju	-9189
▁porta	-9190
▁quema	-9191
▁quemé	-9192
▁quizá	-9193
▁rabia	-9194
▁rayos	-9195
▁retra	-9196
▁ricas	-9197
▁rifle	-9198
▁rompe	-9199
▁rompí	-9200
▁sales	-9201
▁siglo	-9202
▁sonro	-9203
▁sopló	-9204
▁sudor	-9205
▁truen	-9206
Gracias	-9207
Siempre	-9208
amentos	-9209
ifornia	-9210
queroso	-9211
usiones	-9212
▁Admiro	-9213
▁Adonde	-9214
▁Comien	-9215
▁Confío	-9216
▁Cuento	-9217
▁Cómete	-9218
▁Dejame	-9219
▁Déjeme	-9220
▁Estáis	-9221
▁Hablas	-9222
▁Prepar	-9223
▁Seamos	-9224
▁Verdad	-9225
▁Visité	-9226
▁agrado	-9227
▁ajetre	-9228
▁alivio	-9229
▁apuros	-9230
▁artifi	-9231
▁asusta	-9232
▁asustó	-9233
▁bronce	-9234
▁cerdos	-9235
▁cocinó	-9236
▁colgar	-9237
▁corres	-9238
▁criada	-9239
▁destro	-9240
▁deudas	-9241
▁dormía	-9242
▁durará	-9243
▁empujó	-9244
▁engaño	-9245
▁ensayo	-9246
▁escape	-9247
▁escaso	-9248
▁exigió	-9249
▁flecha	-9250
▁frenos	-9251
▁frutos	-9252
▁gobern	-9253
▁graves	-9254
▁grites	-9255
▁hacían	-9256
▁huesos	-9257
▁instal	-9258
▁laguna	-9259
▁liberó	-9260
▁líneas	-9261
▁lógica	-9262
▁mancha	-9263
▁medias	-9264
▁mojado	-9265
▁morder	-9266
▁mosqui	-9267
▁mueren	-9268
▁muevas	-9269
▁ocultó	-9270
▁parano	-9271
▁pensás	-9272
▁pondré	-9273
▁portón	-9274
▁pésima	-9275
▁resaca	-9276
▁severo	-9277
▁social	-9278
▁soltar	-9279
▁sonríe	-9280
▁tacaño	-9281
▁tercer	-9282
▁tirado	-9283
▁típico	-9284
▁vacías	-9285
▁veamos	-9286
▁vendré	-9287
▁ventas	-9288
▁zapato	-9289
▁útiles	-9290
resúrate	-9291
▁Comamos	-9292
▁Escribí	-9293
▁Hablaré	-9294
▁Perdona	-9295
▁Quítate	-9296
▁Sobrevi	-9297
▁Sugiero	-9298
▁Trabaja	-9299
▁Turquía	-9300
▁Zelanda	-9301
▁abrazar	-9302
▁almacén	-9303
▁aprendi	-9304
▁apurado	-9305
▁arrestó	-9306
▁ascenso	-9307
▁ballena	-9308
▁buscado	-9309
▁cambies	-9310
▁camello	-9311
▁camisas	-9312
▁cantado	-9313
▁comemos	-9314
▁cuchara	-9315
▁cuidará	-9316
▁desafío	-9317
▁descans	-9318
▁desilus	-9319
▁duermen	-9320
▁encerró	-9321
▁encogió	-9322
▁entrado	-9323
▁entrevi	-9324
▁equipos	-9325
▁esperas	-9326
▁estemos	-9327
▁golpear	-9328
▁honesta	-9329
▁huellas	-9330
▁ilusión	-9331
▁impacto	-9332
▁insultó	-9333
▁llamara	-9334
▁lloraba	-9335
▁llámame	-9336
▁mudarse	-9337
▁negocia	-9338
▁nervios	-9339
▁noventa	-9340
▁observó	-9341
▁pedimos	-9342
▁pintado	-9343
▁planeas	-9344
▁prender	-9345
▁produjo	-9346
▁pusiera	-9347
▁pusimos	-9348
▁pública	-9349
▁regalar	-9350
▁requier	-9351
▁señales	-9352
▁soborno	-9353
▁supiste	-9354
▁veremos	-9355
▁visitas	-9356
▁vivimos	-9357
▁vuelves	-9358
▁víctima	-9359
▁últimas	-9360
Recibiste	-9361
ceramente	-9362
▁Conseguí	-9363
▁Devuélve	-9364
▁Nuestras	-9365
▁Pacífico	-9366
▁Salgamos	-9367
▁Volvamos	-9368
▁aceptado	-9369
▁acerques	-9370
▁arrancar	-9371
▁aterrizó	-9372
▁billetes	-9373
▁castigar	-9374
▁cicatriz	-9375
▁claridad	-9376
▁conocida	-9377
▁culparte	-9378
▁dormidos	-9379
▁guardado	-9380
▁hablaste	-9381
▁llevando	-9382
▁maquilla	-9383
▁mejillas	-9384
▁mejorado	-9385
▁navideña	-9386
▁observar	-9387
▁ordenada	-9388
▁partidos	-9389
▁patético	-9390
▁pintando	-9391
▁plástico	-9392
▁prestaré	-9393
▁pretende	-9394
▁prevenir	-9395
▁puñetazo	-9396
▁rechazar	-9397
▁rendirse	-9398
▁sediento	-9399
▁semestre	-9400
▁separado	-9401
▁solíamos	-9402
▁taburete	-9403
▁tarjetas	-9404
▁travieso	-9405
▁venganza	-9406
▁vitamina	-9407
▁volviste	-9408
▁vuestras	-9409
Entendiste	-9410
dentemente	-9411
▁Estaremos	-9412
▁Francisco	-9413
▁aceptable	-9414
▁aconsejar	-9415
▁acordarme	-9416
▁asqueroso	-9417
▁contactar	-9418
▁descuento	-9419
▁engordado	-9420
▁equivocas	-9421
▁escuchaba	-9422
▁estuviese	-9423
▁excursión	-9424
▁fotógrafo	-9425
▁identidad	-9426
▁incendios	-9427
▁invitaste	-9428
▁lastimado	-9429
▁mentirosa	-9430
▁objetivos	-9431
▁oscurezca	-9432
▁perdonado	-9433
▁preguntes	-9434
▁prestarle	-9435
▁reconozco	-9436
▁separados	-9437
▁servicios	-9438
▁sintieron	-9439
▁sonrieron	-9440
▁sufriendo	-9441
▁universal	-9442
Encontraste	-9443
Preferirías	-9444
▁California	-9445
▁Obviamente	-9446
▁Sentémonos	-9447
▁Usualmente	-9448
▁arquitecto	-9449
▁asistieron	-9450
▁avergüenza	-9451
▁despedirme	-9452
▁escucharlo	-9453
▁estropeado	-9454
▁inevitable	-9455
▁lastimarte	-9456
▁molestarte	-9457
▁obligación	-9458
▁peligrosos	-9459
▁preguntaré	-9460
▁pronóstico	-9461
▁suavemente	-9462
▁superficie	-9463
▁Actualmente	-9464
▁adolescente	-9465
▁convertirme	-9466
▁encontrarse	-9467
▁entendieron	-9468
▁fuertemente	-9469
▁habilidades	-9470
▁ordenadores	-9471
▁preguntarme	-9472
▁desorientado	-9473
▁personalidad	-9474
▁registradora	-9475
▁desafortunado	-9476
▁Verdaderamente	-9477
,"	-9478
Be	-9479
Oh	-9480
cr	-9481
fó	-9482
xe	-9483
ñé	-9484
úe	-9485
Hoy	-9486
ans	-9487
bby	-9488
bor	-9489
cán	-9490
dme	-9491
ecu	-9492
grá	-9493
ker	-9494
key	-9495
lom	-9496
mer	-9497
oró	-9498
rer	-9499
rir	-9500
tac	-9501
tea	-9502
vol	-9503
▁13	-9504
▁54	-9505
▁Fí	-9506
▁Mo	-9507
▁fó	-9508
▁hí	-9509
▁sú	-9510
Deja	-9511
acía	-9512
adir	-9513
adió	-9514
ance	-9515
came	-9516
chup	-9517
digo	-9518
ecta	-9519
erne	-9520
iado	-9521
icaz	-9522
igas	-9523
ilip	-9524
incu	-9525
iqui	-9526
ller	-9527
oner	-9528
oros	-9529
port	-9530
ptop	-9531
quia	-9532
risa	-9533
salo	-9534
tano	-9535
tici	-9536
tore	-9537
uses	-9538
zara	-9539
▁Hey	-9540
▁Ima	-9541
▁Mil	-9542
▁Muy	-9543
▁Pin	-9544
▁Pos	-9545
▁Quí	-9546
▁Rom	-9547
▁Sur	-9548
▁Váy	-9549
▁aco	-9550
▁ajo	-9551
▁alo	-9552
▁amb	-9553
▁arb	-9554
▁aso	-9555
▁ayú	-9556
▁fea	-9557
▁flu	-9558
▁fro	-9559
▁hoc	-9560
▁ini	-9561
▁ket	-9562
▁lío	-9563
▁pel	-9564
ambul	-9565
billo	-9566
chale	-9567
chame	-9568
cista	-9569
esión	-9570
hisky	-9571
ienda	-9572
laban	-9573
licas	-9574
lidos	-9575
llada	-9576
mbolo	-9577
mbras	-9578
minas	-9579
mones	-9580
onoce	-9581
puedo	-9582
racas	-9583
resas	-9584
ricul	-9585
rilla	-9586
riosa	-9587
stame	-9588
taros	-9589
tarra	-9590
teras	-9591
tiera	-9592
uelas	-9593
uelve	-9594
ujano	-9595
yente	-9596
zadas	-9597
ácter	-9598
énico	-9599
▁Allí	-9600
▁Cump	-9601
▁Duer	-9602
▁Envi	-9603
▁Kobe	-9604
▁Pasa	-9605
▁Poca	-9606
▁Pone	-9607
▁Pude	-9608
▁Toco	-9609
▁Tomó	-9610
▁Tran	-9611
▁Vaya	-9612
▁acel	-9613
▁acto	-9614
▁afer	-9615
▁afir	-9616
▁argu	-9617
▁asal	-9618
▁aves	-9619
▁azar	-9620
▁base	-9621
▁brin	-9622
▁cubo	-9623
▁curr	-9624
▁detu	-9625
▁enca	-9626
▁enví	-9627
▁esen	-9628
▁fabu	-9629
▁guap	-9630
▁hoyo	-9631
▁iles	-9632
▁jard	-9633
▁leas	-9634
▁leve	-9635
▁mago	-9636
▁mete	-9637
▁metí	-9638
▁mide	-9639
▁modi	-9640
▁moti	-9641
▁olla	-9642
▁oyes	-9643
▁pala	-9644
▁pega	-9645
▁pidi	-9646
▁puro	-9647
▁reda	-9648
▁resi	-9649
▁rest	-9650
▁reti	-9651
▁titu	-9652
▁tost	-9653
▁votó	-9654
▁ésos	-9655
bación	-9656
ecería	-9657
enciar	-9658
inaria	-9659
ineros	-9660
landés	-9661
mático	-9662
stival	-9663
árgate	-9664
▁Alqui	-9665
▁Cambi	-9666
▁Confi	-9667
▁Consí	-9668
▁Cuida	-9669
▁Despi	-9670
▁Dimos	-9671
▁Envía	-9672
▁Franc	-9673
▁Jesús	-9674
▁Quedé	-9675
▁Unido	-9676
▁abeja	-9677
▁acabe	-9678
▁ahogó	-9679
▁altas	-9680
▁amaré	-9681
▁apaga	-9682
▁aplic	-9683
▁aquél	-9684
▁araña	-9685
▁atajo	-9686
▁bebas	-9687
▁botes	-9688
▁canal	-9689
▁casos	-9690
▁centí	-9691
▁coloc	-9692
▁comba	-9693
▁conce	-9694
▁corri	-9695
▁crist	-9696
▁decís	-9697
▁despa	-9698
▁empar	-9699
▁feroz	-9700
▁gorra	-9701
▁harán	-9702
▁hobby	-9703
▁ideal	-9704
▁lechu	-9705
▁mandé	-9706
▁mates	-9707
▁miles	-9708
▁mosca	-9709
▁multa	-9710
▁niega	-9711
▁nieto	-9712
▁niñez	-9713
▁pajar	-9714
▁pateó	-9715
▁pedía	-9716
▁plaza	-9717
▁plazo	-9718
▁portu	-9719
▁propa	-9720
▁pulso	-9721
▁recto	-9722
▁resol	-9723
▁retor	-9724
▁shock	-9725
▁simpa	-9726
▁tatua	-9727
▁temor	-9728
▁tonel	-9729
▁túnel	-9730
▁verse	-9731
Termina	-9732
dencial	-9733
ecieron	-9734
ensable	-9735
ustrali	-9736
vántate	-9737
▁Berlín	-9738
▁Contra	-9739
▁Corrió	-9740
▁Cuatro	-9741
▁Perten	-9742
▁Tenías	-9743
▁Univer	-9744
▁Varios	-9745
▁Volvió	-9746
▁abarro	-9747
▁abrazó	-9748
▁acepta	-9749
▁agente	-9750
▁alimen	-9751
▁anticu	-9752
▁asigna	-9753
▁atasco	-9754
▁avisar	-9755
▁bancos	-9756
▁barcos	-9757
▁brilla	-9758
▁burles	-9759
▁cabras	-9760
▁cambié	-9761
▁cardía	-9762
▁chance	-9763
▁choque	-9764
▁copias	-9765
▁cueste	-9766
▁dejará	-9767
▁dejase	-9768
▁dibujó	-9769
▁diente	-9770
▁dirige	-9771
▁enfada	-9772
▁estadí	-9773
▁europe	-9774
▁fiable	-9775
▁filete	-9776
▁flauta	-9777
▁frases	-9778
▁hockey	-9779
▁ladrar	-9780
▁limpie	-9781
▁nevada	-9782
▁nevará	-9783
▁objeto	-9784
▁obliga	-9785
▁ostras	-9786
▁pegado	-9787
▁pierda	-9788
▁pillar	-9789
▁planeo	-9790
▁pondrá	-9791
▁póquer	-9792
▁quebró	-9793
▁quinto	-9794
▁rastro	-9795
▁regañó	-9796
▁secado	-9797
▁señaló	-9798
▁sigues	-9799
▁sordos	-9800
▁tardes	-9801
▁tomate	-9802
▁traeré	-9803
▁transf	-9804
▁tropas	-9805
▁trucos	-9806
▁tímida	-9807
▁vergon	-9808
▁volcán	-9809
▁volvía	-9810
▁whisky	-9811
minación	-9812
taciones	-9813
▁Adivina	-9814
▁Creemos	-9815
▁Déjanos	-9816
▁Everest	-9817
▁Extraño	-9818
▁Levanta	-9819
▁Llamaré	-9820
▁Parecen	-9821
▁abriera	-9822
▁acuesto	-9823
▁afueras	-9824
▁apagado	-9825
▁apresur	-9826
▁arregló	-9827
▁aviones	-9828
▁bebidas	-9829
▁besaron	-9830
▁boletos	-9831
▁cantaba	-9832
▁carbono	-9833
▁castaño	-9834
▁cazador	-9835
▁chances	-9836
▁comimos	-9837
▁comport	-9838
▁conflic	-9839
▁consume	-9840
▁creerle	-9841
▁cuestan	-9842
▁cámaras	-9843
▁cómodos	-9844
▁dejarme	-9845
▁deletre	-9846
▁deprisa	-9847
▁dibujar	-9848
▁doctora	-9849
▁enviado	-9850
▁escabul	-9851
▁escasez	-9852
▁espague	-9853
▁estarán	-9854
▁financi	-9855
▁forzado	-9856
▁inglesa	-9857
▁ingreso	-9858
▁jueguen	-9859
▁ketchup	-9860
▁maletín	-9861
▁manteca	-9862
▁matando	-9863
▁menores	-9864
▁mienten	-9865
▁muriera	-9866
▁muñecas	-9867
▁paisaje	-9868
▁palomas	-9869
▁pararon	-9870
▁parques	-9871
▁patatas	-9872
▁perrito	-9873
▁plátano	-9874
▁ponerlo	-9875
▁prohíbe	-9876
▁prometí	-9877
▁quédate	-9878
▁realizó	-9879
▁reflexi	-9880
▁revelar	-9881
▁sacaste	-9882
▁secreta	-9883
▁supongo	-9884
▁símbolo	-9885
▁tenista	-9886
▁tobillo	-9887
▁tomates	-9888
▁trasero	-9889
▁tumbado	-9890
▁veranos	-9891
Entiendes	-9892
alización	-9893
losamente	-9894
▁Consegui	-9895
▁Continúa	-9896
▁Llegaste	-9897
▁Tuvieron	-9898
▁acusaron	-9899
▁adivinar	-9900
▁adquirir	-9901
▁advertir	-9902
▁agresivo	-9903
▁ahogarse	-9904
▁apagaron	-9905
▁arruinar	-9906
▁australi	-9907
▁biología	-9908
▁camarero	-9909
▁carácter	-9910
▁cercanos	-9911
▁cirujano	-9912
▁colgando	-9913
▁conduces	-9914
▁consigue	-9915
▁consiste	-9916
▁continúa	-9917
▁culpando	-9918
▁culparía	-9919
▁desampar	-9920
▁divorció	-9921
▁doloroso	-9922
▁enciende	-9923
▁enseñado	-9924
▁entienda	-9925
▁escalado	-9926
▁etiqueta	-9927
▁extendió	-9928
▁festival	-9929
▁funcione	-9930
▁gallinas	-9931
▁generoso	-9932
▁gritando	-9933
▁hablaron	-9934
▁hablemos	-9935
▁huérfano	-9936
▁industri	-9937
▁levantas	-9938
▁manifest	-9939
▁mensajes	-9940
▁mentiste	-9941
▁máquinas	-9942
▁nacieron	-9943
▁nacional	-9944
▁planeaba	-9945
▁provocar	-9946
▁práctica	-9947
▁práctico	-9948
▁quitarse	-9949
▁realista	-9950
▁refieres	-9951
▁registro	-9952
▁rellenar	-9953
▁reparado	-9954
▁sentimos	-9955
▁sobresal	-9956
▁sostenía	-9957
▁superior	-9958
▁tortugas	-9959
▁trabajes	-9960
▁vehículo	-9961
▁vendedor	-9962
▁vendrías	-9963
▁vestidos	-9964
Terminaste	-9965
entalmente	-9966
▁Empecemos	-9967
▁Podríamos	-9968
▁altamente	-9969
▁asiáticos	-9970
▁atropelló	-9971
▁autobuses	-9972
▁cancelado	-9973
▁candidato	-9974
▁capturado	-9975
▁cerradura	-9976
▁comienzan	-9977
▁comprando	-9978
▁concierne	-9979
▁conducido	-9980
▁deportivo	-9981
▁detective	-9982
▁diversión	-9983
▁económica	-9984
▁escaparon	-9985
▁escribiré	-9986
▁escándalo	-9987
▁esquiando	-9988
▁estudiara	-9989
▁eternidad	-9990
▁favoritos	-9991
▁filosofía	-9992
▁granjeros	-9993
▁ingeniero	-9994
▁inmediata	-9995
▁intervino	-9996
▁magnífica	-9997
▁marineros	-9998
▁meditando	-9999
▁neumático	-10000
▁participó	-10001
▁prestarme	-10002
▁queríamos	-10003
▁redacción	-10004
▁regresará	-10005
▁requieren	-10006
▁sintiendo	-10007
▁solitario	-10008
▁sumamente	-10009
▁visitarte	-10010
▁vitaminas	-10011
▁Almorzamos	-10012
▁Apresúrate	-10013
▁Hablaremos	-10014
▁Trabajamos	-10015
▁aficionado	-10016
▁aprobación	-10017
▁aprovechar	-10018
▁bancarrota	-10019
▁cometiendo	-10020
▁complicada	-10021
▁conclusión	-10022
▁criminales	-10023
▁cuidadosos	-10024
▁divertirse	-10025
▁equilibrio	-10026
▁escondidas	-10027
▁estaríamos	-10028
▁existencia	-10029
▁generación	-10030
▁maquillaje	-10031
▁peluquería	-10032
▁permitirme	-10033
▁prometiste	-10034
▁recordarte	-10035
▁relaciones	-10036
▁respondido	-10037
▁revolución	-10038
▁soportarlo	-10039
▁subestimes	-10040
▁trabajamos	-10041
▁acostumbrar	-10042
▁actualmente	-10043
▁afortunados	-10044
▁agradecerle	-10045
▁ciertamente	-10046
▁conseguirte	-10047
▁crecimiento	-10048
▁direcciones	-10049
▁disculparse	-10050
▁emocionados	-10051
▁encantadora	-10052
▁interrumpas	-10053
▁principales	-10054
▁profundidad	-10055
▁reproductor	-10056
▁voluntarios	-10057
▁Sinceramente	-10058
▁comunicación	-10059
▁inteligencia	-10060
▁medicamentos	-10061
▁regularmente	-10062
▁familiarizado	-10063
▁posibilidades	-10064
▁principiantes	-10065
▁prácticamente	-10066
▁descubrimiento	-10067
▁estacionamiento	-10068
!"	-10069
!,	-10070
%.	-10071
6.	-10072
He	-10073
NI	-10074
ko	-10075
lf	-10076
Ór	-10077
Jue	-10078
Per	-10079
VNI	-10080
Voy	-10081
bró	-10082
bur	-10083
cif	-10084
clo	-10085
ham	-10086
imi	-10087
lén	-10088
mad	-10089
oré	-10090
tel	-10091
xis	-10092
yes	-10093
énd	-10094
▁12	-10095
▁14	-10096
▁24	-10097
▁Bo	-10098
▁Du	-10099
▁EE	-10100
▁Fe	-10101
▁Lé	-10102
▁Sú	-10103
▁Tí	-10104
▁gi	-10105
▁gü	-10106
▁ov	-10107
▁ul	-10108
▁át	-10109
Debo	-10110
Todo	-10111
ablo	-10112
anti	-10113
apor	-10114
apro	-10115
bias	-10116
calo	-10117
chac	-10118
deme	-10119
diar	-10120
dita	-10121
dáis	-10122
ecia	-10123
ertu	-10124
frío	-10125
garo	-10126
lace	-10127
mano	-10128
olas	-10129
onía	-10130
osau	-10131
piro	-10132
pons	-10133
teca	-10134
tían	-10135
udos	-10136
ulsi	-10137
yoto	-10138
zaré	-10139
▁192	-10140
▁Che	-10141
▁Cuí	-10142
▁Dec	-10143
▁Def	-10144
▁Día	-10145
▁Hil	-10146
▁Ign	-10147
▁Log	-10148
▁Nar	-10149
▁Oye	-10150
▁Sac	-10151
▁Shi	-10152
▁Sue	-10153
▁Toy	-10154
▁adm	-10155
▁aga	-10156
▁ala	-10157
▁ate	-10158
▁aun	-10159
▁bás	-10160
▁cau	-10161
▁fic	-10162
▁lej	-10163
▁lon	-10164
▁nov	-10165
▁psi	-10166
▁red	-10167
▁tab	-10168
▁tap	-10169
Comes	-10170
Traba	-10171
Vives	-10172
alizó	-10173
chero	-10174
cidas	-10175
dilla	-10176
estás	-10177
ficar	-10178
fista	-10179
fonos	-10180
gente	-10181
icana	-10182
jarse	-10183
litar	-10184
matic	-10185
morre	-10186
ormes	-10187
quién	-10188
racán	-10189
radas	-10190
ralla	-10191
rimir	-10192
rones	-10193
tanos	-10194
tense	-10195
tenta	-10196
tible	-10197
ución	-10198
uelen	-10199
uelle	-10200
vitud	-10201
Órale	-10202
íralo	-10203
ísima	-10204
ógeno	-10205
▁Adop	-10206
▁Aver	-10207
▁Cook	-10208
▁Diez	-10209
▁Echo	-10210
▁Gira	-10211
▁Guár	-10212
▁Leer	-10213
▁Llen	-10214
▁OVNI	-10215
▁Paso	-10216
▁Puse	-10217
▁Suél	-10218
▁Viví	-10219
▁acce	-10220
▁amig	-10221
▁apur	-10222
▁boli	-10223
▁busc	-10224
▁cadá	-10225
▁cari	-10226
▁codo	-10227
▁emig	-10228
▁fati	-10229
▁fide	-10230
▁fina	-10231
▁fósf	-10232
▁gata	-10233
▁grue	-10234
▁hipó	-10235
▁inso	-10236
▁insp	-10237
▁irás	-10238
▁llan	-10239
▁maní	-10240
▁misa	-10241
▁mona	-10242
▁nube	-10243
▁pico	-10244
▁plen	-10245
▁posp	-10246
▁psic	-10247
▁reba	-10248
▁robé	-10249
▁roca	-10250
▁sana	-10251
▁saté	-10252
▁silb	-10253
▁tiza	-10254
▁toco	-10255
▁vean	-10256
Alguno	-10257
Déjame	-10258
Pensás	-10259
americ	-10260
choclo	-10261
ciamos	-10262
ciosos	-10263
descen	-10264
entaba	-10265
erales	-10266
grafía	-10267
huates	-10268
mieron	-10269
monios	-10270
ositor	-10271
párate	-10272
queros	-10273
rasile	-10274
riendo	-10275
staron	-10276
tables	-10277
trover	-10278
ventud	-10279
érselo	-10280
értame	-10281
▁Anota	-10282
▁Conte	-10283
▁Corri	-10284
▁Corta	-10285
▁Danos	-10286
▁Dejen	-10287
▁Dinos	-10288
▁Hazme	-10289
▁Hiros	-10290
▁Kyoto	-10291
▁Luces	-10292
▁Madre	-10293
▁Respe	-10294
▁Salgo	-10295
▁Sospe	-10296
▁Vemos	-10297
▁Vista	-10298
▁abofe	-10299
▁acomo	-10300
▁acuer	-10301
▁anoch	-10302
▁aprie	-10303
▁aprue	-10304
▁apuro	-10305
▁arque	-10306
▁beben	-10307
▁bebés	-10308
▁camis	-10309
▁canto	-10310
▁carca	-10311
▁carné	-10312
▁centa	-10313
▁cinta	-10314
▁civil	-10315
▁cobar	-10316
▁copas	-10317
▁creés	-10318
▁damos	-10319
▁defec	-10320
▁dejen	-10321
▁delic	-10322
▁dentí	-10323
▁devor	-10324
▁difun	-10325
▁espía	-10326
▁estri	-10327
▁exces	-10328
▁exqui	-10329
▁farma	-10330
▁fatal	-10331
▁flojo	-10332
▁guiso	-10333
▁hacés	-10334
▁hered	-10335
▁hormi	-10336
▁impar	-10337
▁incre	-10338
▁liado	-10339
▁limon	-10340
▁llevé	-10341
▁marco	-10342
▁moral	-10343
▁mueve	-10344
▁niego	-10345
▁opina	-10346
▁oreja	-10347
▁perca	-10348
▁pisos	-10349
▁pista	-10350
▁plena	-10351
▁ponen	-10352
▁puntu	-10353
▁rebel	-10354
▁regar	-10355
▁rumbo	-10356
▁sacri	-10357
▁salto	-10358
▁seguí	-10359
▁serlo	-10360
▁sonrí	-10361
▁suene	-10362
▁tibur	-10363
▁tocas	-10364
▁traté	-10365
▁ubica	-10366
▁virus	-10367
▁voces	-10368
Estamos	-10369
ciembre	-10370
dientes	-10371
inación	-10372
leccion	-10373
levante	-10374
unciona	-10375
zaremos	-10376
▁10.000	-10377
▁Además	-10378
▁Buenos	-10379
▁Cometí	-10380
▁Dáselo	-10381
▁Guarda	-10382
▁Hágame	-10383
▁Narita	-10384
▁Prueba	-10385
▁Valent	-10386
▁abrazo	-10387
▁aburre	-10388
▁agenda	-10389
▁agosto	-10390
▁apague	-10391
▁ayudan	-10392
▁ayuden	-10393
▁basada	-10394
▁bondad	-10395
▁carece	-10396
▁cement	-10397
▁champú	-10398
▁chaval	-10399
▁compro	-10400
▁congel	-10401
▁cuente	-10402
▁cuento	-10403
▁demora	-10404
▁desvan	-10405
▁docena	-10406
▁duelen	-10407
▁enlace	-10408
▁espada	-10409
▁esplén	-10410
▁exacta	-10411
▁exacto	-10412
▁faldas	-10413
▁faltan	-10414
▁fingir	-10415
▁fondos	-10416
▁griega	-10417
▁hervir	-10418
▁horneó	-10419
▁horror	-10420
▁inquie	-10421
▁invité	-10422
▁jarrón	-10423
▁jueves	-10424
▁laptop	-10425
▁leyera	-10426
▁libras	-10427
▁maledu	-10428
▁maltra	-10429
▁margar	-10430
▁mejore	-10431
▁mejoró	-10432
▁meticu	-10433
▁mismas	-10434
▁muelle	-10435
▁nacion	-10436
▁niñito	-10437
▁obtuve	-10438
▁operar	-10439
▁origen	-10440
▁pagaré	-10441
▁parale	-10442
▁perlas	-10443
▁plantó	-10444
▁postal	-10445
▁pulsar	-10446
▁recibo	-10447
▁repisa	-10448
▁respir	-10449
▁restau	-10450
▁rodeos	-10451
▁rutina	-10452
▁sabrás	-10453
▁sangra	-10454
▁seamos	-10455
▁senten	-10456
▁sentís	-10457
▁sillón	-10458
▁soborn	-10459
▁sobrep	-10460
▁soñado	-10461
▁suegra	-10462
▁suertu	-10463
▁tardar	-10464
▁templo	-10465
▁título	-10466
▁usarlo	-10467
▁villan	-10468
▁vuelan	-10469
▁vuelos	-10470
▁válido	-10471
▁Éramos	-10472
Entonces	-10473
Estudias	-10474
chísimas	-10475
firiendo	-10476
portable	-10477
saciones	-10478
tentemos	-10479
▁Comencé	-10480
▁Constru	-10481
▁Durante	-10482
▁Esperad	-10483
▁Holanda	-10484
▁Llegaré	-10485
▁Llevaba	-10486
▁Pasaron	-10487
▁Posible	-10488
▁Quieres	-10489
▁abrirla	-10490
▁absurda	-10491
▁adoptar	-10492
▁agricul	-10493
▁ajustar	-10494
▁alcanza	-10495
▁alejado	-10496
▁algodón	-10497
▁amables	-10498
▁amenazó	-10499
▁arbusto	-10500
▁arrancó	-10501
▁atender	-10502
▁atómica	-10503
▁bajaron	-10504
▁bañando	-10505
▁besarte	-10506
▁blancas	-10507
▁brillan	-10508
▁cadáver	-10509
▁cepillo	-10510
▁cintura	-10511
▁colegas	-10512
▁comerte	-10513
▁comesti	-10514
▁compres	-10515
▁conocés	-10516
▁consiga	-10517
▁coquete	-10518
▁costaba	-10519
▁costado	-10520
▁cuentos	-10521
▁debiste	-10522
▁defensa	-10523
▁dejaran	-10524
▁delincu	-10525
▁derramó	-10526
▁derrota	-10527
▁desanim	-10528
▁deshone	-10529
▁diablos	-10530
▁dinosau	-10531
▁disminu	-10532
▁disparo	-10533
▁echaron	-10534
▁escribi	-10535
▁estudié	-10536
▁explotó	-10537
▁factura	-10538
▁ficción	-10539
▁fáciles	-10540
▁ganaría	-10541
▁hablará	-10542
▁hayamos	-10543
▁helados	-10544
▁hoteles	-10545
▁huracán	-10546
▁incluye	-10547
▁inneces	-10548
▁inusual	-10549
▁jugaban	-10550
▁lavando	-10551
▁limpios	-10552
▁malvado	-10553
▁mandado	-10554
▁maneras	-10555
▁mascota	-10556
▁mereces	-10557
▁merezco	-10558
▁moderno	-10559
▁moleste	-10560
▁monstru	-10561
▁moverse	-10562
▁muralla	-10563
▁máscara	-10564
▁narices	-10565
▁navegar	-10566
▁ofrecer	-10567
▁pagaron	-10568
▁pararme	-10569
▁pediste	-10570
▁perdida	-10571
▁periodo	-10572
▁pilchas	-10573
▁privada	-10574
▁proceso	-10575
▁provocó	-10576
▁respeta	-10577
▁revisar	-10578
▁ruidosa	-10579
▁salvado	-10580
▁seguiré	-10581
▁similar	-10582
▁sugiero	-10583
▁sábanas	-10584
▁tatuaje	-10585
▁taxista	-10586
▁tierras	-10587
▁tomamos	-10588
▁tomarse	-10589
▁trabajé	-10590
▁traerme	-10591
▁traidor	-10592
▁transmi	-10593
▁trasera	-10594
▁valioso	-10595
▁vanidos	-10596
▁vendido	-10597
▁verdura	-10598
▁versión	-10599
untémonos	-10600
▁Acabamos	-10601
▁Adelante	-10602
▁Llevamos	-10603
▁Perdimos	-10604
▁Pregunta	-10605
▁Pregunté	-10606
▁Probemos	-10607
▁Reciente	-10608
▁Responde	-10609
▁abiertas	-10610
▁abiertos	-10611
▁alegrará	-10612
▁alemanes	-10613
▁alfabeto	-10614
▁alimenta	-10615
▁archivos	-10616
▁aspectos	-10617
▁atascado	-10618
▁ayudaron	-10619
▁bombones	-10620
▁cachorro	-10621
▁calcetín	-10622
▁califica	-10623
▁cambiaré	-10624
▁carreras	-10625
▁cerradas	-10626
▁chatarra	-10627
▁confiaba	-10628
▁contamin	-10629
▁corregir	-10630
▁cuidarte	-10631
▁cántaros	-10632
▁delfines	-10633
▁descalzo	-10634
▁disparos	-10635
▁distinto	-10636
▁empezará	-10637
▁encargar	-10638
▁entendía	-10639
▁enterado	-10640
▁escondas	-10641
▁esperaré	-10642
▁estallar	-10643
▁estricto	-10644
▁evitarlo	-10645
▁fuéramos	-10646
▁gramatic	-10647
▁informar	-10648
▁instalar	-10649
▁intentas	-10650
▁juventud	-10651
▁llamarte	-10652
▁luchando	-10653
▁monedero	-10654
▁natación	-10655
▁ocurrirá	-10656
▁palillos	-10657
▁pasteles	-10658
▁pescando	-10659
▁pochoclo	-10660
▁poderoso	-10661
▁preocupo	-10662
▁quedaste	-10663
▁resfriar	-10664
▁responde	-10665
▁salgamos	-10666
▁sencilla	-10667
▁sentirás	-10668
▁talentos	-10669
▁tejiendo	-10670
▁transpor	-10671
▁vaqueros	-10672
▁violento	-10673
▁volverás	-10674
▁víctimas	-10675
▁Empezamos	-10676
▁Tailandia	-10677
▁acompañar	-10678
▁acostarte	-10679
▁adaptarse	-10680
▁almorzado	-10681
▁arreglado	-10682
▁arruinado	-10683
▁atravesar	-10684
▁cantantes	-10685
▁castigado	-10686
▁chismorre	-10687
▁compartió	-10688
▁complacer	-10689
▁condescen	-10690
▁constante	-10691
▁contenido	-10692
▁cristiano	-10693
▁cuidadosa	-10694
▁desprecio	-10695
▁diamantes	-10696
▁disparado	-10697
▁eligieron	-10698
▁encantaba	-10699
▁enfadarse	-10700
▁entiendas	-10701
▁espagueti	-10702
▁espantoso	-10703
▁estacionó	-10704
▁explicaré	-10705
▁fracasado	-10706
▁franceses	-10707
▁horizonte	-10708
▁industria	-10709
▁intentaba	-10710
▁invención	-10711
▁irrespons	-10712
▁miserable	-10713
▁molestado	-10714
▁paranoico	-10715
▁parecidos	-10716
▁parientes	-10717
▁perdonaré	-10718
▁personaje	-10719
▁prestando	-10720
▁recompens	-10721
▁relajarse	-10722
▁sucediera	-10723
▁toneladas	-10724
▁tradición	-10725
▁valientes	-10726
▁vendiendo	-10727
▁Importamos	-10728
▁Terminemos	-10729
▁aplicación	-10730
▁asignatura	-10731
▁avergonzar	-10732
▁avergüenzo	-10733
▁caballeros	-10734
▁cacahuates	-10735
▁cacahuetes	-10736
▁campamento	-10737
▁cementerio	-10738
▁comenzaron	-10739
▁comprendió	-10740
▁confundida	-10741
▁convertirá	-10742
▁descuidado	-10743
▁despistado	-10744
▁disgustado	-10745
▁encantador	-10746
▁encontraré	-10747
▁entrevista	-10748
▁esclavitud	-10749
▁escribirle	-10750
▁estuvieran	-10751
▁familiares	-10752
▁fantástico	-10753
▁financiera	-10754
▁firmemente	-10755
▁galletitas	-10756
▁llegaremos	-10757
▁mantenerte	-10758
▁movimiento	-10759
▁murmurando	-10760
▁ocurriendo	-10761
▁permaneció	-10762
▁preparados	-10763
▁principios	-10764
▁protegerte	-10765
▁recogiendo	-10766
▁refugiados	-10767
▁sospechaba	-10768
▁terminamos	-10769
▁terminaron	-10770
▁terminaste	-10771
▁testamento	-10772
▁visitarnos	-10773
▁Ciertamente	-10774
▁Disfrutamos	-10775
▁Encontrarás	-10776
▁Universidad	-10777
▁calculadora	-10778
▁consciencia	-10779
▁conversando	-10780
▁desesperado	-10781
▁diferenciar	-10782
▁disponibles	-10783
▁dondequiera	-10784
▁funcionando	-10785
▁guitarrista	-10786
▁interrumpió	-10787
▁presentarme	-10788
▁quienquiera	-10789
▁Adondequiera	-10790
▁Posiblemente	-10791
▁aburrimiento	-10792
▁artificiales	-10793
▁consecuencia	-10794
▁construyeron	-10795
▁entusiasmado	-10796
▁generalmente	-10797
▁insoportable	-10798
▁nacionalidad	-10799
▁oscureciendo	-10800
▁pertenencias	-10801
▁probabilidad	-10802
▁Recientemente	-10803
▁desconcertado	-10804
▁encontraremos	-10805
▁indispensable	-10806
▁interfiriendo	-10807
▁pacientemente	-10808
▁relativamente	-10809
▁sobrevivieron	-10810
▁terriblemente	-10811
▁universitaria	-10812
▁agradecimiento	-10813
▁necesariamente	-10814
▁preocupaciones	-10815
▁automáticamente	-10816
Ar	-10817
BI	-10818
Mi	-10819
UU	-10820
ly	-10821
od	-10822
pí	-10823
we	-10824
xo	-10825
óx	-10826
úr	-10827
:30	-10828
Fue	-10829
Llo	-10830
Pás	-10831
Sos	-10832
abi	-10833
cor	-10834
cón	-10835
dom	-10836
enó	-10837
eró	-10838
fal	-10839
fes	-10840
gés	-10841
jad	-10842
jeó	-10843
ley	-10844
lia	-10845
omi	-10846
pia	-10847
ril	-10848
sul	-10849
ueb	-10850
uli	-10851
uls	-10852
une	-10853
áme	-10854
▁40	-10855
▁5.	-10856
▁Có	-10857
▁Ku	-10858
Acep	-10859
Buen	-10860
Dese	-10861
Hola	-10862
Sois	-10863
Toca	-10864
abes	-10865
apur	-10866
ayer	-10867
bres	-10868
bula	-10869
crip	-10870
dijo	-10871
enlo	-10872
gara	-10873
gila	-10874
glés	-10875
gulo	-10876
gués	-10877
igan	-10878
iles	-10879
inan	-10880
izas	-10881
jaba	-10882
jaré	-10883
licó	-10884
lowe	-10885
mino	-10886
ompe	-10887
onal	-10888
puse	-10889
recí	-10890
rosi	-10891
rump	-10892
rían	-10893
sera	-10894
stin	-10895
stió	-10896
ting	-10897
tonó	-10898
tter	-10899
ugía	-10900
vacu	-10901
velt	-10902
xión	-10903
zate	-10904
árme	-10905
▁10.	-10906
▁Bai	-10907
▁Bús	-10908
▁FBI	-10909
▁Mad	-10910
▁New	-10911
▁Tóm	-10912
▁Usa	-10913
▁Uso	-10914
▁aca	-10915
▁alb	-10916
▁ame	-10917
▁ari	-10918
▁bir	-10919
▁drá	-10920
▁dup	-10921
▁fis	-10922
▁fol	-10923
▁foo	-10924
▁hin	-10925
▁ida	-10926
▁llé	-10927
▁ord	-10928
▁pár	-10929
▁rol	-10930
▁sín	-10931
▁tac	-10932
▁use	-10933
▁yen	-10934
Bebes	-10935
Desea	-10936
Había	-10937
Ojalá	-10938
Sería	-10939
allas	-10940
asión	-10941
buena	-10942
carme	-10943
cible	-10944
ciclo	-10945
cicos	-10946
cinas	-10947
cinco	-10948
cioné	-10949
deces	-10950
deras	-10951
derás	-10952
dicas	-10953
escri	-10954
frico	-10955
grado	-10956
iende	-10957
jadas	-10958
jones	-10959
lemos	-10960
noslo	-10961
ondas	-10962
orros	-10963
pando	-10964
reros	-10965
sario	-10966
stece	-10967
stros	-10968
tabas	-10969
tarla	-10970
tenos	-10971
terre	-10972
tugal	-10973
tulos	-10974
uelta	-10975
varon	-10976
xible	-10977
ámelo	-10978
ética	-10979
ñando	-10980
ólogo	-10981
óxido	-10982
▁Apro	-10983
▁Avís	-10984
▁Bajé	-10985
▁Bebe	-10986
▁Blan	-10987
▁Cuel	-10988
▁Dejo	-10989
▁Eras	-10990
▁Hacé	-10991
▁Miró	-10992
▁Noel	-10993
▁Oigo	-10994
▁Paré	-10995
▁Pién	-10996
▁Roja	-10997
▁Saca	-10998
▁Tomá	-10999
▁Trái	-11000
▁aler	-11001
▁alti	-11002
▁aspi	-11003
▁auxi	-11004
▁boxe	-11005
▁cató	-11006
▁cent	-11007
▁civi	-11008
▁coge	-11009
▁deso	-11010
▁eché	-11011
▁ende	-11012
▁exhi	-11013
▁fama	-11014
▁freg	-11015
▁gano	-11016
▁gané	-11017
▁goma	-11018
▁gota	-11019
▁gris	-11020
▁guer	-11021
▁hala	-11022
▁hidr	-11023
▁inad	-11024
▁lana	-11025
▁leal	-11026
▁letr	-11027
▁mamí	-11028
▁mudo	-11029
▁papa	-11030
▁picó	-11031
▁pino	-11032
▁pomo	-11033
▁prej	-11034
▁recl	-11035
▁reno	-11036
▁retó	-11037
▁rudo	-11038
▁rías	-11039
▁semi	-11040
▁tiñó	-11041
▁vaci	-11042
▁Ésas	-11043
Juegas	-11044
Seguro	-11045
adería	-11046
apropi	-11047
ciaron	-11048
cracia	-11049
entaos	-11050
ificar	-11051
imista	-11052
loween	-11053
mática	-11054
omitas	-11055
onomía	-11056
quemos	-11057
rarnos	-11058
semeja	-11059
teando	-11060
éndome	-11061
éndote	-11062
értelo	-11063
óviles	-11064
▁1939.	-11065
▁Aguar	-11066
▁Averi	-11067
▁Cocin	-11068
▁Compr	-11069
▁Crecí	-11070
▁Entró	-11071
▁Estar	-11072
▁Ganar	-11073
▁Limpi	-11074
▁Llevé	-11075
▁Léelo	-11076
▁Miren	-11077
▁Nació	-11078
▁Parec	-11079
▁Parte	-11080
▁Quita	-11081
▁Roger	-11082
▁Roose	-11083
▁Saqué	-11084
▁Super	-11085
▁Vendí	-11086
▁Vivir	-11087
▁agitó	-11088
▁alist	-11089
▁amará	-11090
▁arren	-11091
▁aumen	-11092
▁aéreo	-11093
▁baila	-11094
▁basta	-11095
▁cansó	-11096
▁cesta	-11097
▁circu	-11098
▁clavo	-11099
▁codos	-11100
▁colab	-11101
▁convi	-11102
▁costo	-11103
▁criar	-11104
▁culpó	-11105
▁curar	-11106
▁damas	-11107
▁delan	-11108
▁derre	-11109
▁desen	-11110
▁desvi	-11111
▁dispu	-11112
▁eches	-11113
▁elevó	-11114
▁envej	-11115
▁enven	-11116
▁estru	-11117
▁evacu	-11118
▁evitó	-11119
▁exige	-11120
▁ferro	-11121
▁forzó	-11122
▁frotó	-11123
▁fríos	-11124
▁girar	-11125
▁globo	-11126
▁habré	-11127
▁holan	-11128
▁invas	-11129
▁invis	-11130
▁jeans	-11131
▁jugué	-11132
▁ladra	-11133
▁latir	-11134
▁legal	-11135
▁licen	-11136
▁liger	-11137
▁limón	-11138
▁lluvi	-11139
▁logré	-11140
▁manip	-11141
▁milla	-11142
▁miran	-11143
▁modos	-11144
▁monum	-11145
▁muest	-11146
▁obras	-11147
▁pague	-11148
▁pases	-11149
▁patas	-11150
▁pedír	-11151
▁pelar	-11152
▁perdo	-11153
▁perse	-11154
▁persp	-11155
▁pesos	-11156
▁pidas	-11157
▁plana	-11158
▁porte	-11159
▁proce	-11160
▁quité	-11161
▁raras	-11162
▁rasca	-11163
▁retro	-11164
▁ruego	-11165
▁salen	-11166
▁salsa	-11167
▁secos	-11168
▁sello	-11169
▁sufri	-11170
▁talló	-11171
▁taxis	-11172
▁teles	-11173
▁tirar	-11174
▁torpe	-11175
▁toser	-11176
▁total	-11177
▁tripu	-11178
▁trope	-11179
▁usaba	-11180
▁valle	-11181
▁venda	-11182
▁venen	-11183
▁vengo	-11184
▁veían	-11185
▁volan	-11186
Vendrás	-11187
adeando	-11188
antemos	-11189
dedores	-11190
gencias	-11191
mbencia	-11192
ordaron	-11193
podrías	-11194
tencias	-11195
tábamos	-11196
▁Adivin	-11197
▁Admito	-11198
▁Agarra	-11199
▁Buenas	-11200
▁Cambié	-11201
▁Camina	-11202
▁Compró	-11203
▁Cookie	-11204
▁Desper	-11205
▁Fíjate	-11206
▁Hilton	-11207
▁Invité	-11208
▁Llueve	-11209
▁Miller	-11210
▁Person	-11211
▁Repent	-11212
▁Respon	-11213
▁Sostén	-11214
▁Toyota	-11215
▁Vigila	-11216
▁abejas	-11217
▁abrirá	-11218
▁acaban	-11219
▁acerti	-11220
▁admira	-11221
▁admiro	-11222
▁admite	-11223
▁afecta	-11224
▁agarré	-11225
▁alcohó	-11226
▁aliado	-11227
▁amamos	-11228
▁angust	-11229
▁apoyes	-11230
▁apreci	-11231
▁atravi	-11232
▁besado	-11233
▁bolsas	-11234
▁cajero	-11235
▁camion	-11236
▁cantan	-11237
▁cantes	-11238
▁capaci	-11239
▁cariño	-11240
▁casara	-11241
▁causas	-11242
▁celosa	-11243
▁chanta	-11244
▁chofer	-11245
▁conqui	-11246
▁consti	-11247
▁convir	-11248
▁corpor	-11249
▁corría	-11250
▁costar	-11251
▁crecen	-11252
▁debían	-11253
▁delito	-11254
▁desató	-11255
▁descif	-11256
▁distri	-11257
▁enfríe	-11258
▁enveje	-11259
▁escala	-11260
▁estres	-11261
▁estrés	-11262
▁exceso	-11263
▁explor	-11264
▁fingía	-11265
▁formal	-11266
▁formar	-11267
▁ganará	-11268
▁gustos	-11269
▁hablen	-11270
▁helada	-11271
▁heredó	-11272
▁hierve	-11273
▁hornea	-11274
▁huella	-11275
▁hígado	-11276
▁indios	-11277
▁inició	-11278
▁invent	-11279
▁leíste	-11280
▁lindos	-11281
▁manejo	-11282
▁medios	-11283
▁mercad	-11284
▁mezcla	-11285
▁mojada	-11286
▁motiva	-11287
▁mueble	-11288
▁muelas	-11289
▁mueras	-11290
▁muerde	-11291
▁muñeco	-11292
▁nacido	-11293
▁niñita	-11294
▁obligó	-11295
▁ojeada	-11296
▁opongo	-11297
▁orilla	-11298
▁pasaré	-11299
▁patada	-11300
▁pediré	-11301
▁peleas	-11302
▁prensa	-11303
▁presté	-11304
▁previo	-11305
▁propon	-11306
▁prover	-11307
▁provis	-11308
▁pulmón	-11309
▁puñado	-11310
▁reales	-11311
▁recado	-11312
▁recost	-11313
▁reparó	-11314
▁restos	-11315
▁revisó	-11316
▁reímos	-11317
▁reírse	-11318
▁salada	-11319
▁sartén	-11320
▁satéli	-11321
▁sector	-11322
▁separó	-11323
▁sequía	-11324
▁sufrir	-11325
▁sótano	-11326
▁tanque	-11327
▁temper	-11328
▁tercio	-11329
▁tomara	-11330
▁torneo	-11331
▁tortas	-11332
▁traigo	-11333
▁tratas	-11334
▁triple	-11335
▁trueno	-11336
▁unidos	-11337
▁valios	-11338
▁varían	-11339
▁virtud	-11340
▁visado	-11341
▁vivían	-11342
▁vuelvo	-11343
Hablaste	-11344
Querrías	-11345
Quisiera	-11346
ciéndolo	-11347
teriores	-11348
▁Cuídate	-11349
▁Detente	-11350
▁Estudia	-11351
▁Hacemos	-11352
▁Háblame	-11353
▁Intento	-11354
▁Ninguna	-11355
▁Póngase	-11356
▁Respeto	-11357
▁Resultó	-11358
▁Sentate	-11359
▁Tomamos	-11360
▁Traduce	-11361
▁Venecia	-11362
▁Volverá	-11363
▁Vuestra	-11364
▁aclarar	-11365
▁afición	-11366
▁afilado	-11367
▁ahorita	-11368
▁alcance	-11369
▁alegrar	-11370
▁almacen	-11371
▁amenaza	-11372
▁anuncio	-11373
▁aparece	-11374
▁apreció	-11375
▁apretar	-11376
▁apuesta	-11377
▁asemeja	-11378
▁asesinó	-11379
▁aventón	-11380
▁ayudase	-11381
▁balance	-11382
▁brasile	-11383
▁cabezas	-11384
▁callada	-11385
▁calmado	-11386
▁canceló	-11387
▁capturó	-11388
▁cartero	-11389
▁cayeron	-11390
▁cenando	-11391
▁cenizas	-11392
▁ciertas	-11393
▁cirugía	-11394
▁comerse	-11395
▁cometas	-11396
▁comiera	-11397
▁comprob	-11398
▁congela	-11399
▁contuvo	-11400
▁costoso	-11401
▁crecido	-11402
▁creemos	-11403
▁creerlo	-11404
▁cristal	-11405
▁crítico	-11406
▁curioso	-11407
▁dejarle	-11408
▁desaten	-11409
▁dijeras	-11410
▁dimitir	-11411
▁disfraz	-11412
▁dividió	-11413
▁dolores	-11414
▁dominio	-11415
▁débiles	-11416
▁echarme	-11417
▁elevado	-11418
▁emoción	-11419
▁empiece	-11420
▁encantó	-11421
▁enemiga	-11422
▁engañes	-11423
▁enloque	-11424
▁entorno	-11425
▁envidia	-11426
▁escoger	-11427
▁estadio	-11428
▁estados	-11429
▁existir	-11430
▁exporta	-11431
▁fracasó	-11432
▁ganaron	-11433
▁imagino	-11434
▁implica	-11435
▁infarto	-11436
▁informó	-11437
▁injusta	-11438
▁insiste	-11439
▁insulto	-11440
▁intenso	-11441
▁jubilar	-11442
▁lastimé	-11443
▁lechuga	-11444
▁límites	-11445
▁marchar	-11446
▁mataste	-11447
▁medidas	-11448
▁militar	-11449
▁motivos	-11450
▁ofender	-11451
▁oscuras	-11452
▁pagando	-11453
▁palmada	-11454
▁pelando	-11455
▁pelotas	-11456
▁pierdes	-11457
▁postuló	-11458
▁propina	-11459
▁psiquia	-11460
▁puentes	-11461
▁pulsera	-11462
▁racista	-11463
▁refiero	-11464
▁relojes	-11465
▁resfrío	-11466
▁retirar	-11467
▁sección	-11468
▁separar	-11469
▁sobrino	-11470
▁suicida	-11471
▁termino	-11472
▁tomarme	-11473
▁tuviese	-11474
▁tuviste	-11475
▁vuelvan	-11476
Estuviste	-11477
cialmente	-11478
stitución	-11479
▁Disfruté	-11480
▁Hablando	-11481
▁Mostrame	-11482
▁Nosotras	-11483
▁Podíamos	-11484
▁Portugal	-11485
▁Pretendo	-11486
▁Pruébate	-11487
▁Relájate	-11488
▁Solíamos	-11489
▁Valentín	-11490
▁absoluta	-11491
▁acabamos	-11492
▁adelanta	-11493
▁ahogando	-11494
▁almuerza	-11495
▁ambiente	-11496
▁amistoso	-11497
▁aparcado	-11498
▁aprendes	-11499
▁aventura	-11500
▁averigua	-11501
▁ayudamos	-11502
▁bailarín	-11503
▁banquero	-11504
▁bombarde	-11505
▁calurosa	-11506
▁cansando	-11507
▁capítulo	-11508
▁caramelo	-11509
▁catálogo	-11510
▁cebollas	-11511
▁cogieron	-11512
▁comparto	-11513
▁compensa	-11514
▁compulsi	-11515
▁conocías	-11516
▁contador	-11517
▁contando	-11518
▁contaste	-11519
▁convencí	-11520
▁corredor	-11521
▁cosechas	-11522
▁costaría	-11523
▁cultivos	-11524
▁decirles	-11525
▁decirnos	-11526
▁demandar	-11527
▁demandas	-11528
▁demonios	-11529
▁descuido	-11530
▁determin	-11531
▁devuelto	-11532
▁discutió	-11533
▁disfruto	-11534
▁disfrutó	-11535
▁distraer	-11536
▁eliminar	-11537
▁embajado	-11538
▁empezaba	-11539
▁enfermos	-11540
▁entregué	-11541
▁enviarle	-11542
▁escuelas	-11543
▁esencial	-11544
▁estrelló	-11545
▁estribos	-11546
▁evitando	-11547
▁expertos	-11548
▁expliqué	-11549
▁fabuloso	-11550
▁fábricas	-11551
▁graciosa	-11552
▁gravedad	-11553
▁guardias	-11554
▁hablaría	-11555
▁haríamos	-11556
▁hermosos	-11557
▁hicieran	-11558
▁hicieras	-11559
▁hormigas	-11560
▁inapropi	-11561
▁italiana	-11562
▁levantan	-11563
▁liberado	-11564
▁llamarle	-11565
▁llamarlo	-11566
▁llevaban	-11567
▁llevarlo	-11568
▁llevaría	-11569
▁lucharon	-11570
▁mantengo	-11571
▁mariscos	-11572
▁mascotas	-11573
▁menospre	-11574
▁ministro	-11575
▁modernos	-11576
▁monstruo	-11577
▁negociar	-11578
▁pariente	-11579
▁paseando	-11580
▁primeras	-11581
▁quebrado	-11582
▁quedaras	-11583
▁quemando	-11584
▁quitaste	-11585
▁regalado	-11586
▁regañado	-11587
▁regreses	-11588
▁ridícula	-11589
▁sentidos	-11590
▁siembras	-11591
▁simpatía	-11592
▁solucion	-11593
▁subieron	-11594
▁sucederá	-11595
▁suertudo	-11596
▁testigos	-11597
▁trajiste	-11598
▁vanidoso	-11599
▁vestirse	-11600
Deberíamos	-11601
ciosamente	-11602
▁Compramos	-11603
▁Comprendí	-11604
▁Hiroshima	-11605
▁Intentaré	-11606
▁Permíteme	-11607
▁Roosevelt	-11608
▁aceptaron	-11609
▁actuación	-11610
▁anochecer	-11611
▁apropiada	-11612
▁artículos	-11613
▁asustarte	-11614
▁aterrizar	-11615
▁ayudarlos	-11616
▁británico	-11617
▁cambiarme	-11618
▁coleccion	-11619
▁compasión	-11620
▁confundió	-11621
▁conocerla	-11622
▁considero	-11623
▁consideró	-11624
▁correctas	-11625
▁decepción	-11626
▁descartar	-11627
▁desprecia	-11628
▁devolveré	-11629
▁discutido	-11630
▁disfrutan	-11631
▁distraído	-11632
▁encerrado	-11633
▁enfadados	-11634
▁enfrentar	-11635
▁enseñanza	-11636
▁equivoqué	-11637
▁esperaron	-11638
▁espinacas	-11639
▁exactitud	-11640
▁francesas	-11641
▁fregadero	-11642
▁graduarse	-11643
▁habérmelo	-11644
▁hidrógeno	-11645
▁indignado	-11646
▁inténtalo	-11647
▁inversión	-11648
▁jardinero	-11649
▁jugábamos	-11650
▁lavarropa	-11651
▁malgastes	-11652
▁manejando	-11653
▁minerales	-11654
▁minifalda	-11655
▁mosquitos	-11656
▁necesaria	-11657
▁noviembre	-11658
▁obligaron	-11659
▁palomitas	-11660
▁panadería	-11661
▁pendiente	-11662
▁perdonará	-11663
▁permitiré	-11664
▁pesimista	-11665
▁portugués	-11666
▁prefieren	-11667
▁programas	-11668
▁recordado	-11669
▁retirarse	-11670
▁sacudirse	-11671
▁temblando	-11672
▁terribles	-11673
▁traductor	-11674
▁vigilando	-11675
▁visitarle	-11676
▁Aprendemos	-11677
▁Escuchamos	-11678
▁Juntémonos	-11679
▁Manténgase	-11680
▁Muchísimas	-11681
▁Nochebuena	-11682
▁almorzamos	-11683
▁apresurado	-11684
▁arduamente	-11685
▁asistencia	-11686
▁astronomía	-11687
▁aterrizaje	-11688
▁calendario	-11689
▁conducción	-11690
▁contratado	-11691
▁costumbres	-11692
▁cucarachas	-11693
▁defectuoso	-11694
▁democracia	-11695
▁dentífrico	-11696
▁desarrollo	-11697
▁despedirse	-11698
▁destrozado	-11699
▁disfrazado	-11700
▁dispararon	-11701
▁divertiste	-11702
▁doscientos	-11703
▁encontrará	-11704
▁entendemos	-11705
▁entendiera	-11706
▁entusiasmo	-11707
▁esconderse	-11708
▁escondiste	-11709
▁estampilla	-11710
▁haciéndolo	-11711
▁hiciéramos	-11712
▁imaginarme	-11713
▁intentaron	-11714
▁interferir	-11715
▁lavarropas	-11716
▁levantaron	-11717
▁microondas	-11718
▁misteriosa	-11719
▁nacionales	-11720
▁perfección	-11721
▁pesadillas	-11722
▁pudiéramos	-11723
▁recomiendo	-11724
▁recompensa	-11725
▁recuperará	-11726
▁telescopio	-11727
▁vergonzoso	-11728
▁visitantes	-11729
▁alrededores	-11730
▁apariencias	-11731
▁aprendieron	-11732
▁calefacción	-11733
▁capacidades	-11734
▁comestibles	-11735
▁conductores	-11736
▁considerada	-11737
▁conveniente	-11738
▁dormitorios	-11739
▁entenderías	-11740
▁entretenido	-11741
▁esperándote	-11742
▁estupideces	-11743
▁excepcional	-11744
▁impacientes	-11745
▁impresionar	-11746
▁incumbencia	-11747
▁ligeramente	-11748
▁proposición	-11749
▁reflexionar	-11750
▁terroristas	-11751
▁tripulación	-11752
▁veinticinco	-11753
▁villancicos	-11754
▁computadoras	-11755
▁desperdiciar	-11756
▁diccionarios	-11757
▁especialidad	-11758
▁estadísticas	-11759
▁maravillosas	-11760
▁restaurantes	-11761
▁temperamento	-11762
▁urgentemente	-11763
▁irresponsable	-11764
▁pronunciación	-11765
▁Repentinamente	-11766
▁calificaciones	-11767
▁estupendamente	-11768
▁extraordinario	-11769
▁silenciosamente	-11770
1.	-11771
7.	-11772
?,	-11773
Ap	-11774
Ba	-11775
Pa	-11776
cá	-11777
fu	-11778
he	-11779
hj	-11780
ji	-11781
pp	-11782
ry	-11783
uy	-11784
úl	-11785
▁'	-11786
▁—	-11787
Cui	-11788
Emp	-11789
Van	-11790
aya	-11791
bun	-11792
bía	-11793
cua	-11794
cúl	-11795
dal	-11796
dea	-11797
dka	-11798
dás	-11799
ear	-11800
fil	-11801
fra	-11802
gad	-11803
ged	-11804
gno	-11805
hal	-11806
idu	-11807
ifa	-11808
ime	-11809
iri	-11810
ket	-11811
lea	-11812
lip	-11813
mia	-11814
mpi	-11815
oli	-11816
omn	-11817
ood	-11818
pón	-11819
rru	-11820
sté	-11821
sér	-11822
vul	-11823
xon	-11824
ásp	-11825
ína	-11826
ñor	-11827
órm	-11828
úan	-11829
▁3.	-11830
▁35	-11831
▁7.	-11832
▁80	-11833
▁90	-11834
▁AD	-11835
▁Ag	-11836
▁Bé	-11837
▁Hi	-11838
▁Ky	-11839
▁MP	-11840
▁Mc	-11841
▁Oc	-11842
▁SI	-11843
▁Vo	-11844
▁et	-11845
▁ko	-11846
,000	-11847
Eras	-11848
Solo	-11849
adlo	-11850
amin	-11851
amón	-11852
anse	-11853
ayas	-11854
balo	-11855
bana	-11856
berg	-11857
bida	-11858
bili	-11859
bios	-11860
bras	-11861
buja	-11862
chil	-11863
delo	-11864
dete	-11865
ense	-11866
esía	-11867
etas	-11868
fado	-11869
gote	-11870
icle	-11871
iona	-11872
jita	-11873
juku	-11874
kele	-11875
lago	-11876
leza	-11877
lito	-11878
lizó	-11879
losa	-11880
mith	-11881
ocad	-11882
omba	-11883
onja	-11884
orge	-11885
pame	-11886
rara	-11887
rsos	-11888
simo	-11889
squi	-11890
stra	-11891
tana	-11892
teos	-11893
teza	-11894
tios	-11895
tizo	-11896
tnam	-11897
umió	-11898
verá	-11899
vete	-11900
▁150	-11901
▁Acá	-11902
▁Alé	-11903
▁Apr	-11904
▁Aun	-11905
▁Bar	-11906
▁CDs	-11907
▁Cap	-11908
▁Car	-11909
▁Cla	-11910
▁Cul	-11911
▁Dar	-11912
▁Din	-11913
▁Doy	-11914
▁Ech	-11915
▁Enc	-11916
▁Fre	-11917
▁Min	-11918
▁Pré	-11919
▁Twi	-11920
▁azo	-11921
▁bac	-11922
▁bul	-11923
▁bús	-11924
▁cóm	-11925
▁déj	-11926
▁ebr	-11927
▁gus	-11928
▁imb	-11929
▁iny	-11930
▁neb	-11931
▁ora	-11932
▁oía	-11933
▁pás	-11934
▁reb	-11935
▁sel	-11936
▁tai	-11937
▁vul	-11938
▁zan	-11939
▁ásp	-11940
Pasas	-11941
Queda	-11942
Saben	-11943
Tomas	-11944
codri	-11945
crito	-11946
curio	-11947
ellos	-11948
enado	-11949
entan	-11950
eresa	-11951
fiere	-11952
ganlo	-11953
gapur	-11954
garme	-11955
gedia	-11956
gible	-11957
goría	-11958
grama	-11959
hjong	-11960
inete	-11961
ingos	-11962
isita	-11963
ladas	-11964
lizar	-11965
mados	-11966
onald	-11967
ornos	-11968
ositó	-11969
quido	-11970
rangu	-11971
sitos	-11972
tidas	-11973
umbre	-11974
vadas	-11975
vidas	-11976
ámara	-11977
ánica	-11978
▁Acér	-11979
▁Anda	-11980
▁Arre	-11981
▁Cepí	-11982
▁Divi	-11983
▁Echa	-11984
▁Hong	-11985
▁Kong	-11986
▁Lava	-11987
▁Mánd	-11988
▁Pese	-11989
▁Pido	-11990
▁Poné	-11991
▁Prue	-11992
▁Puso	-11993
▁Soñé	-11994
▁Supe	-11995
▁Tira	-11996
▁Vení	-11997
▁Veré	-11998
▁acal	-11999
▁acre	-12000
▁alem	-12001
▁anal	-12002
▁atún	-12003
▁caen	-12004
▁clic	-12005
▁coop	-12006
▁cuen	-12007
▁cuna	-12008
▁curó	-12009
▁cuya	-12010
▁dañó	-12011
▁deme	-12012
▁deva	-12013
▁digi	-12014
▁emer	-12015
▁entu	-12016
▁expe	-12017
▁fíes	-12018
▁geni	-12019
▁jira	-12020
▁lavo	-12021
▁list	-12022
▁mari	-12023
▁mina	-12024
▁mire	-12025
▁obso	-12026
▁oler	-12027
▁orde	-12028
▁otor	-12029
▁ovni	-12030
▁pací	-12031
▁parp	-12032
▁peni	-12033
▁pila	-12034
▁pist	-12035
▁prov	-12036
▁pupi	-12037
▁ruta	-12038
▁ríos	-12039
▁sigi	-12040
▁sirv	-12041
▁subí	-12042
▁sínt	-12043
▁súbi	-12044
▁taló	-12045
▁toro	-12046
▁tubo	-12047
▁turí	-12048
▁uses	-12049
▁vain	-12050
▁veje	-12051
▁voto	-12052
Conoce	-12053
Creéis	-12054
Estuvo	-12055
Vendrá	-12056
aduras	-12057
cuador	-12058
dicial	-12059
ensivo	-12060
erosas	-12061
ferior	-12062
iciste	-12063
idades	-12064
ideció	-12065
inaste	-12066
kelele	-12067
llando	-12068
melada	-12069
mental	-12070
metros	-12071
orrito	-12072
rastro	-12073
rujada	-12074
sticos	-12075
strofe	-12076
tileza	-12077
tinaje	-12078
uestro	-12079
uicios	-12080
ulando	-12081
zonada	-12082
árrate	-12083
ésemos	-12084
▁1.000	-12085
▁1945.	-12086
▁Alcan	-12087
▁Alpes	-12088
▁Cerré	-12089
▁Derra	-12090
▁Diles	-12091
▁Explí	-12092
▁Golpe	-12093
▁Liber	-12094
▁Llame	-12095
▁Luego	-12096
▁Obser	-12097
▁Obsér	-12098
▁Procu	-12099
▁Prosi	-12100
▁Recon	-12101
▁Santa	-12102
▁Smith	-12103
▁Vivía	-12104
▁Volví	-12105
▁accid	-12106
▁acord	-12107
▁alber	-12108
▁amado	-12109
▁ampol	-12110
▁amueb	-12111
▁andén	-12112
▁apara	-12113
▁apest	-12114
▁armar	-12115
▁asign	-12116
▁bajos	-12117
▁balón	-12118
▁barra	-12119
▁caída	-12120
▁cejas	-12121
▁compi	-12122
▁crece	-12123
▁cruce	-12124
▁darán	-12125
▁dejan	-12126
▁dirás	-12127
▁divis	-12128
▁dobló	-12129
▁doler	-12130
▁dolía	-12131
▁duras	-12132
▁endeu	-12133
▁envío	-12134
▁escép	-12135
▁estim	-12136
▁fallo	-12137
▁faltó	-12138
▁filas	-12139
▁filip	-12140
▁freno	-12141
▁frito	-12142
▁fumes	-12143
▁gotea	-12144
▁grita	-12145
▁hueso	-12146
▁impre	-12147
▁infla	-12148
▁ingre	-12149
▁inmig	-12150
▁instó	-12151
▁integ	-12152
▁islas	-12153
▁jamón	-12154
▁labio	-12155
▁labor	-12156
▁lango	-12157
▁lapic	-12158
▁lasti	-12159
▁luchó	-12160
▁manda	-12161
▁manga	-12162
▁mango	-12163
▁marcó	-12164
▁melan	-12165
▁merec	-12166
▁moría	-12167
▁muera	-12168
▁musul	-12169
▁nitró	-12170
▁occid	-12171
▁odias	-12172
▁opone	-12173
▁pagas	-12174
▁pagué	-12175
▁peine	-12176
▁petro	-12177
▁portó	-12178
▁preso	-12179
▁priva	-12180
▁prose	-12181
▁racha	-12182
▁recla	-12183
▁renta	-12184
▁repos	-12185
▁reven	-12186
▁rubio	-12187
▁sepan	-12188
▁serie	-12189
▁señas	-12190
▁sobra	-12191
▁socio	-12192
▁sorbo	-12193
▁sorda	-12194
▁sueña	-12195
▁temen	-12196
▁temía	-12197
▁tenue	-12198
▁terco	-12199
▁teñir	-12200
▁tribu	-12201
▁usual	-12202
▁vacil	-12203
▁vació	-12204
▁varon	-12205
▁venís	-12206
▁vigor	-12207
▁vodka	-12208
▁volcó	-12209
▁votos	-12210
▁vuela	-12211
▁ático	-12212
Conocés	-12213
Durante	-12214
Escucha	-12215
Lloverá	-12216
Pensáis	-12217
Querías	-12218
Viniste	-12219
américa	-12220
arición	-12221
cientas	-12222
ciélago	-12223
garemos	-12224
quieres	-12225
stación	-12226
stiendo	-12227
tadores	-12228
tividad	-12229
tranqui	-12230
▁Alguno	-12231
▁Alicia	-12232
▁Apunta	-12233
▁Cogeré	-12234
▁Cuelga	-12235
▁Cuenta	-12236
▁Cuidar	-12237
▁Decime	-12238
▁Dentro	-12239
▁Discúl	-12240
▁Duerme	-12241
▁Fracas	-12242
▁Lament	-12243
▁Llevar	-12244
▁Párate	-12245
▁Segura	-12246
▁Serbia	-12247
▁Suecia	-12248
▁Supuse	-12249
▁Súbete	-12250
▁Teresa	-12251
▁Tomaré	-12252
▁Unidas	-12253
▁Vengan	-12254
▁Visita	-12255
▁Váyase	-12256
▁acanti	-12257
▁acatar	-12258
▁acordó	-12259
▁acostó	-12260
▁acurru	-12261
▁adivin	-12262
▁adopta	-12263
▁agachó	-12264
▁alboro	-12265
▁apesta	-12266
▁armado	-12267
▁asesor	-12268
▁atacar	-12269
▁atleta	-12270
▁atribu	-12271
▁avance	-12272
▁barrer	-12273
▁bombas	-12274
▁cables	-12275
▁campes	-12276
▁cancel	-12277
▁carpin	-12278
▁carros	-12279
▁cartón	-12280
▁causar	-12281
▁cayera	-12282
▁cerezo	-12283
▁chicle	-12284
▁chiqui	-12285
▁civili	-12286
▁claras	-12287
▁conclu	-12288
▁cortes	-12289
▁cortos	-12290
▁creerá	-12291
▁cuñado	-12292
▁cólera	-12293
▁darles	-12294
▁debate	-12295
▁decida	-12296
▁dedico	-12297
▁dejaba	-12298
▁democr	-12299
▁dental	-12300
▁desafi	-12301
▁descom	-12302
▁deseas	-12303
▁dijese	-12304
▁dirías	-12305
▁discri	-12306
▁disper	-12307
▁doblar	-12308
▁domést	-12309
▁dueños	-12310
▁echada	-12311
▁eficaz	-12312
▁elogió	-12313
▁encaja	-12314
▁escalo	-12315
▁escapa	-12316
▁exhibi	-12317
▁expuls	-12318
▁fabric	-12319
▁fallar	-12320
▁fallos	-12321
▁fortal	-12322
▁fueran	-12323
▁furios	-12324
▁habitu	-12325
▁hablás	-12326
▁hagáis	-12327
▁hartos	-12328
▁herman	-12329
▁inacep	-12330
▁inclin	-12331
▁inmadu	-12332
▁jubiló	-12333
▁leerla	-12334
▁lidiar	-12335
▁llanto	-12336
▁mataré	-12337
▁micros	-12338
▁mirado	-12339
▁morado	-12340
▁museos	-12341
▁nativa	-12342
▁niñera	-12343
▁oculta	-12344
▁odiado	-12345
▁olfato	-12346
▁ordené	-12347
▁ovejas	-12348
▁papión	-12349
▁parara	-12350
▁pelean	-12351
▁pelliz	-12352
▁peluca	-12353
▁pistas	-12354
▁pizzas	-12355
▁poesía	-12356
▁poster	-12357
▁pregún	-12358
▁primas	-12359
▁ratito	-12360
▁receta	-12361
▁recibe	-12362
▁rindas	-12363
▁saluda	-12364
▁silbar	-12365
▁sitios	-12366
▁sonado	-12367
▁surgió	-12368
▁sólida	-12369
▁ticket	-12370
▁tragar	-12371
▁tremen	-12372
▁trepar	-12373
▁tropic	-12374
▁trotar	-12375
▁unirse	-12376
▁vitore	-12377
▁volado	-12378
▁zorros	-12379
▁órgano	-12380
▁únicas	-12381
Estarías	-12382
biliario	-12383
ferencia	-12384
osamente	-12385
squillos	-12386
▁Aléjate	-12387
▁Comenzó	-12388
▁Considé	-12389
▁Continu	-12390
▁Decidió	-12391
▁Dejemos	-12392
▁Díganme	-12393
▁Esperen	-12394
▁Estarás	-12395
▁Existen	-12396
▁Llámalo	-12397
▁Llévate	-12398
▁Pasemos	-12399
▁Polonia	-12400
▁Quedaos	-12401
▁Quédese	-12402
▁Sírvase	-12403
▁Tomemos	-12404
▁Trataré	-12405
▁Twitter	-12406
▁Vinimos	-12407
▁Vámonos	-12408
▁aburrió	-12409
▁acababa	-12410
▁adivina	-12411
▁agencia	-12412
▁agradan	-12413
▁aprieto	-12414
▁arreglo	-12415
▁arresto	-12416
▁asegura	-12417
▁bañarme	-12418
▁bombero	-12419
▁botones	-12420
▁campeón	-12421
▁cargada	-12422
▁cayendo	-12423
▁certeza	-12424
▁ciervos	-12425
▁cogerlo	-12426
▁colgado	-12427
▁comamos	-12428
▁combine	-12429
▁confían	-12430
▁consumo	-12431
▁contara	-12432
▁contrad	-12433
▁coreana	-12434
▁costosa	-12435
▁creerme	-12436
▁crítica	-12437
▁cuadros	-12438
▁cuerdas	-12439
▁cuidaré	-12440
▁cultiva	-12441
▁debamos	-12442
▁debiera	-12443
▁decides	-12444
▁dejaras	-12445
▁demente	-12446
▁departa	-12447
▁derribó	-12448
▁desnuda	-12449
▁detiene	-12450
▁docenas	-12451
▁duermas	-12452
▁echamos	-12453
▁empeora	-12454
▁empujar	-12455
▁encargo	-12456
▁entrome	-12457
▁envidio	-12458
▁errónea	-12459
▁esclavo	-12460
▁escribo	-12461
▁escuche	-12462
▁especie	-12463
▁esposas	-12464
▁estornu	-12465
▁expecta	-12466
▁exponer	-12467
▁fallado	-12468
▁faltado	-12469
▁feriado	-12470
▁footing	-12471
▁fuentes	-12472
▁furiosa	-12473
▁galleta	-12474
▁ganarse	-12475
▁haberos	-12476
▁hartado	-12477
▁hierbas	-12478
▁incompe	-12479
▁indicar	-12480
▁invento	-12481
▁joyería	-12482
▁lavarte	-12483
▁levante	-12484
▁llegaba	-12485
▁llegaré	-12486
▁logrado	-12487
▁manchas	-12488
▁mendigo	-12489
▁meterme	-12490
▁mirarla	-12491
▁mirarme	-12492
▁morimos	-12493
▁mudarme	-12494
▁neblina	-12495
▁notable	-12496
▁obligar	-12497
▁ordenar	-12498
▁pedirme	-12499
▁pegarle	-12500
▁perdonó	-12501
▁perfume	-12502
▁perilla	-12503
▁perspec	-12504
▁plancha	-12505
▁podrido	-12506
▁porción	-12507
▁prestas	-12508
▁promete	-12509
▁puestas	-12510
▁quedase	-12511
▁quejaba	-12512
▁quieran	-12513
▁rebelde	-12514
▁reescri	-12515
▁reventó	-12516
▁ruidoso	-12517
▁secador	-12518
▁setenta	-12519
▁supervi	-12520
▁término	-12521
▁ukelele	-12522
▁valiosa	-12523
▁viajado	-12524
▁viajero	-12525
▁vuelven	-12526
▁órganos	-12527
actamente	-12528
▁Cantemos	-12529
▁Confieso	-12530
▁Consider	-12531
▁Descubrí	-12532
▁Entraron	-12533
▁Murieron	-12534
▁Naciones	-12535
▁Necesita	-12536
▁Pongamos	-12537
▁Renuncié	-12538
▁Salieron	-12539
▁Seguimos	-12540
▁Singapur	-12541
▁Veámonos	-12542
▁Viajamos	-12543
▁abofeteó	-12544
▁abrieron	-12545
▁aceptara	-12546
▁adecuada	-12547
▁admiraba	-12548
▁agotando	-12549
▁ahorrado	-12550
▁ambición	-12551
▁aparenta	-12552
▁aproxima	-12553
▁apurarte	-12554
▁aquellas	-12555
▁ardiendo	-12556
▁arriesga	-12557
▁asegurar	-12558
▁atacaron	-12559
▁brillaba	-12560
▁callados	-12561
▁callejón	-12562
▁camarera	-12563
▁camellos	-12564
▁camiseta	-12565
▁cervezas	-12566
▁chillido	-12567
▁cobardes	-12568
▁combinan	-12569
▁competir	-12570
▁compraré	-12571
▁conducía	-12572
▁conexión	-12573
▁confesar	-12574
▁confirmó	-12575
▁confundí	-12576
▁conocían	-12577
▁consolar	-12578
▁contigua	-12579
▁corporal	-12580
▁cosiendo	-12581
▁cruzados	-12582
▁culparme	-12583
▁despidió	-12584
▁destruir	-12585
▁destruyó	-12586
▁devorado	-12587
▁devuelta	-12588
▁diseñado	-12589
▁ebriedad	-12590
▁elegimos	-12591
▁encantar	-12592
▁enemigas	-12593
▁engordar	-12594
▁entraste	-12595
▁equivoca	-12596
▁equivoco	-12597
▁escapado	-12598
▁escribía	-12599
▁escritos	-12600
▁espacial	-12601
▁estabais	-12602
▁estofado	-12603
▁estrangu	-12604
▁estrecho	-12605
▁estudian	-12606
▁exagerar	-12607
▁excesivo	-12608
▁exprimió	-12609
▁extrañas	-12610
▁extrover	-12611
▁farmacia	-12612
▁ferrocar	-12613
▁filipino	-12614
▁golfista	-12615
▁gratuita	-12616
▁habernos	-12617
▁idéntico	-12618
▁imprimir	-12619
▁impuesto	-12620
▁inferior	-12621
▁informes	-12622
▁ingleses	-12623
▁inseguro	-12624
▁jodiendo	-12625
▁lanzaron	-12626
▁lastimes	-12627
▁levantes	-12628
▁limitado	-12629
▁limpiado	-12630
▁limpiara	-12631
▁llegarán	-12632
▁llevarte	-12633
▁lograron	-12634
▁manzanos	-12635
▁marchado	-12636
▁marrones	-12637
▁masticar	-12638
▁mentirte	-12639
▁montones	-12640
▁mosquito	-12641
▁necesité	-12642
▁negativo	-12643
▁nocturna	-12644
▁nocturno	-12645
▁ocupadas	-12646
▁ofendido	-12647
▁oponente	-12648
▁ordenado	-12649
▁paradero	-12650
▁parecida	-12651
▁patinaje	-12652
▁pensaría	-12653
▁perdemos	-12654
▁planchar	-12655
▁podridas	-12656
▁postular	-12657
▁presionó	-12658
▁prestada	-12659
▁rascacie	-12660
▁recesión	-12661
▁recortes	-12662
▁recupere	-12663
▁sabremos	-12664
▁siéntate	-12665
▁siéntese	-12666
▁sostener	-12667
▁sostiene	-12668
▁templado	-12669
▁temporal	-12670
▁tornillo	-12671
▁tragedia	-12672
▁trataron	-12673
▁vainilla	-12674
▁variedad	-12675
▁visitará	-12676
▁visitaré	-12677
▁vivieron	-12678
▁voluntar	-12679
▁volverme	-12680
entimiento	-12681
terrestres	-12682
▁Aceptamos	-12683
▁Atlántico	-12684
▁Comparado	-12685
▁Consiguió	-12686
▁Escríbeme	-12687
▁Halloween	-12688
▁Inténtalo	-12689
▁Muéstreme	-12690
▁Necesitan	-12691
▁Pareciera	-12692
▁Recibimos	-12693
▁Vayámonos	-12694
▁aceptaría	-12695
▁acusación	-12696
▁alegramos	-12697
▁americana	-12698
▁aparecerá	-12699
▁aumentado	-12700
▁ayudarles	-12701
▁categoría	-12702
▁comparado	-12703
▁compensar	-12704
▁completar	-12705
▁comprarte	-12706
▁comunican	-12707
▁concluido	-12708
▁conduzcas	-12709
▁confirmar	-12710
▁conflicto	-12711
▁congelado	-12712
▁consultar	-12713
▁declarado	-12714
▁decírtelo	-12715
▁derrotado	-12716
▁desayunas	-12717
▁despejado	-12718
▁despierte	-12719
▁destinado	-12720
▁destruida	-12721
▁detallada	-12722
▁detenerlo	-12723
▁detenidos	-12724
▁distingue	-12725
▁distintos	-12726
▁duplicado	-12727
▁eficiente	-12728
▁embajador	-12729
▁embrujada	-12730
▁emociones	-12731
▁esperabas	-12732
▁frustrado	-12733
▁fumadores	-12734
▁gentileza	-12735
▁golpeando	-12736
▁hablantes	-12737
▁implicado	-12738
▁indefenso	-12739
▁interesan	-12740
▁intereses	-12741
▁intranqui	-12742
▁invasores	-12743
▁invitarme	-12744
▁italianos	-12745
▁mantenido	-12746
▁maravilla	-12747
▁marcharte	-12748
▁mermelada	-12749
▁navideños	-12750
▁necesitás	-12751
▁nerviosos	-12752
▁nitrógeno	-12753
▁olvidaste	-12754
▁organizar	-12755
▁oscureció	-12756
▁padrastro	-12757
▁palideció	-12758
▁plantando	-12759
▁preocupas	-12760
▁quisieras	-12761
▁recibimos	-12762
▁recogerme	-12763
▁recuperar	-12764
▁repetirlo	-12765
▁sobrepeso	-12766
▁solitaria	-12767
▁sucedería	-12768
▁suspendió	-12769
▁tonterías	-12770
▁triunfará	-12771
▁vehículos	-12772
▁Claramente	-12773
▁Desconozco	-12774
▁Encontraré	-12775
▁Estudiamos	-12776
▁Estuvieron	-12777
▁Intentemos	-12778
▁Lamentamos	-12779
▁acantilado	-12780
▁acompañado	-12781
▁acompañaré	-12782
▁americanas	-12783
▁asegurarse	-12784
▁asegurarte	-12785
▁asesinados	-12786
▁automático	-12787
▁cachorrito	-12788
▁calentador	-12789
▁calificado	-12790
▁carretilla	-12791
▁catástrofe	-12792
▁competente	-12793
▁compositor	-12794
▁contagiosa	-12795
▁contribuyó	-12796
▁corazonada	-12797
▁cristianos	-12798
▁desacuerdo	-12799
▁deshonesto	-12800
▁despedidos	-12801
▁despiertos	-12802
▁discutimos	-12803
▁dispuestos	-12804
▁emocionada	-12805
▁entenderle	-12806
▁enterraron	-12807
▁entrenando	-12808
▁entristece	-12809
▁especiales	-12810
▁expedición	-12811
▁exposición	-12812
▁expresarte	-12813
▁extraordin	-12814
▁habitantes	-12815
▁ingenieros	-12816
▁insensible	-12817
▁investigar	-12818
▁maleducado	-12819
▁mantenerse	-12820
▁mentirosos	-12821
▁murciélago	-12822
▁ofrecieron	-12823
▁perdonarle	-12824
▁plenamente	-12825
▁predicción	-12826
▁privacidad	-12827
▁protección	-12828
▁psiquiatra	-12829
▁recibieron	-12830
▁reconocido	-12831
▁regresaría	-12832
▁reparación	-12833
▁representa	-12834
▁respetuoso	-12835
▁salvavidas	-12836
▁satisfacer	-12837
▁siguientes	-12838
▁simpáticos	-12839
▁suspendido	-12840
▁terminarlo	-12841
▁trabajaban	-12842
ventualmente	-12843
▁Agradecería	-12844
▁Conseguimos	-12845
▁Conversamos	-12846
▁Quienquiera	-12847
▁Seguramente	-12848
▁actividades	-12849
▁agricultura	-12850
▁aplaudieron	-12851
▁aprendizaje	-12852
▁averiguarlo	-12853
▁bienvenidos	-12854
▁centímetros	-12855
▁compartimos	-12856
▁compartirlo	-12857
▁competición	-12858
▁composición	-12859
▁corresponde	-12860
▁dependiente	-12861
▁desaparecer	-12862
▁desconocida	-12863
▁desempleado	-12864
▁despiértame	-12865
▁diferencias	-12866
▁dinosaurios	-12867
▁encontrarla	-12868
▁encontraría	-12869
▁encontremos	-12870
▁enormemente	-12871
▁equivocarse	-12872
▁escondernos	-12873
▁financieros	-12874
▁herramienta	-12875
▁inaceptable	-12876
▁inmigrantes	-12877
▁inspiración	-12878
▁instrumento	-12879
▁intercambio	-12880
▁irrelevante	-12881
▁microscopio	-12882
▁necesidades	-12883
▁orientación	-12884
▁perjudicial	-12885
▁preguntaste	-12886
▁quisquillos	-12887
▁respondiste	-12888
▁sentenciado	-12889
▁sentimiento	-12890
▁severamente	-12891
▁superficial	-12892
▁tradiciones	-12893
▁vegetariano	-12894
▁alternativas	-12895
▁avergonzarse	-12896
▁confidencial	-12897
▁cuestionario	-12898
▁decepcionada	-12899
▁descompuesto	-12900
▁desconocidos	-12901
▁descubrieron	-12902
▁materialista	-12903
▁organización	-12904
▁preocupación	-12905
▁preparándose	-12906
▁presentación	-12907
▁secretamente	-12908
▁sinceramente	-12909
▁sorprendente	-12910
▁acostumbrados	-12911
▁acostumbrarme	-12912
▁conocimientos	-12913
▁contaminación	-12914
▁oportunidades	-12915
▁satisfactoria	-12916
▁sigilosamente	-12917
▁intercambiaron	-12918
▁secuestradores	-12919
▁Lamentablemente	-12920
▁extraterrestres	-12921
!»	-12922
An	-12923
DA	-12924
Ex	-12925
Ll	-12926
Ni	-12927
Pe	-12928
eh	-12929
ej	-12930
ff	-12931
mí	-12932
ts	-12933
yn	-12934
zn	-12935
▁(	-12936
▁-	-12937
▁X	-12938
!".	-12939
Apa	-12940
Dis	-12941
Pon	-12942
Toc	-12943
all	-12944
ctu	-12945
dós	-12946
esc	-12947
esó	-12948
frí	-12949
ful	-12950
gle	-12951
gón	-12952
güé	-12953
hos	-12954
ika	-12955
inu	-12956
ién	-12957
kok	-12958
log	-12959
lon	-12960
mal	-12961
mbo	-12962
omé	-12963
ons	-12964
oyo	-12965
rid	-12966
rin	-12967
ris	-12968
rup	-12969
try	-12970
tus	-12971
tác	-12972
umb	-12973
uno	-12974
ure	-12975
uvo	-12976
win	-12977
xas	-12978
áfa	-12979
ñan	-12980
▁$3	-12981
▁21	-12982
▁6.	-12983
▁60	-12984
▁Bu	-12985
▁Ge	-12986
▁Ok	-12987
▁Sá	-12988
▁Th	-12989
▁Tó	-12990
▁aj	-12991
▁«¡	-12992
▁én	-12993
Date	-12994
Irás	-12995
Oyes	-12996
Vaya	-12997
anji	-12998
anoa	-12999
asán	-13000
baló	-13001
bita	-13002
cala	-13003
caré	-13004
cear	-13005
chón	-13006
cita	-13007
desa	-13008
dite	-13009
dney	-13010
duvo	-13011
enan	-13012
enho	-13013
eroi	-13014
geme	-13015
gent	-13016
gias	-13017
guía	-13018
hone	-13019
iena	-13020
ionó	-13021
ique	-13022
ires	-13023
isti	-13024
land	-13025
lash	-13026
legí	-13027
león	-13028
lios	-13029
lita	-13030
láis	-13031
mera	-13032
mida	-13033
omás	-13034
onca	-13035
opin	-13036
orar	-13037
poro	-13038
psia	-13039
queó	-13040
quin	-13041
rama	-13042
reas	-13043
reno	-13044
róch	-13045
stan	-13046
tigu	-13047
tima	-13048
ulso	-13049
urar	-13050
ushu	-13051
veme	-13052
vios	-13053
zota	-13054
zzle	-13055
áneo	-13056
écil	-13057
íque	-13058
▁191	-13059
▁400	-13060
▁ADN	-13061
▁Beb	-13062
▁Bon	-13063
▁Bru	-13064
▁Bél	-13065
▁Cri	-13066
▁Evi	-13067
▁Ház	-13068
▁Ken	-13069
▁Mal	-13070
▁McD	-13071
▁Men	-13072
▁Nor	-13073
▁Ojo	-13074
▁Oli	-13075
▁Olí	-13076
▁Pal	-13077
▁Sap	-13078
▁Sed	-13079
▁Ste	-13080
▁Vie	-13081
▁adu	-13082
▁alu	-13083
▁anz	-13084
▁bel	-13085
▁brú	-13086
▁búl	-13087
▁cañ	-13088
▁cál	-13089
▁cín	-13090
▁dia	-13091
▁dim	-13092
▁elu	-13093
▁fax	-13094
▁gab	-13095
▁gau	-13096
▁grá	-13097
▁hur	-13098
▁lac	-13099
▁lad	-13100
▁leg	-13101
▁mag	-13102
▁mex	-13103
▁mué	-13104
▁már	-13105
▁nac	-13106
▁neu	-13107
▁ome	-13108
▁oxi	-13109
▁pay	-13110
▁sex	-13111
▁tex	-13112
▁usu	-13113
▁zur	-13114
▁étn	-13115
Ayuda	-13116
Comer	-13117
Debes	-13118
Donde	-13119
Escri	-13120
Feliz	-13121
aliza	-13122
baste	-13123
billa	-13124
canes	-13125
carte	-13126
certe	-13127
cería	-13128
chaba	-13129
ciste	-13130
crata	-13131
creto	-13132
crita	-13133
culas	-13134
dería	-13135
dison	-13136
edado	-13137
entra	-13138
erosa	-13139
espal	-13140
fasis	-13141
feros	-13142
genas	-13143
graci	-13144
guido	-13145
guila	-13146
inawa	-13147
iposa	-13148
istán	-13149
lique	-13150
llate	-13151
lombo	-13152
maste	-13153
mbate	-13154
mentó	-13155
minos	-13156
mitió	-13157
moral	-13158
onado	-13159
ortés	-13160
orías	-13161
plaba	-13162
pping	-13163
puest	-13164
queda	-13165
ranca	-13166
roslo	-13167
rumbó	-13168
saron	-13169
sider	-13170
tesis	-13171
tiliz	-13172
titos	-13173
torce	-13174
uales	-13175
ueles	-13176
uelva	-13177
ulado	-13178
untry	-13179
vanse	-13180
versi	-13181
xofón	-13182
zable	-13183
zante	-13184
zaría	-13185
áfaga	-13186
ñador	-13187
ñendo	-13188
úrese	-13189
▁8:00	-13190
▁Actu	-13191
▁Ahor	-13192
▁Ando	-13193
▁Aqué	-13194
▁Arro	-13195
▁Arru	-13196
▁Aust	-13197
▁Bajo	-13198
▁Bebo	-13199
▁Bebí	-13200
▁Biwa	-13201
▁Coca	-13202
▁Dice	-13203
▁Dilo	-13204
▁Enví	-13205
▁Escú	-13206
▁Ford	-13207
▁Gané	-13208
▁Huyó	-13209
▁Juro	-13210
▁Napo	-13211
▁Nilo	-13212
▁Odia	-13213
▁Paga	-13214
▁Pele	-13215
▁Peso	-13216
▁Pide	-13217
▁Pues	-13218
▁SIDA	-13219
▁Sean	-13220
▁Sonó	-13221
▁Unos	-13222
▁Visi	-13223
▁aban	-13224
▁acos	-13225
▁ahuy	-13226
▁aper	-13227
▁asfi	-13228
▁ator	-13229
▁audi	-13230
▁beba	-13231
▁blog	-13232
▁bost	-13233
▁case	-13234
▁chas	-13235
▁conv	-13236
▁coro	-13237
▁cuén	-13238
▁deca	-13239
▁decí	-13240
▁depi	-13241
▁depó	-13242
▁dilo	-13243
▁dios	-13244
▁dudó	-13245
▁ejec	-13246
▁empa	-13247
▁enju	-13248
▁enre	-13249
▁espi	-13250
▁exag	-13251
▁exci	-13252
▁excl	-13253
▁fiel	-13254
▁fino	-13255
▁foga	-13256
▁fort	-13257
▁fórm	-13258
▁gala	-13259
▁gire	-13260
▁grúa	-13261
▁here	-13262
▁higi	-13263
▁ilum	-13264
▁ilus	-13265
▁imán	-13266
▁infe	-13267
▁insa	-13268
▁into	-13269
▁irán	-13270
▁jale	-13271
▁kara	-13272
▁lanz	-13273
▁lazo	-13274
▁lust	-13275
▁malh	-13276
▁mens	-13277
▁miro	-13278
▁mudé	-13279
▁nudo	-13280
▁obtu	-13281
▁ofen	-13282
▁ojeó	-13283
▁olas	-13284
▁pato	-13285
▁pein	-13286
▁pela	-13287
▁perd	-13288
▁pion	-13289
▁plac	-13290
▁pola	-13291
▁puño	-13292
▁rapi	-13293
▁suba	-13294
▁susp	-13295
▁trom	-13296
▁usas	-13297
▁Ésos	-13298
Piensa	-13299
abuelo	-13300
amarca	-13301
brando	-13302
ciable	-13303
diante	-13304
distas	-13305
dumbre	-13306
díbula	-13307
ecimos	-13308
edicto	-13309
erosos	-13310
iduría	-13311
onente	-13312
oscada	-13313
quetas	-13314
quetes	-13315
reocup	-13316
resión	-13317
stamos	-13318
steció	-13319
sterna	-13320
terias	-13321
ticipé	-13322
trices	-13323
trones	-13324
turado	-13325
usimos	-13326
áticas	-13327
ómetro	-13328
▁1972.	-13329
▁2.000	-13330
▁Abrió	-13331
▁Acost	-13332
▁Ayuda	-13333
▁Busca	-13334
▁Calcu	-13335
▁Canta	-13336
▁Cerrá	-13337
▁Claus	-13338
▁Comer	-13339
▁Dadme	-13340
▁Denme	-13341
▁Elegí	-13342
▁Escal	-13343
▁Feste	-13344
▁Flash	-13345
▁Fuera	-13346
▁Hagan	-13347
▁Hazte	-13348
▁Huelo	-13349
▁Juega	-13350
▁Jugué	-13351
▁Llamá	-13352
▁Lloro	-13353
▁Mirad	-13354
▁Mucho	-13355
▁Obede	-13356
▁Pablo	-13357
▁Pidió	-13358
▁Plane	-13359
▁Ponle	-13360
▁Ponme	-13361
▁Repar	-13362
▁Resol	-13363
▁Rompi	-13364
▁Salid	-13365
▁Sudam	-13366
▁Texas	-13367
▁Tokyo	-13368
▁Traje	-13369
▁Trato	-13370
▁Vente	-13371
▁Viajó	-13372
▁Viena	-13373
▁acari	-13374
▁acero	-13375
▁agria	-13376
▁alegó	-13377
▁asado	-13378
▁atrae	-13379
▁auric	-13380
▁ayudo	-13381
▁bailó	-13382
▁barro	-13383
▁bebes	-13384
▁bocad	-13385
▁boche	-13386
▁búhos	-13387
▁cabre	-13388
▁caigo	-13389
▁canoa	-13390
▁cansa	-13391
▁carac	-13392
▁cargó	-13393
▁cavar	-13394
▁cerro	-13395
▁circo	-13396
▁conso	-13397
▁corrí	-13398
▁crear	-13399
▁curry	-13400
▁daban	-13401
▁danza	-13402
▁darás	-13403
▁defen	-13404
▁denun	-13405
▁desar	-13406
▁desfi	-13407
▁divul	-13408
▁dudes	-13409
▁echas	-13410
▁elogi	-13411
▁embar	-13412
▁enchu	-13413
▁enfri	-13414
▁engen	-13415
▁envié	-13416
▁equip	-13417
▁escan	-13418
▁explí	-13419
▁flaco	-13420
▁flota	-13421
▁fruto	-13422
▁gasté	-13423
▁gesto	-13424
▁grabó	-13425
▁gruñó	-13426
▁guiño	-13427
▁halla	-13428
▁hebre	-13429
▁hechi	-13430
▁hondo	-13431
▁hunde	-13432
▁ileso	-13433
▁ilust	-13434
▁impec	-13435
▁incur	-13436
▁infec	-13437
▁influ	-13438
▁inger	-13439
▁justa	-13440
▁kanji	-13441
▁mayús	-13442
▁medir	-13443
▁miras	-13444
▁nutri	-13445
▁obses	-13446
▁ocupó	-13447
▁opera	-13448
▁orque	-13449
▁oímos	-13450
▁oírme	-13451
▁panor	-13452
▁pasos	-13453
▁pegué	-13454
▁perra	-13455
▁pesas	-13456
▁pescó	-13457
▁pillo	-13458
▁poker	-13459
▁pones	-13460
▁prior	-13461
▁promo	-13462
▁publi	-13463
▁quita	-13464
▁rasgu	-13465
▁reban	-13466
▁repas	-13467
▁ridic	-13468
▁roble	-13469
▁rompa	-13470
▁ropas	-13471
▁rotos	-13472
▁salís	-13473
▁saque	-13474
▁sarcá	-13475
▁selva	-13476
▁sober	-13477
▁subas	-13478
▁sudar	-13479
▁sumer	-13480
▁susti	-13481
▁susto	-13482
▁suyas	-13483
▁tabla	-13484
▁teleg	-13485
▁tesis	-13486
▁trape	-13487
▁trime	-13488
▁trofe	-13489
▁tumor	-13490
▁ultra	-13491
▁vapor	-13492
▁viajo	-13493
▁viuda	-13494
▁ánimo	-13495
▁ético	-13496
Compren	-13497
Hiciste	-13498
aparrón	-13499
aríamos	-13500
dencias	-13501
dáramos	-13502
eciendo	-13503
entados	-13504
eroides	-13505
ficante	-13506
gentina	-13507
istible	-13508
mpiadas	-13509
osibles	-13510
rategia	-13511
rorista	-13512
usieron	-13513
uérdame	-13514
uérdate	-13515
ándonos	-13516
▁Acepté	-13517
▁Antigu	-13518
▁Apagué	-13519
▁Chopin	-13520
▁Consul	-13521
▁Darwin	-13522
▁Dejaré	-13523
▁Déjelo	-13524
▁Edison	-13525
▁Escoge	-13526
▁Fuiste	-13527
▁Inglés	-13528
▁Limpia	-13529
▁Llegas	-13530
▁Llovía	-13531
▁Monroe	-13532
▁Ordené	-13533
▁Pospon	-13534
▁Recién	-13535
▁Tómese	-13536
▁Usamos	-13537
▁Visito	-13538
▁absten	-13539
▁acorde	-13540
▁activa	-13541
▁activo	-13542
▁afeitó	-13543
▁afirma	-13544
▁alegró	-13545
▁amarga	-13546
▁aniver	-13547
▁aparcó	-13548
▁apuñal	-13549
▁armada	-13550
▁astuta	-13551
▁asumió	-13552
▁atrajo	-13553
▁averió	-13554
▁bellas	-13555
▁bigote	-13556
▁bronca	-13557
▁calaba	-13558
▁campos	-13559
▁campus	-13560
▁cargos	-13561
▁casará	-13562
▁cebras	-13563
▁cederá	-13564
▁chomba	-13565
▁claros	-13566
▁clavos	-13567
▁cocido	-13568
▁conste	-13569
▁cosita	-13570
▁crezca	-13571
▁crudas	-13572
▁cubrir	-13573
▁cubrió	-13574
▁cuenco	-13575
▁culpas	-13576
▁culpes	-13577
▁curado	-13578
▁cuáles	-13579
▁debéis	-13580
▁decile	-13581
▁desear	-13582
▁desemp	-13583
▁desesp	-13584
▁desliz	-13585
▁divide	-13586
▁dímelo	-13587
▁embust	-13588
▁enfado	-13589
▁engreí	-13590
▁enseñe	-13591
▁enseñé	-13592
▁entras	-13593
▁entume	-13594
▁erigió	-13595
▁espesa	-13596
▁estaño	-13597
▁falsas	-13598
▁farful	-13599
▁fideos	-13600
▁flotar	-13601
▁franco	-13602
▁fraude	-13603
▁fresas	-13604
▁fuegos	-13605
▁fundam	-13606
▁ganaba	-13607
▁ganara	-13608
▁gemela	-13609
▁grabar	-13610
▁grueso	-13611
▁guapas	-13612
▁hacías	-13613
▁hechas	-13614
▁huelen	-13615
▁ignora	-13616
▁imitar	-13617
▁impuso	-13618
▁incomo	-13619
▁indeci	-13620
▁inscri	-13621
▁intimi	-13622
▁jugaré	-13623
▁jungla	-13624
▁lentos	-13625
▁limita	-13626
▁listón	-13627
▁llenar	-13628
▁lloran	-13629
▁lógico	-13630
▁malcri	-13631
▁malici	-13632
▁mantas	-13633
▁mantel	-13634
▁manual	-13635
▁mascul	-13636
▁mecano	-13637
▁mejora	-13638
▁mental	-13639
▁moscas	-13640
▁mostré	-13641
▁mínima	-13642
▁nadaba	-13643
▁negado	-13644
▁negras	-13645
▁nevado	-13646
▁nevera	-13647
▁noción	-13648
▁observ	-13649
▁omelet	-13650
▁oyeron	-13651
▁pecado	-13652
▁pegada	-13653
▁pelado	-13654
▁peores	-13655
▁pequeñ	-13656
▁piezas	-13657
▁pirata	-13658
▁plante	-13659
▁plumas	-13660
▁poseía	-13661
▁propie	-13662
▁proven	-13663
▁puzzle	-13664
▁quemar	-13665
▁quilos	-13666
▁refrán	-13667
▁regalé	-13668
▁remoto	-13669
▁repetí	-13670
▁requer	-13671
▁resbal	-13672
▁robada	-13673
▁robots	-13674
▁rosado	-13675
▁rubias	-13676
▁ráfaga	-13677
▁sabría	-13678
▁sacado	-13679
▁saldré	-13680
▁salmón	-13681
▁saques	-13682
▁serías	-13683
▁sesión	-13684
▁sierra	-13685
▁sirven	-13686
▁sonaba	-13687
▁suenan	-13688
[...]
